#version: 0.2
č Ċ
Ġ t
h e
Ġ a
o u
Ġ s
i n
Ġ m
Ġ w
r e
h a
n d
Ġt he
Ġ b
i s
e r
o r
â Ģ
l l
Ġ f
o n
i t
âĢ Ļ
e s
Ġ d
Ġ c
Ġ l
Ġ o
Ġ n
e n
Ġ y
Ġt h
a r
Ġ h
Ġ p
Ġy ou
Ġt o
Ġ I
ha t
Ġa nd
Ġ he
Ġo f
o t
v e
a n
s t
in g
o w
o m
Ġ g
a t
e d
Ġ in
Ġb e
s e
c e
Ġ ha
e t
Ġm y
l d
a y
l e
Ġ Ġ
u t
i r
it h
i m
Ġm e
c h
g h
Ġn ot
Ġ is
i ll
Ġ e
Ġt hat
A nd
o o
k e
ou r
Ġf or
Ġ u
Ġw ith
Ġw e
T he
a d
t er
a s
Ġ it
r i
a l
en t
Ġyou r
Ġh is
he r
Ġs t
r a
i d
Ġth ou
gh t
Ġh im
l y
Ġ re
Ġth is
Ġl i
om e
Ġha ve
or d
Ġ on
u r
u s
Ġs o
Ġ k
v er
Ġa s
o re
ou ld
a in
Ġd e
. ]
r o
Ġd o
h i
c k
Ġw ill
oo d
E N
a m
Ġs ha
es s
Ġs e
Ġhe r
i on
A N
es t
Ġl o
e a
Ġ S
a nd
g e
Ġ C
n t
U S
Ġth y
E R
T h
t h
Ġn o
A R
Ġs u
Ġa ll
Ġa n
I N
i l
Ġb ut
Ġ H
r u
a ke
Ġ A
i f
e ll
Ġf a
Ġs p
T o
c t
e ar
i ght
ĠĠ ĠĠ
Ġk n
Ġsha ll
Ġthe e
h o
Ġ M
Ġ v
Ġa re
Ġ P
T hat
E S
r om
ha n
Ġ W
a st
Ġb y
ar t
Ġ B
Ġ L
ar d
Ġs h
Ġ our
O N
Ġn e
Ġm an
in e
E n
an t
e nd
Ġa t
Ġ G
ou s
q u
S T
Ġu p
Ġa m
se l
Ġm u
re s
on e
Ġc om
ou t
in d
e m
Ġl ord
i e
i ve
Ġs he
Ġg ood
hi ch
he n
Ġg o
on g
Ġc on
O R
âĢ Ķ
Ġf rom
u l
Ġlo ve
r y
ot h
er s
Ġ F
Ġw hat
v en
r ow
i c
Ġb l
b le
E x
Ġthe m
Ġw as
En ter
Ġs w
Ġkn ow
Ġw ould
Ġm ore
A L
B ut
he re
O L
p p
Ġthe ir
f e
at h
Ġ âĢĻ
a u
e p
Ġc an
e l
Ġp r
u re
a ll
Ġn ow
o st
o l
Ġthe y
Ġ hat
Ġthe re
Ġ D
Ġw or
sel f
Ġ O
Ġ or
Ġa r
Ġt han
W hat
Ġs ir
at e
Ġu s
H e
in k
or t
Ġ if
Ġ R
Ġs ay
I O
Y ou
a re
Ġl et
Ġ T
L E
Ġhe re
am e
F or
u m
v es
re at
u e
a k
ot her
Ġ The
oo k
h y
Ġp l
T H
Ġli ke
f ore
ou nd
Ġthe n
is h
Ġwe ll
Ġhat h
at her
i g
o d
Ġon e
Ġse e
IN G
E L
u n
Ġ j
Ġd id
Ġu n
Ġsh ould
C H
Ġ r
Ġm ay
Ġc ome
R O
Ġ en
g ain
Ġ K
Ġm ad
Ġm ake
Ġb r
an ce
M y
is t
Ġ qu
Ġh o
I A
A s
Ġup on
Ġ out
i ce
Ġmu st
Ġs a
Ġw hich
ver y
ea k
p e
Ġwe re
it y
im e
K ING
Ġha d
I R
re d
Ġto o
L O
Ġt ru
Ġp ro
i es
en ce
p t
ĠĠ Ġ
Ġe y
Ġsu ch
Ġhe art
or n
I US
Ġw hen
Ġp o
u nt
Th ou
Ġha nd
Ġh on
f f
Th is
Ġ [
Ġd is
I f
Ġe x
Ġa l
o nd
t her
Ġ E
Ġa gain
i ck
n ess
a ve
as s
Ġy et
Ġ N
is e
âĢ ľ
Ġ J
i re
w n
Ġw ho
Ġsp eak
Ġof f
a ge
e et
ur n
I n
Ġs ome
W ith
a ck
o se
Ġth ink
Ġthe se
Ġm ine
ad y
o y
Ġf l
ing s
ow n
ĠK ing
AN T
n g
Ġa b
Ġf ri
Ġf o
AR D
A M
i o
Ġhe a
Ġf ather
Ġh ow
d e
e unt
Ġg reat
Ġ ro
f ul
Ex eunt
Ġt ime
Ġc ha
res s
in ce
Ġg ive
I C
a g
Ġt w
u st
Ġg ra
w ay
Ġt ake
c i
ES S
Ġw here
Ġmu ch
W hy
o s
O f
at ion
ent le
ĠĠĠĠ ĠĠĠĠ
Ġ ri
âĢ Ŀ
EN E
Ġd ay
ast er
Ġm ost
Ex it
S o
N o
H ow
Ġd es
W e
Ġm ar
B e
Ġt ell
Ġfri end
Ġne ver
I L
Ġb re
b er
Ġbe t
Ġl e
Ġhe ar
Ġl ea
Ġl ook
u ll
A T
ou gh
re e
Ġm en
it her
Ġar t
t o
ig n
l i
it e
W hich
Ġp art
Ġe ar
Ġli fe
Ġbl ood
Ġd oth
Ġde ath
Ġw ord
a p
n ot
ou l
Ġo ther
Ġfa ir
W ho
Ġhon our
m ent
U C
ou nt
L A
ĠH e
Ġw r
E T
i gh
a se
Ġf ear
c es
a ce
c he
o ld
Ġg entle
id e
Ġt r
an s
I t
o ve
Ġp le
t le
Ġan y
Ġsw eet
oo l
Ġc l
Ġo wn
S C
Ġs c
w ard
Ġs er
i us
Ġhea ven
Ġp er
nd er
F F
Ġn ight
Ġa d
Ġs on
Ġcom m
f t
Ġ ra
Ġw ar
t is
Ġmad e
Ġc all
h ing
e e
S E
p er
I s
Ġtru e
Ġey es
Ġw h
l es
n ce
row n
W here
B y
v ing
l and
Ġ very
ll ow
IR ST
F IRST
W hen
Ġ ke
Ġha st
AN D
Ġ âĢľ
Ġcan not
or row
ĠW hat
SC ENE
m an
au gh
ct ion
Ġwor ld
C A
Ġst r
Ġp re
a ble
Ġa pp
The re
Ġ And
ou se
Ġpr ay
Ġbe en
Y our
P H
t y
T is
s s
O r
o ck
Ġa f
L et
Ġa way
Ġw it
Ġbe ar
ĠL ord
I T
u ke
Ġd one
ĠB ut
Q U
Ġk ing
w e
Ġw ay
Ġc our
Ġn or
U R
Ġ im
c c
Ġ ru
A C
Ġl a
u d
i a
Ġst and
Ġ V
Ġcom p
Ġd own
Ġn ame
Ġhe ad
p s
Ġm ight
is s
Ġar m
Ġe ver
Ġtw o
Ġw om
l ess
ow er
C ome
A y
E M
Ġcon t
D U
g er
e f
Ġbr other
Ġp res
ain t
k s
Ġbe fore
ear s
EN T
R I
Ġthou ght
Ġs l
ĠG od
Ġo ld
if e
s w
Ġbe g
Ġlea ve
Ġno ble
a ch
Ġth us
Ġl ong
Ġl ady
N ow
ir st
as on
i an
Ġc ould
Ġde ad
Ġne w
Ġha r
augh ter
au se
b l
m e
Ġf ool
Ġre m
Ġcom es
C E
E D
Ġpo or
Ġs oul
C ON
Ġsh ow
ar k
Ġp ur
Ġli ve
d s
p le
Ġe nd
OR D
Ġg l
b e
Ġbe ing
Ġf ind
or s
Ġbet ter
at ter
ak es
ĠD uke
i ous
e w
ST A
Ġb est
Ġst ill
et h
I M
ou ght
c ome
Ġm a
Ġke ep
Ġb oth
ea ce
er t
I S
u ck
Ġre p
The n
Ġin to
Ġe very
Ġman y
Ġm er
nt o
f or
i ed
t he
ha ll
Ġnot hing
c y
Ġs m
c l
ha r
Ġb ra
He re
un e
i er
ĠP r
w ell
Ġh ouse
Ġp ut
it tle
ist ress
B ER
ĠC a
K E
Ġm aster
at ch
The y
S he
n e
S t
Ġf ell
hi p
m p
Ġs et
ĠI f
Ġmy self
m en
Ġt ong
Ġp ri
Ġfriend s
I AN
R U
Ġey e
H is
re n
in s
v il
a c
t end
Ġl ittle
CH ARD
r ant
Ġh our
re t
on s
Ġth ose
T han
CON D
H AM
ar ry
LE T
Ġ En
Ġli e
SE COND
S S
W ell
Ġw ife
it s
Ġd aughter
Ġyou ng
ie ld
Ġho ld
Ġn at
Ġde ar
Ġd ie
in t
Ġf irst
IN E
l f
Ġfo llow
E EN
r ance
Ġc hi
i le
Ġc o
l t
en s
ut y
al k
Ġs le
ed s
QU EEN
Y et
Ġre st
Ġt ra
Ġf e
Ġfa ce
STA FF
N ot
R Y
Ġth ine
Ġcon f
Ġser v
Ġg u
Ġfa ll
D o
ut h
Ġhim self
il t
B E
es ar
F AL
Ġg one
FAL STAFF
. âĢĶ
Ġm ind
Ġu nder
Ġlord s
Ġg ri
Ġpl ace
Ġe l
Ġcon s
ĠR ome
W N
ou d
G ood
U L
Th y
Ġwor th
Ġp ass
ĠEn g
in ess
is on
ĠI I
ĠS ir
Ġt ri
M AN
Ġk ind
ĠA nt
Ġagain st
a il
N ay
a b
g et
Ġn one
Ġb oy
Ġc h
Ġ You
ou n
Ġg i
Ġfor t
Ġc he
ow s
ir t
S ir
Ġt ill
Ġf ull
Ġst ay
Ġtong ue
Ġse em
est y
Ġsw ord
he d
on t
RO S
Ġpres ent
R IN
T ER
Ġm other
Ġre s
B A
Ġc ur
Ġpl ay
Ġwom an
Ġt re
IC K
e ct
Ġcha r
Ġword s
L UC
sw er
O TH
Ġt urn
Ġbr ing
Ġwho se
a le
Ġcour t
I D
l ed
ANT ON
W ill
DU KE
Ġel se
Ġp e
ul t
ra ce
s and
Ġfor th
R ESS
as ure
A G
Ġp eace
Ġsa id
Ġri ght
O ST
it ion
ar s
Ġthou gh
S hall
Ġchi ld
H ave
Ġh us
G O
ĠA n
Ġli ght
Ġth r
b t
Ġb ack
Ġwr ong
Ġim p
Ġd ra
Ġbe l
Ġaf ter
b and
Ġon ce
ĠC l
Ġan swer
Ġc han
hi le
Ġan other
i x
G o
Ġc ount
r ing
M AR
P RIN
Ġsp ir
Ġf al
et s
p on
Ġk ill
or y
a ir
Ġb id
or se
Ġd re
Ġb od
at i
Ġme an
Ġu nto
ĠO F
ee ch
Ġc rown
ce ive
Ġre t
Ġho pe
ĠCa esar
Ġa cc
Ġre ason
L ES
Ġear th
, âĢĶ
I ST
Ġha s
U N
Ġstr an
N or
ar y
Ġp ra
Ġsu b
ill ain
Ġfa ith
Ġm atter
is ter
Ġp ower
A l
ri ed
Ġo ver
Ġme et
Ġst re
sel ves
ĠF rance
Ġhus band
on y
Ġh um
Ġlet ter
Ġd ou
e en
âĢ ĺ
Ġgra ce
v y
Ġhe l
EN RY
ur y
ĠH ENRY
Ġm o
Ġas s
Ġab out
Ġbe a
Ġe ven
Ġh ome
Ġwh om
m b
Ġh igh
Ġthou sand
p h
Ġhe ard
Ġin de
Ġple ase
F rom
O ur
g ed
ant s
fe ct
Ġsle ep
Ġfal se
Ġth ing
HAM LET
Ġw ind
Ġc ause
Ġth ree
Ġhand s
Ġ i
Ġsha me
Ġhe nce
Ġb es
om et
Ġdo st
A ll
Ġinde ed
Ġgo ds
Ġj ust
RO M
pe ct
Ġnat ure
Ġv irt
U pon
Ġm on
Ġma id
ve d
Ġ Q
Ġb ed
im es
ut e
Ġdis c
i v
Ġtr uth
I Z
an y
Ġm akes
ĠC ome
Ġthan k
m s
Ġm is
ad e
o h
Ġthere fore
Ġmad am
ard on
Ġg r
Ġwith in
Ġsu re
R A
Ġso ld
Ġla w
Ġst ate
Ġgo ld
C LO
Ġ Y
B O
Ġv illain
our s
i ld
ĠThe re
f ort
ve re
Ġst e
ĠL et
Ġbre ak
oh n
Ġb ri
r ay
Ġu se
Ġv al
ci ous
n ing
ou ch
Ġf ar
Ġth ings
ous in
Ġs ent
Ġst ri
ĠB r
Ġ ill
Ġb us
Ġf ight
Ġyou th
Ġad v
Ġe re
ent s
ĠF or
A n
Ġc ame
b s
Ġb an
che s
Ġ To
or k
Ġb u
Ġh ither
Ġk iss
ĠM ar
d ay
Ġt ears
Ġ This
Ġha pp
ct or
p en
he s
Ġl ast
ES TER
Ġhel p
Ġnew s
EL LO
Ġy e
u nd
Ġb o
Ġbod y
Ġsha lt
Ġgri ef
Ġs ame
Ġwe l
Ġsu n
Ġf ire
BE TH
y al
at es
ver s
Ġdo es
G AR
Ġha ng
S H
Ġse c
ĠB e
get her
Ġs ound
Ġc oun
Ġen ough
che d
A re
ĠJ ohn
P ER
Ġs ince
ion s
ĠL u
ĠM y
Ġfell ow
d d
T US
l et
Ġg re
. âĢĿ
R E
ie ve
Ġstr ong
B EL
u ff
Ġc are
we en
i ke
i ly
Ġr ather
D O
O M
Ġm istress
Ġse en
u es
u se
Ġl ay
Ġwith out
ĠEng land
Ġen em
Ġbre ath
Ġgentle man
Ġhon est
ĠE d
PRIN CE
j ect
Ġl and
Ġwe ep
Ġn ear
ain s
Ġfa ult
Ġsa w
Ġw hy
ho ld
Ġthr ough
Ġ Thou
ĠA t
har d
z e
Ġc ousin
Ġde vil
Ġj oy
Ġarm s
Ġpur p
c om
r an
en er
Ġin st
ue en
Ġqu een
B RU
n er
BRU TUS
d er
Ġs orrow
Ġp ati
Ġen ter
Ġstran ge
a w
e ed
o f
Ġlo st
RI CHARD
Ġwel come
H ath
O B
a v
p l
Ġd an
Ġp ers
Ġ ent
el s
LE ON
j esty
Ġs omet
Ġof t
Ġse a
ĠH ow
ĠQ ueen
A U
k en
IM ON
o p
Ġw ant
Ġyour self
ROS AL
Ġbea uty
E US
Ġc a
ĠI t
at s
Ġme ans
id es
Ġcomm and
OTH ELLO
n ed
Ġ Th
Ġg row
us ic
Ġru n
t w
en ry
Ġst ra
IA GO
i ers
Ġse nd
Ġspir it
I OL
U n
Ġon ly
A t
g s
it t
ĠY ork
O P
is ed
Ġl ess
o e
Ġs ing
Ġf oul
Ġsp o
Ġrem em
Ġd ru
ER V
Ġbl ess
Ġfort une
Ġw ish
Ġh orse
ĠM aster
Ġun c
Ġret urn
E ven
er v
Ġpr ince
Ġt alk
Ġg et
ĠH er
Ġsw ear
IST RESS
M ISTRESS
m ed
CA SS
D id
Ġc ry
ces ter
ĠPr ince
is hed
Ġyour s
Ġne ed
Ġle ft
b y
Ġt em
one y
S h
i et
Ġs ight
Ġf ree
Ġpro ve
CLO WN
Ġdes ire
Ġthought s
ANTON Y
ou th
st er
al th
if t
gain st
li ke
ert ain
e red
Ġb orn
ĠA r
Ġal one
D EM
G ive
m er
n ow
Ġto gether
ro ss
Ġm ur
Ġp ardon
Ġit self
Ġre ad
ENT LE
W ould
p eak
ĠI s
Ġhar d
u res
Ġs ick
Ġli es
Who se
G LO
Ġd en
ĠD o
UC ESTER
GLO UCESTER
Ġp rom
ĠG race
ond er
D Y
H er
d om
w ick
Ġw ilt
re st
Ġp ity
ĠH enry
Ġf ly
ic hard
ĠT ro
Ġro yal
ĠAnt ony
Ġbus iness
c ed
r ink
Ġto ld
Ġsay s
TH ER
Ġcount ry
S IR
u ch
Ġ âĢĺ
Ġde f
Ġcom fort
Ġj ud
Ġde l
Ġsu pp
Ġv o
OR T
Ġdis p
Ġdou bt
O n
Ġpr oud
Ġpr ison
Ġex ce
ar wick
C OR
P E
Ġs ad
Ġg ave
Ġg ener
Ġsee k
ha m
Ġf ound
ren ch
ENTLE MAN
R e
o ple
Ġha lf
AN IO
Ġv i
ĠW e
ound s
l ou
Ġs il
ĠS t
ĠN ow
Ġc ra
Ġw at
ro ke
Ġc old
Ġwor k
lou cester
Ġl ate
Ġde p
ĠR I
J UL
a ff
Ġfa re
ĠĠĠĠĠĠĠĠ ĠĠĠ
Ġs ister
it he
it or
Ġserv ice
m ost
Ġt end
Ġs k
Ġo ath
Ġlook s
ĠRI CHARD
L AND
U M
Ġblood y
Ġdra w
M ore
T ill
Y OR
en e
an g
om an
et er
Ġe ach
Ġwe ar
ĠW hy
f ord
l s
Ġm et
Ġin f
Ġre ven
ĠC ass
D ER
l ing
x t
Ġp al
ot t
Ġhat e
Ġqu ick
Y R
Ġd are
Ġf ur
Ġlo se
P RO
Ġa ge
Ġs in
Ġw in
re w
Ġb ir
ĠW arwick
AG E
D IO
b ed
Ġs en
Ġmar k
S ome
V OL
c ess
Ġat tend
ĠR ichard
Ġle ad
L ook
W as
u p
Ġf ield
Thou gh
ĠHe re
M EN
i al
l ish
Ġso on
ĠL ORD
Ġfo ot
Ġpe ople
Ġpurp ose
T R
w ith
Ġl ear
Ġin t
Ġsu ff
Ġt imes
Ġa ir
Ġm usic
ĠS o
ment s
M A
b our
v ent
ĠA l
ĠG loucester
Ġknow s
Ġple as
AC T
Ġa w
Ġf ore
Ġd am
Ġd ist
Ġc ar
oo se
Ġas k
Ġthy self
Ġdre am
ithe e
C LE
L ike
Ġc ho
OL I
Ġbet ween
ĠII I
Ġbes eech
v our
T IMON
Ġ That
Ġdan ger
, âĢĿ
M AC
o or
Ġw a
Ġc ond
Ġli ves
Ġlo ves
er y
IN D
Ġ Enter
Ġc ertain
Ġy ield
Ġde ep
Ġkn ight
Ġchar ge
re r
ĠF rench
ic es
are well
T w
Ġm in
re m
Ġbr ought
AT RA
Ġcomm on
Ġworth y
OP ATRA
D ES
G od
Y es
c ause
Ġt er
ut us
IN A
ak ing
Ġgra ve
Ġday s
CLE OPATRA
i ves
Ġa ff
Ġw hile
IN IUS
Ġcomp any
Ġgener al
H EL
a im
ĠS YR
US E
fe ction
AC USE
Ġcont ent
Ġfur ther
ĠSYR ACUSE
e k
ĠR o
ROSAL IND
YOR K
G ER
e ver
Ġs it
ĠG o
Ġtru st
Ġw ise
Ġy ears
th ing
BA ST
ĠEd ward
C an
T ES
Ġb ar
Ġb ound
Ġfor g
EL IA
un es
ANT I
IL IA
g ue
ent y
Ġsu m
ie f
OL K
Ġvirt ue
M ESS
i ble
est ion
CH IO
Ġother s
IT IZ
Ġbel ieve
Ġhapp y
ITIZ EN
P AR
Ġf it
Ġd rink
Ġp ar
Ġho ly
ĠN o
We re
IM O
GAR ET
Ġa ct
Ġre c
Ġple asure
Ġwar rant
M ay
k es
on ight
Ġc ut
Ġse lf
Ġknow n
Ġgi ven
UN T
J A
L Y
Ġm orn
The se
EN GER
IC E
M ost
n o
u b
ha l
Ġb at
Ġl ad
Ġp ay
hi l
Ġbl ack
ĠThe n
Ġmar ry
Ġbra ve
P ET
V IA
Ġw oe
Ġc or
Ġp ast
Ġb old
ow ard
ad am
ri es
au ght
Ġgra cious
os s
LA DY
Ġgr ound
Ġs ide
Ġso vere
LE AR
Ġpo ss
Ġser ve
Ġunc le
o int
Ġs ur
Ġhe ll
Ġpra ise
Ġa c
Ġs ake
AN US
There fore
P AND
e c
Ġin c
ĠG ENTLEMAN
IR D
m orrow
s hip
Ġm oney
or th
ol k
Ġhea vy
Ġri ch
T A
W AR
W ARD
Ġt en
Ġpo int
ERV ANT
us h
TH IRD
Ġear s
Ġwom en
W ICK
Ġt onight
Ġw is
Ġh ot
oo f
ĠW hen
ie ce
Ġgo es
WAR WICK
D ON
S w
c ha
Ġb urn
Ġd iv
Ġe m
ort al
O ne
i ant
Ġc ol
ot s
Ġg all
Ġv is
OL US
au d
ink s
PH OLUS
Ġtend er
ANTI PHOLUS
g ar
p r
ll y
Ġto morrow
ce ed
ess en
Ġheart s
Ġrep ort
Ġmer cy
Ġs ign
Ġm outh
Ġo pen
ow ers
Ġbe at
ĠC ITIZEN
ĠW here
for m
Ġjud ge
in ed
ge l
Ġsh ort
ĠBr utus
MESS ENGER
H OST
i z
Ġg ar
Ġwe ak
all y
Ġenem y
H ER
Ġm ock
Ġe at
Ġli ps
Ġthem selves
es h
ot e
ĠS he
Ġsu it
EL L
Ġpro f
Ġcour se
Ġpers on
H ad
S ay
Ġre qu
AL L
ĠO r
Ġmer ry
Ġpati ence
Ġfare well
Ġde ed
Ġdes p
EM ILIA
V AL
i p
as k
AR US
ĠW ho
ast e
ON A
Ġr ing
Ġsub ject
T ake
c ent
Ġ est
Ġb os
Ġbe hold
Ġha ir
Ġkn ew
Ġne xt
Ġex p
Ġhast e
Ġconf ess
s ue
v o
Ġw he
Ġw oo
Ġb ase
Ġf ea
Ġe mb
Ġfa st
ĠEng lish
C om
e al
Ġt ouch
Ġf our
Ġre d
ĠM a
ĠP age
Ġat t
um ber
ANTON IO
Ġremem ber
A S
u ous
Ġd ro
Ġsp eed
Ġpl ain
Ġbos om
M adam
T IT
f ter
im on
al t
Ġde v
Al as
Ġstra ight
DEM ONA
Ġvo ice
DES DEMONA
HEL EN
C L
E O
c a
i res
Ġp en
ve l
st and
at ed
EN IUS
Ġne ither
Ġtoo k
LA U
Ġchan ge
MEN ENIUS
a z
g es
t hat
Ġw ret
ĠI V
Ġg ro
am p
ĠC h
Ġkn ave
Ġsa ve
Ġson s
ROM EO
Ġsovere ign
C LAU
D ROM
Ġd ark
Ġdo g
ĠP er
Ġwor se
ĠĠĠĠĠĠĠĠ ĠĠĠĠĠĠĠĠĠĠĠ
Ġgentle men
eth inks
Ġfe el
Ġent reat
DROM IO
! âĢĶ
M arry
O WN
a id
i or
it es
it ies
Ġcan st
ull y
IS A
S U
Ġw onder
er ve
Ġc le
Ġqu estion
CLAU DIO
A P
y ou
Ġc ast
Ġth ri
Ġto ward
ag ue
BER OWN
BEROWN E
D ICK
Ġd uty
Th us
Ġsc orn
Ġwh ite
Ġpre t
RU CHIO
Ġstre ng
Ġwat er
PET RUCHIO
Ġ ord
on es
Ġc r
Ġfa vour
Ġkn e
ĠP al
we re
Ġgl ad
Ġtra itor
ID A
ix t
H N
O HN
S ince
g g
ir m
ck s
ea ch
Ġsp ort
row s
Ġsold ier
Ġsomet hing
Sh ould
essen ger
b ly
al s
ur s
M ake
W h
Ġw atch
re ady
Ġc reat
Ġto wn
Ġu nt
Ġqu ar
Ġpro p
Ġval iant
H a
Ġs at
Ġm ove
Ġw alk
Ġc oward
Ġh ur
Ġdo or
ĠH el
Ġne eds
RESS IDA
C RESSIDA
Ġt a
Ġnot e
ĠT OB
Ġtru mp
ENT INE
Ġjust ice
BEL LA
PAND ARUS
VAL ENTINE
ĠTOB Y
M ER
c han
h ood
Ġto day
ĠI n
ra h
ĠM AR
ĠW ill
Ġpl uck
Ġapp ro
! âĢĿ
A r
Ġw all
Ġb ad
OL D
Ġapp ear
VOL IO
P ray
Ġp ale
Ġsp eech
Ġtw enty
IOL ANUS
S ee
T EUS
v ol
Ġc ity
Ġl ust
en ess
our ish
ri age
am ent
ĠM istress
ĠL ady
end s
Ġcom ing
aint ed
Ġhar m
SH AL
Ġspo ke
COR IOLANUS
PRO TEUS
T ru
T OR
s h
Ġf ra
Ġo pp
le x
Ġlo ss
Ġpr in
Ġdid st
Ġstand s
Ġpresent ly
Ġca pt
ĠMAR GARET
A gainst
r ous
ĠĠĠĠ ĠĠĠ
Ġfl esh
Ġcoun sel
dd en
MAC BETH
O ut
S c
s o
ce pt
Ġst ir
fe it
ure d
ĠThe y
Ġex t
Ġro om
Ġhour s
Ġreven ge
HELEN A
Ġstreng th
C AL
Ġa ction
Ġm od
ort une
ĠHe ctor
Ġlie ge
Ġmorn ing
K A
O UNT
b it
d ge
m ber
re y
Ġg rant
Ġr an
ci us
Ġcl ose
b ury
o ll
o ly
s es
y ing
Ġ 1
Ġt it
Ġs igh
in es
Ġc ap
Ġl ack
Ġu nd
OL LES
KING HAM
ĠJ OHN
UC KINGHAM
Ġma jesty
Ġgu ard
Ġres pect
B UCKINGHAM
F arewell
N OR
S peak
p are
Ġm ortal
Ġre g
ĠB y
ĠL e
Ġal most
Ġmo on
PAR OLLES
o ver
Ġb ro
Ġfor b
ur se
Ġso ft
ard in
Ġsl ain
Ġsen se
B AN
M ust
P AL
U T
Ġw ild
Ġl ow
Ġe mp
ĠP ar
ES US
ES AR
LO W
Ġal ready
ĠE PH
AM ON
li ver
Ġtr ou
Ġfea st
PAL AMON
ĠEPH ESUS
Ġh ide
Ġp u
se t
The ir
Ġoff end
Ġmar ried
FF OLK
CA ESAR
Ġwit hal
CASS IUS
Ġmur der
SU FFOLK
SHAL LOW
F ORD
re l
Ġb ur
Ġb ond
en ch
Ġin ter
Ġbe come
al m
Ġv ile
um b
Ġwar s
A h
G R
I ER
u ght
Ġhe ir
Ġre ceive
Ġsw orn
Ġr as
ci ence
Ġbre ast
g ry
p es
Ġm ount
ll ent
Ġd ire
Ġha ving
ut ion
oo p
pp ed
Ġsc ar
Ġheaven s
Ġsold iers
B ENE
i red
Ġt y
Ġs hi
Ġb ook
Ġbe ast
Ġre ady
Ġsha d
ĠP ED
Ġcon st
ĠF l
Be fore
Ġgri e
Ġgi ves
BENE DICK
ĠPED RO
P ORT
S uch
c her
c us
e em
r on
Ġ id
Ġm ot
AR C
Ġspeak s
Ġwr it
Ġad d
Ġra ge
Ġden y
Ġsuff er
PORT IA
S IC
T RO
n ight
Ġw ound
et ch
ir d
as hi
Ġsu dden
ast ard
em pt
Ġpr ithee
Ġdis g
ond on
IL US
IT E
Ġbeg in
Ġdre ad
ĠCass io
Ġbat tle
TIT US
ARC ITE
TRO ILUS
A way
C US
T ell
n y
r ist
Ġd ish
Ġin d
ĠL ondon
Ġj est
Ġoff ice
Ġking dom
Ġsl ave
Ġpri v
ĠMa jesty
A D
F L
c ri
h ind
m and
t ain
Ġb a
Ġb le
Ġd u
st aff
ĠS erv
Ġthan ks
ĠT it
ĠE D
Ġab ove
Ġpass ion
H OR
f fect
Ġm ist
Ġc ross
en ed
OR LAND
ISA BELLA
ĠED WARD
n k
Ġ ve
Ġe ither
Ġli ving
ĠA s
os ed
Ġstri ke
Sw eet
E W
K ENT
M AL
i ence
t ing
Ġfor m
Ġre l
EN CE
Ġlo ving
ru st
ak en
Ġtru ly
ĠJ ul
AT O
Ġinst ru
Ġpret ty
B US
B UR
I ET
Ġf at
Ġli ber
Ġse ver
ĠH is
ant age
oth ing
Ġab s
cl aim
Ġserv ant
LUC IUS
Ġletter s
hil st
P r
P ro
P OL
a ith
b ut
Ġ (
Ġm orrow
Ġo b
Ġp ap
Ġst ru
Ġk ings
AN G
ast ers
ĠT imon
Ġhonour able
be y
St and
Ġchild ren
ĠCl aud
und red
LEON TES
JUL IET
Y ea
g ing
i ct
ou red
Ġl augh
al staff
res h
Ġlove d
Ġcha mber
Ġaf fection
Ġseem s
Ġres ol
Ġspir its
Ġoft en
P eace
Ġm al
is f
Ġfor ce
ri ght
al b
il us
art ius
ĠG ood
Ġany thing
Ġpri de
Ġcons cience
ĠAt tend
P IST
l er
Ġb ow
Ġf am
Ġp it
Ġg ot
ĠP om
um ph
Ġwho le
PIST OL
G ON
I ON
V IOL
v ia
w ill
Ġf ashi
Ġc ase
en ge
Ġde eds
Ġgo d
Ġwould st
ĠR os
TH ES
IC LES
Ġunder stand
Ġlords hip
Ġfort unes
PER ICLES
VIOL A
A CH
er n
Ġl im
an cy
Ġe ffect
ĠH igh
hen s
Ġpo ison
ation s
Ġmar riage
Ġcall ed
ĠRome o
Ġsec ret
LEON ATO
ardin al
ORLAND O
G EN
u nder
Ġa g
it ter
ing ham
Ġbe hind
ĠP ro
Ġsoul s
Ġche er
BO T
Ġsec ond
ĠRo om
THES EUS
D e
f ully
Ġf ing
ar um
Ġh undred
Be ing
Ġwit ness
IAN A
Ġtre ason
OLI VIA
IMO GEN
Ġhur t
ĠClaud io
P A
S P
S PE
b b
d en
m y
Ġf ill
it ed
Ġd ied
AN S
ĠW ell
ie w
fe re
um ent
Ġoff ence
Ġla bour
bl ed
Ġposs ess
Ġac qu
SIC INIUS
SPE ED
m ore
Ġ Yet
Ġt ale
Ġo bs
Ġp ain
Ġp ost
Ġe as
ver n
ĠC ap
ie u
Ġcon qu
ĠF ortune
ĠThere fore
Ġenem ies
P ROS
Y M
u ri
Ġt ent
Ġm ir
Ġh ost
Ġde liver
are nce
Ġpart s
Ġhead s
Ġch ur
Ġchan ce
PER O
PROS PERO
. âĢĻ
c use
s u
Ġt each
Ġw ood
Ġis sue
Ġre b
EL O
Ġal ong
Ġoff er
Ġad m
Ġmight y
Ġshow s
uff olk
ĠCh rist
ANG ELO
P AGE
i ent
p in
Ġ ut
Ġs ho
Ġd rown
an c
Ġg ift
ra w
EN OB
Ġlo v
ĠS EN
ER N
AR BUS
Ġun k
Ġlong er
Ġpal ace
Ġlad ies
ĠHel en
Ġfashi on
ENOB ARBUS
e ks
n ers
Ġ Your
Ġs im
is es
Ġc ru
ar l
Ġhe alth
Ġv ow
CH AR
Ġbear s
uck ingham
OLD IER
Ġtit le
C on
c al
Ġ er
in a
Ġf ive
ed ing
et y
id er
Ġli on
Ġsha r
AN CE
ĠC ount
ĠF alstaff
ĠR oman
Ġj o
ĠN or
Ġbu y
tw as
CASS IO
Ġbir th
Ġre vere
Ġse al
ĠC har
il s
au nt
Ġqu oth
ag es
Ġlea st
AT R
AT IO
ign ior
Ġsm all
LUC IO
Ġval our
Ġpati ent
Ġsat isf
HOR ATIO
alb ot
D oth
E PH
G E
e g
u al
Ġf ine
ra m
ur al
Ġno ise
ĠP AGE
Ġour selves
pe y
Ġex ec
Ġper ceive
per or
Ġch oose
BO Y
B RO
C ELIA
e ep
n own
Ġt akes
Ġd in
Ġfor get
ĠA d
ĠM ac
ĠP l
ol ph
Ġwor ship
Ġqu al
Ġmar ch
Ġcomm end
Ġke pt
Ġcur se
Ġdel ight
ĠHigh ness
C TOR
G U
H ear
S IL
a ves
c on
g l
g in
i ol
k ing
s p
Ġ ign
Ġs or
Ġo cc
am let
th ough
ru pt
if y
ĠB uckingham
el come
Ġwor st
um e
Ġsa fe
Ġwr ite
Ġpres ence
Ġprom ise
Ġexce llent
Ġdep art
JUL IA
he ad
Ġd ull
le y
ill es
ĠS uffolk
Ġan gry
ĠA ll
Ġv ain
Ġv iew
ard olph
Ġfl atter
Be cause
Ġfool s
BE ATR
BEATR ICE
L ord
c il
Ġw ed
Ġd ri
ar ch
Ġbe ard
Ġso le
ĠS il
Ġsu cc
Ġbl ow
ĠT albot
Ġpro ceed
UR DER
PRIN C
ĠLu cius
Ġfault s
Ġenter tain
Ġwis dom
Ġord er
Ġpap er
URDER ER
a x
t were
Ġt or
Ġa p
Ġf etch
on a
ra ct
Ġher self
ea ven
ĠS al
Ġgo ing
Ġr ound
Ġcons ent
led ge
Ġvirt uous
Ġdanger ous
eal ous
Sc ene
PRINC ESS
A BETH
C all
G H
S ERVANT
g are
u de
Ġ EL
re ad
on our
Ġth row
le ep
ĠH arry
Ġar g
ĠK ate
ĠE m
IZ ABETH
Ġbri ef
Ġquick ly
TR AM
Ġlear n
ĠEL IZABETH
F O
H O
p her
Ġs n
Ġw ent
Ġf resh
Ġy ear
ing ly
at ure
Ġfor ward
AR MA
Ġbl ind
BER TRAM
BA SS
ĠCl arence
Ġban ish
ĠTro ilus
Ġvi ol
ARMA DO
L EN
P OM
T SP
b roke
Ġ AND
Ġm id
Ġb reat
Ġc arry
om er
Ġg a
as ion
ĠC or
il es
ĠM URDERER
ĠL ook
ĠT y
ick ed
ANT US
Ġtr oth
EM ANTUS
Ġgold en
PE Y
BAST ARD
AP EMANTUS
ĠPom pey
HO TSP
POM PEY
HOTSP UR
C OUNT
N UR
j oy
ha ve
Ġh orn
Ġp ure
an ch
at o
Ġst ar
am es
Ġam ong
Ġqu iet
os ition
ED GAR
Ġgre en
COUNT ESS
NUR SE
U nder
e y
u g
Ġw on
Ġw ast
Ġd a
an io
il ty
ĠM essenger
ĠF ord
Ġj ealous
Ġcha st
Ġpray ers
ĠAttend ants
D is
F EW
c re
Ġm ed
on io
Ġd i
at t
Ġin v
Ġe vil
Ġfor sw
Ġst ud
Ġsha ke
Ġne igh
ĠThe se
ag o
LA FEW
SE BAST
Ġpra ct
Ġhum our
Ġbri ght
Ġprin ces
Ġcru el
Ġshar p
omer set
SEBAST IAN
D E
F aith
P O
S A
S AL
U LET
g ers
r s
r or
s per
in ius
Ġf ier
ch ief
ter s
Ġno b
ĠM artius
Ġcon ce
Ġsa f
AT OR
ĠLord s
ĠV en
Ġfool ish
Un less
itt ed
ĠTro y
Ġquar rel
ĠPar is
D AU
d ing
Ġm atch
Ġm asters
Ġb itter
Ġf rown
Ġd est
st ance
Ġg ates
Ġme asure
ĠS omerset
ĠG ive
OL PH
Ġpr ot
ARD OLPH
ber t
Ġla id
for ce
Ġfe ed
Ġste al
Ġbless ed
Ġtem p
Ġaw hile
B IAN
b orn
m bl
ar ge
ch illes
Ġst ood
ea se
Ġan on
ĠH amlet
ic ul
Ġj ew
Ġpro v
Ġfear ful
ĠAn other
Ġdru m
Ġsum mer
gel o
ĠLe on
ĠRos al
Ġsor ry
gare t
H old
y our
Ġt aken
Ġp iece
Ġe le
Ġst or
id ed
us ed
il ity
Ġkn ock
ĠL ove
Ġbl ame
Ġthen ce
Ġen c
Ġal ive
ĠĠĠĠĠĠĠĠ ĠĠĠĠ
Ġcall s
Ġwh ore
Ġsm o
ĠBe fore
B et
E V
m n
o es
Ġ ver
Ġo pin
ve y
Ġsha pe
ĠS c
ic les
Ġfl ed
Wh om
Ġshad ow
BRO KE
I nto
N ever
O S
p ar
Ġs ch
Ġs us
ha llow
Ġl end
Ġin no
am b
ĠW ith
ĠB ardolph
Ġour s
ON IUS
em n
Ġpl ague
ĠJ ove
Ġcont in
Ġrem ain
Ġgl ory
Ġche ek
Ġche eks
Ġforg ot
C AM
c ul
o g
r ate
t s
Ġs ort
Ġs land
Ġc ir
Ġin s
Ġre f
ĠC ardinal
il ia
Ġman ner
un ning
Ġgreat er
RI AN
Ġgl ass
ĠAn gelo
Ġban ished
Ġcoun ter
THER S
BUR Y
N E
R IUS
a fe
c an
or ge
Ġo bey
Ġp ains
Ġst op
ĠS aint
Ġsw ift
Ġpr oof
ĠE arl
IT ES
RE Y
com es
TR ANIO
LY S
Ġsever al
THERS ITES
C a
V IUS
Ġm ut
Ġl ist
Ġp et
Ġe qu
al es
id ow
EN S
am on
AN NE
ĠC le
il ed
ĠH ast
Ġfa ire
ĠJ ew
IL L
ET RIUS
CA P
Ġarm y
air s
DEM ETRIUS
Ġwret ched
Ġpu bl
Ġscar ce
ĠServ ant
F l
G A
k ed
s ed
w oman
Ġw hi
Ġw ounds
it ors
Ġth ro
Ġg ross
Ġme l
Ġwe alth
ĠS hall
ĠM ay
ĠG ree
Ġam b
Ġcon cl
ĠF ri
Ġun w
Ġdes er
ĠV I
ĠV al
Ġbra in
ĠAnt onio
Ġboy s
ĠMar garet
RE W
Ġcapt ain
AD RIAN
Ġdin ner
P OST
Ġt ry
Ġt aste
he art
Ġa y
Ġc red
Ġg ain
Ġin j
AN O
Ġv an
Ġsh ore
OR A
Ġhon esty
Ġra in
Ġmon th
RE G
Ġprison er
Ġcol our
HOST ESS
MAL VOLIO
Ġign or
Ġsucc ess
ĠAND REW
EV ANS
A b
a pp
h is
Ġt ear
Ġb roke
Ġb astard
Ġd if
Ġc re
en ter
Ġg ent
Ġbe ha
Ġu r
Ġst ain
ĠS OLDIER
ĠA p
if ul
ĠF ORD
Ġgra nd
per ate
Ġdou ble
Ġdef end
POL ONIUS
Ġstru ck
D es
F RI
I nd
M ine
N othing
c ite
i ans
k er
l oy
o llow
is ho
Ġd ies
Ġc atch
Ġth ither
Ġh un
Ġhe ld
Ġwe ary
ent ine
Ġde are
Ġgo vern
Ġr ough
Ġpro per
Ġoff ic
ci ent
ove d
Ġpre pare
ENT IO
Ġinst ant
Ġtrump et
pher d
FRI AR
A m
C ont
H UM
I P
I FF
P l
p he
Ġ U
Ġw ert
Ġb are
er c
Ġp owers
an us
Ġde mand
Ġsp ring
Ġgood ly
ak ed
hy s
Ġfo lly
SE Y
Ġfell ows
Ġcle ar
Ġmot ion
fere nce
B oth
B el
C OST
K now
M OTH
V ER
b us
g y
Ġ ed
Ġs ong
Ġb row
Ġf aint
Ġl oud
Ġhe at
ed y
Ġin tend
ir gin
ĠA chilles
ell ow
ĠM ont
TH UM
Ġr ise
Ġex cuse
With out
Ġro se
Ġle g
Ġfear s
BER LAND
Ġfall s
uth or
ph in
ĠAt hens
Ġwant on
HER M
Ġemb race
Ġcir c
hys ic
COST ARD
THUM BERLAND
B es
C YM
o b
z en
Ġ es
Ġm ethinks
Ġf i
Ġf ame
ve ll
at ri
Ġbe cause
ay s
Ġme re
us ion
Ġde ce
if ford
Ġfa il
ĠM oor
ĠN ay
Ġfl owers
way s
Ġhear ing
Ġpre cious
Ġbest ow
Ġdra wn
BEL INE
Ġdru nk
THER INA
ĠCass ius
Ġcond ition
Ġrequ est
cent io
Ġwall s
KA THERINA
Ġforb id
Ġchur ch
CYM BELINE
? âĢĶ
e at
h im
i ch
m on
m ia
v ail
Ġa ught
Ġm our
Ġb ones
Ġd ance
Ġc orn
Ġc unning
Ġp un
as h
ho st
ol ing
Ġun f
Ġun s
iss ion
ac ed
ĠAn ne
Ġhigh ness
Ġste el
Ġcreat ure
NOR THUMBERLAND
Ġliber ty
ĠSEN ATOR
T EN
Y SS
d ain
i ze
Ġ Ex
Ġw icked
Ġd well
an e
Ġst ars
ĠS ERVANT
Th ink
Ġro b
IL LO
Ġwit s
Ġway s
UL YSS
Ġmon st
Ġprince ly
Ġborn e
Ġsil ver
ott en
orth y
Ġjudge ment
Ġpriv ate
ĠTit us
Ġopin ion
oling broke
ULYSS ES
C K
E X
L est
M UN
P UC
W OL
Y LO
c ing
r im
y s
is bury
Ġf ru
it iz
Ġth reat
Ġbe nd
Ġas ide
and er
ĠC y
ĠM en
ĠM AC
ES CAL
ĠL A
Ġne ck
Ġhad st
Ġtr ans
Ġru de
ED MUN
Ġpur se
Ġhold s
Ġtri b
Ġcourt es
Ġmaid en
SH YLO
Ġcho ice
Ġvis it
BOY ET
ADRIAN A
WOL SEY
ESCAL US
EDMUN D
SHYLO CK
B RA
B ARDOLPH
F irst
O U
Ġ ir
Ġs hip
Ġs ix
Ġw ine
or ous
at ors
ut ation
ri us
ĠS peak
ĠH u
ĠB olingbroke
ĠG e
ĠG u
Ġshould st
Ġle gs
Ġcomp l
DU FF
ĠPr ay
Ġtong ues
Ġgu ilty
Ġremem b
Ġlear ned
Ġter ms
ĠPal ace
anch oly
HUM US
M ON
W elcome
Ġ Thy
Ġf ig
Ġd ue
Ġo w
Ġo we
Ġo bed
Ġh unt
Ġe ld
Ġst o
ER D
Ġsp end
ard s
au phin
CH ESS
CH IMO
Ġen joy
IA CHIMO
Ġfl ower
Ġfo es
Ġro gue
Ġwhere fore
Ġhonour s
DU CHESS
Ġbeg gar
Ġsm ell
St ay
Ġpri est
MAR IA
CLO TEN
Ġgrow s
chan ce
POST HUMUS
Ind eed
A fter
B r
F ie
H E
H ORT
N e
b eth
in ing
Ġd ry
Ġl arge
om ed
Ġst ory
Ġde bt
Ġan cient
Ġv ent
ĠB ass
ON E
ic ious
Ġbl ows
Ġknow ledge
Ġdis m
Ġfo e
Ġlea ves
Ġper form
Ġend ure
Ġsm ile
Ġstre et
Ġhum ble
ĠBr it
Ġgre et
Ġpers u
Ġwin ter
Ġwa it
cha nt
anc aster
HORT ENS
H ark
M ade
P er
U nto
f er
t hi
u ed
u ce
Ġb ount
Ġc e
Ġl est
Ġth under
ĠI ago
om orrow
ri a
Ġyour selves
id ius
ĠC an
Th ose
ĠB l
ĠL ancaster
Ġcon j
ĠD auphin
Ġsir rah
Ġqu ite
With in
Ġwr ath
Ġcl aim
Ġra re
Ġdro p
isho p
C R
L ove
T IUS
T OU
a fter
j ax
Ġ QU
Ġc amp
Ġth ird
Ġp ol
Ġp hysic
Ġg ir
ter n
Ġde al
ĠC ast
Ġman ners
ST ONE
CH STONE
Ġgreat ness
IL LES
Ġheaven ly
ock s
Ġsword s
ICK LY
Ġwrong s
ĠCl ifford
ROSAL INE
Ġdam ned
Ġkne el
ĠPal amon
Ġtrou ble
Ġdire ct
ACH ILLES
ĠSal isbury
Ġsaf ety
TOU CHSTONE
ĠQU ICKLY
A ST
B OL
V IR
m in
s he
t ake
Ġa id
Ġf ond
Ġo d
Ġh or
le ase
Ġme m
id ent
Ġde g
ĠS ignior
ĠS hallow
Ġv irgin
ĠD e
ING BROKE
Ġex pect
ĠJ ack
Ġcour age
ac le
Ġimp ort
ĠHer o
Ġem peror
Ġty rant
ĠChrist ian
BASS ANIO
Ġpubl ic
BOL INGBROKE
G reat
I E
M e
P T
k in
w ise
Ġs ens
Ġw ench
re ed
Ġwe ap
Ġst uff
Ġre vol
ur p
th is
Ġan ger
Ġsp ent
Ġne cess
ĠG entle
Ġmay st
ist ol
AT CH
Ġcont r
Ġkeep s
Ġadv antage
ERV ING
Ġsk ill
ang u
Ġdam n
JA QU
umber land
Ġid le
ĠCor iol
CAM ILLO
ĠHast ings
Ġmel ancholy
ĠVal entine
REG AN
E re
I EL
d le
m it
m und
r at
ou ds
or al
Ġf ood
Ġf ie
Ġf ee
Ġc ost
Ġn ay
Ġhe ed
Ġhe els
et rius
Ġme ant
our se
Ġfor mer
ro ad
EN D
Ġlo ver
em etrius
ĠD es
Ġpro claim
Ġdes ires
Ġle is
ors es
oun ter
Ġthr one
CL IFF
ron ic
Ġocc asion
C ould
L o
L ORD
f l
i ance
r as
Ġa uthor
Ġf ury
Ġc at
Ġl ament
Ġn aught
Ġst art
Ġk ins
ĠS en
ĠC om
Ġno se
Ġsp ite
ard en
ic al
AL BOT
all ow
ĠT ower
ING S
Ġmad ness
Ġwhen ce
li p
Ġper fect
Ġbear ing
Ġim ag
Ġcomp an
Ġgu ilt
Ġsomet ime
Ġoath s
Ġexp ress
Ġthri ce
Ġmal ice
Ġjo in
Ġsole mn
HORTENS IO
ĠCast le
AST INGS
A d
F R
H ASTINGS
P oor
S O
e x
m ble
s on
Ġt ail
Ġw ond
Ġb orrow
or ious
Ġc ust
Ġp in
ce nd
Ġme at
ad s
Ġde c
Ġdo om
Ġkn ee
Ġv ows
ĠG re
Ġshe pherd
ĠF RI
pp y
Ġr ans
Ġsa il
Ġfl ood
Ġdes ert
Ġbet ray
Ġbrother s
ian ca
Ġtra in
Ġvi ct
ote us
ĠJul iet
ĠMac beth
Ġprot est
ĠRosal ind
itiz ens
ĠGe orge
ERVING MAN
ĠFRI END
C OM
F air
I STA
L ANCE
M aster
Q u
U ELL
W ER
W hile
a ld
d em
f all
j o
t a
y ond
Ġt une
Ġb en
Ġf ought
Ġd ust
Ġc ure
Ġc ried
ar ing
Ġh id
Ġto p
Ġon es
Ġde ceive
ĠA lex
if ied
ĠW est
el t
ff ic
BA PT
aw d
COR N
oint ed
Ġbro ken
FL UELL
Ġfing er
Ġut ter
Ġsch ool
Ġleis ure
BAPT ISTA
FLUELL EN
M ethinks
N IA
T OL
Y CUS
f olk
g le
v ish
Ġw idow
Ġb as
Ġf le
Ġf ew
Ġd uke
Ġy ea
Ġth ief
Ġp ot
Ġg ate
Ġme nd
Ġre ign
ord s
Ġlo vers
ĠP o
ĠP ri
ĠW ATCH
ĠO ur
um p
Ġcha ll
Ġtw ice
IL ER
Ġbre ed
AT IAN
Ġcl ouds
Ġsl ow
Ġrep ent
Ġmon ster
Ġgrief s
AU TOL
ĠAr cite
Ġmur de
Ġfore st
rer s
Ġcor rupt
Ġsigh s
Ġemp loy
GR ATIAN
Ġdread ful
ened ick
Ġsim ple
FO OL
Ġfru it
Ġcourtes y
AUTOL YCUS
GRATIAN O
I GO
e ous
i ving
p ro
Ġw ag
Ġf ancy
Ġp ort
ck ed
Ġse at
Ġlo ath
ĠS old
IN S
ĠB ianca
ĠT ake
Ġthink s
Ġwhere in
Ġlook ed
Ġpart icul
Ġapp are
ĠPr oteus
Ġfollow s
Ġtre asure
Ġaff airs
Ġwhe ther
ĠPer cy
Ġappro ach
ĠSil via
Ġarg ument
Ca esar
Ġmonst rous
COM INIUS
B l
V OST
W O
a ult
h or
h um
o ot
t here
u a
is ing
Ġc ries
Ġl ed
en ance
Ġst one
Ġst ol
EN ES
Ġse ason
ĠS ERVINGMAN
Ġkn ife
Ġam az
ĠR e
Ġout ward
ci an
Ġdes perate
Where in
ĠCa ius
ĠQ u
Ġsil ence
PRO VOST
Tw as
JA ILER
Ġsubject s
GH TER
DAU GHTER
ĠLeon ato
ĠFri ar
gy pt
Ġfi end
C UT
H OL
I TH
a ces
in ation
is p
Ġf ain
Ġd ign
Ġl en
Ġp ict
Ġbe ll
Ġwe ight
ra in
Ġdo ing
Ġse ven
US T
Ġv enge
qu e
Ġcon c
ĠT ell
Ġun less
Ġab road
Ġbeg ins
MAR CUS
Ġbid s
Ġreason s
Ġbri de
Ġmin ister
Ġcol ours
Ġeas y
PO INS
B EN
C l
D ost
G RU
M IO
M IAN
b alt
h ouse
i b
Ġm ild
Ġw ings
Ġb ig
Ġl angu
Ġn umber
en et
ar us
Ġh orses
an ces
om ach
Ġe ase
Ġst ones
ER IUS
ĠP et
ĠW ould
ST EPH
Ġcom b
Ġgood ness
el ve
el ess
Ġsa c
ĠE gypt
ĠN orth
eet h
ress id
Ġwhere of
Ġtri al
MAR INA
Ġweep ing
op at
Ġdisp atch
ott om
Ġaw ake
Ġprof ess
CHAR MIAN
Ġcirc um
BEN VOLIO
GRU MIO
STEPH ANO
s ome
Ġt ree
Ġt eeth
Ġw ide
Ġw hilst
Ġw oes
Ġl ine
Ġp aid
Ġto mb
om p
Ġme lt
Ġst ep
ur st
Ġdo ors
ĠC on
ER TES
il ing
ĠH ouse
ĠA jax
ĠP y
ĠF arewell
ĠD emetrius
Ġcha in
ag ger
LA ERTES
Ġwar like
ĠV ol
Ġrem edy
IS BURY
ac her
Ġgu est
LUC ENTIO
Ġmis er
Ġlaw ful
Ġhapp iness
ham ber
Ġtoward s
Ġkne es
MER CUT
Ġbreat he
Ġforsw orn
SAL ISBURY
opat ra
MERCUT IO
M ED
g o
o ke
w here
Ġa nt
Ġs au
Ġw ont
ll o
es ter
Ġh it
Ġha p
ĠS e
ĠS h
AR INE
ĠA g
ĠP ol
ĠB enedick
ĠL y
ie ur
Ġshe ep
TH ARINE
Ġj oint
Ġun l
Ġen g
Ġho pes
Ġdis dain
os es
Ġdes erve
Ġear n
CA DE
St ri
Ġmind s
ID IUS
Ġcrown s
Ġdisc ourse
ouch s
ĠEd mund
av in
DIO MED
Ġforg ive
Ġem pt
Ġgall ant
Ġwret ch
Ar t
KA THARINE
uri ous
Ġmir th
Ġexec ution
ĠEm ilia
Ġrans om
DIOMED ES
B ring
L ea
O W
O PH
P ut
P ardon
S ON
T oo
W hilst
i est
i omed
Ġa ble
Ġa ud
Ġs qu
Ġf eet
it ude
en ces
Ġth ick
om as
Ġst omach
Ġre ce
Ġan gel
ru m
Ġfa ces
ĠM ars
rom io
Ġwas h
ĠD ian
Ġal ways
Ġapp ears
Ġaf fect
Ġwom b
Ġlive d
Ġtri umph
Ġkind ness
ID ERIUS
Ġacc ount
pen se
Ġtem pt
Ġsupp er
VOL UM
up id
Ġthri ve
Ġran k
Ġob ject
ĠNor folk
Ġqual ity
GU IDERIUS
Ġjew el
Ġdeare st
ĠMAC BETH
MON T
Ġmem ory
dem ona
F OLK
K eep
S ave
T ALBOT
a wn
o ff
v ours
Ġa im
in y
Ġw ol
Ġw ives
Ġb uck
Ġn iece
Ġy onder
Ġh ill
Ġp ress
Ġg own
at ing
id ings
Ġso l
ain e
ro y
ĠS w
ĠC ressid
th y
ĠP and
Ġun b
RO DER
Ġen vy
ĠK ent
Ġfl ies
Ġfri ght
Ġri d
BER T
St ill
Ġnat ural
Ġcons ider
UL INA
Sir rah
Ġkill ed
Ġbu ried
ĠMar cus
Ġsing le
Ġsoon er
Ġpleas ed
MAC DUFF
Ġposs ible
ĠPer icles
Ġtrump ets
vol io
Tru e
Ġext rem
NOR FOLK
PA ULINA
Ġconqu er
Ġunk ind
ĠChar les
Ġneigh bour
Ġsland er
ĠMont ague
Ġrememb rance
JAQU ES
Ġcust om
UST ICE
RODER IGO
F A
P IS
S omet
T omorrow
a ct
b ear
Ġs al
Ġm ain
Ġm aking
Ġw aste
re nt
Ġb ab
Ġc uck
en ant
Ġth rust
Ġh ol
Ġp ack
ot ect
om ans
im er
ad es
Ġas leep
Ġlo yal
ĠC am
AR IUS
Ġall ow
ĠH ave
ĠM ort
ĠD iomed
TH UR
Ġho llow
IA M
pt ain
Ġro ot
Ġtw elve
Ġple ad
Ġcl ot
Ġad ieu
AND ER
ction s
EM IO
aint ain
Ġchar ity
ute ous
Ġhang ed
BEL ARIUS
Ġint ent
Tw o
Ġund one
GR EMIO
Ġconst ant
Pr ithee
umph rey
SIL VIA
Ġstud y
Ġcounter feit
atri ce
ĠNorth umberland
avin ia
OPH ELIA
PIS ANIO
A AR
P OLI
R em
W D
W ALL
X ENES
i am
o gue
t ed
w hich
Ġb ark
it er
Ġd et
Ġd eter
Ġc al
Ġn urse
Ġn aked
Ġh oney
Ġg rown
ri dge
ra nd
ur g
ĠS C
Ġlove ly
ĠD id
ĠO n
Ġsa ck
Ġpro sper
Ġdis ple
Ġle an
Ġcl o
Ġwit ch
Ġcomp ass
Ġarm our
Ġsl aughter
Ġdead ly
Ġseem ing
BA WD
Ġcount enance
Ġmaid s
Ġmod est
Ġty ran
Ġdish onour
Ġacqu aint
Ġrevere nd
LEN DER
Ġstor m
Ġenc ounter
Ġpun ish
HE CTOR
VOLUM NIA
AAR ON
POLI XENES
? âĢĿ
E ither
H eaven
L e
S p
S ET
S LENDER
a pt
b es
c le
c ol
c ats
i ar
i vil
n at
p ass
t on
v ious
w ixt
Ġt able
Ġs its
Ġm essenger
Ġb red
Ġf irm
on ius
Ġc her
Ġp ainted
Ġin cl
Ġin vent
ut enant
ch io
Ġe ag
Ġwe igh
Ġsp are
ct av
ĠM al
ĠP istol
Ġsh rew
em ber
ic y
AL BAN
ĠD romio
od y
CH IE
Ġpro d
ĠJ USTICE
Ġfl ight
Ġwar m
the llo
Ġchi ef
Ġco z
Ġtra itors
Ġgu ess
Al arum
Ġmeet ing
Ġwind s
itt ing
Ġspo ken
Sh ow
Ġbir d
Ġdro ps
Ġras cal
Ġtemp est
Ġequ al
Fl ourish
Ġgir l
ĠDes demona
ĠSold iers
Ġlen g
ĠSC ENE
ALBAN Y
CHIE F
A JA
M ight
R ENCE
W RENCE
a ul
f ather
w s
Ġ eter
Ġt idings
Ġf ish
Ġd ig
om in
ed ious
Ġst ore
ra id
Ġse es
ĠS ay
ĠC upid
ru chio
ĠM ark
ĠB el
Ġsh ut
ST ER
ind s
ive red
Ġbl ush
Ġsw ell
pp ing
Ġus urp
ARD IN
Ġcl oud
Ġpre vail
Ġru in
DU MA
Ġmer it
the e
Ġbo ot
tw ixt
Ġden ied
Ġcond u
Ġdesp ite
Ġdesp air
ask et
ĠCap ul
Ġinno cent
Ġcred it
ĠLA WRENCE
Ġparticul ar
ouchs afe
AJA X
DUMA INE
B AL
D OL
F ERN
G ENTLEMAN
N ON
O X
O FERN
c is
o pe
s hall
w hat
Ġ ing
Ġt ou
Ġm il
Ġw ake
ha nd
Ġb and
Ġb ought
Ġb awd
is ion
Ġf art
Ġd umb
Ġc ivil
ar m
Ġher s
Ġsw ore
AL D
ĠD on
Ġus ed
Ġpl ot
ig ence
Ġbr ook
AM EM
Ġhea v
Ġper il
Ġpre vent
Ġim age
ne y
ons ieur
Ġdaughter s
Ġtri ck
Ġtre acher
AG AMEM
Ġmean ing
Ġstre ets
Ġhum bly
Ġsound s
ĠTh omas
Ġfree ly
Ġvo ices
Ġdiv ine
Ġreceive d
Ġdisg u
Ġdisg race
Ġabs ence
ĠCle opatra
ronic us
Ġben ef
CORN WALL
HOL OFERN
Ġsac red
otect or
AGAMEM NON
HOLOFERN ES
B id
H ast
H el
H ang
N one
S OM
T urn
s ing
z ard
Ġt edious
Ġa pt
Ġb ud
Ġf urn
ar n
Ġh ig
Ġbe comes
im ent
ri ble
Ġre alm
Ġre nown
ver se
Ġse as
Ġlo d
Ġno bl
ĠH a
ĠH umphrey
ĠA re
ĠĠĠĠ Ġ
ĠM il
Ġv ice
ĠP is
Ġcon vey
Ġthere in
ĠO thello
ort ens
Ġbr ings
My self
Ġab use
Ġri de
âĢĿ .
ET ER
Ġper j
Ġcomm ission
Ġim per
Ġbeg g
eth ought
for med
Ġturn s
sand er
Ġstre am
ĠTo by
ĠLu centio
ĠHer mia
Ġtem per
Ġreg ard
Ġbur den
ĠVen ice
Ġearn est
Ġeter n
E ach
G entle
G BER
H U
M ark
W ilt
a f
i pe
p it
r ough
v al
Ġs alt
Ġm iss
Ġf un
Ġf ix
Ġn ine
ar qu
Ġp ound
Ġha bit
ill o
Ġre ck
Ġso re
ĠS at
ĠC al
ĠB urg
ĠL a
Ġsh ine
em ent
oth s
here d
pt ion
Ġex am
Ġal as
ĠN urse
Ġear ly
les ome
Ġpre y
Ġbeg u
Ġco ver
Ġturn ed
Ġbel ow
und y
DO GBER
Ġland s
Ġbir ds
Ġburn ing
Ġest ate
Ġprop he
Ġforb ear
Ġras h
Ġsudden ly
Ġhorn s
Ġfier y
ILL IAM
CAP ULET
Bes ides
CLIFF ORD
ĠPri am
Ġpict ure
Ġvenge ance
ĠMort imer
HU BERT
ĠBurg undy
DOGBER RY
, ]
C I
G et
V ery
W ILLIAM
Y ER
Z AL
c ap
d raw
m ond
n a
Ġt ort
Ġm aintain
Ġc ool
Ġl oose
Ġg host
Ġbe w
ut es
Ġe v
ER IL
ĠP ost
ES T
ĠW IT
ĠB er
ĠO ctav
ĠR omans
Ġsay ing
Ġun g
ĠK ather
Ġgreat est
ust ice
Ġim m
Ġru le
Ġcomp lex
Ġpur cha
ĠPr otector
Ġch ide
Ġstran ger
Ġsomet imes
Ġsk y
Ġgro an
Ġgrie v
GON ZAL
GON ERIL
ĠTy balt
Ġda res
Ġsus pect
Ġthro at
Bel ieve
Ġkins man
Ġvict ory
Ġempt y
FA BIAN
ĠWIT CH
GONZAL O
A THER
B ear
C U
I BAN
K ing
M akes
S et
U nt
d y
e ld
e as
f idius
g ood
o ard
s hi
v i
Ġ .
Ġt aught
he st
Ġs y
Ġs now
Ġw ing
Ġw ra
re ak
ha ps
Ġf ro
Ġd im
Ġd ying
Ġd urst
Ġc up
Ġn umb
Ġth ie
ad ed
Ġst ab
Ġli v
ro ach
ĠC AP
ĠA u
Ġsp e
Ġshall ow
Ġshe d
Ġsw eat
el ia
RO SS
ĠK ATHER
Ġsa v
IR AND
ĠE p
Ġend s
Ġgl orious
ert es
Ġevery thing
for th
ĠPr in
Ġpri ze
Than ks
ail s
MAR TIUS
ati ence
Ġret ire
Ġass ure
Ġvirt ues
Ġdisc har
Ġmis chief
Ġbo ast
DO CTOR
ran cis
Ġsick ness
Ġcra ve
Ġwa x
Ġmin ute
PAR IS
CAL IBAN
Ġmod esty
Ġdu cats
ĠPro v
Ġsatisf ied
ram us
Ġviol ent
Ġchast e
LYS ANDER
Ġignor ant
ich mond
Ġauthor ity
ortens io
ĠKATHER INE
IRAND A
A cc
B LE
F ollow
M IRANDA
N IN
P lease
S AT
T AM
p ed
u ge
Ġt ap
Ġs our
Ġm ess
Ġb rows
Ġc ock
Ġp ear
Ġre ward
EN CR
ĠS p
ĠS y
th ur
ĠA way
ant ag
Ġbl us
fe red
ĠO ffic
Ġun ha
Ġpro vo
ANT Z
âĢĿ ,
Ġtell s
CA IUS
UR NIN
Ġarm ed
Ġcont empt
Ġfind s
Ġconf ound
ROS ENCR
Ġadv ice
Ġjud g
On ly
ĠAl b
Ġgar ments
Ġprof it
Ġest eem
ĠWill iam
ĠHelen a
CHAR LES
Ġoffic er
Ġchall enge
Ġcondu ct
ĠCapul et
SAT URNIN
TAM ORA
ROSENCR ANTZ
SATURNIN US
, âĢĻ
H as
M OR
i ver
n et
r ont
Ġs ides
Ġc ease
Ġn ames
Ġp ill
Ġp il
Ġp ie
Ġp air
Ġin fect
Ġbe yond
Ġre nder
Ġse arch
ĠS ic
ER SET
th ou
AR IEL
ĠH eaven
Ġsp ake
ĠB oy
ĠF are
ic ate
ig o
od er
ist a
Ġcha ir
ress ed
Ġtw ain
ĠĠĠĠĠĠĠĠ Ġ
li pp
ET TA
ĠAnd ronicus
QU IN
Ġbra ins
Ġfollow ers
Ġchar m
LUC ETTA
MAR GARET
Ġbod ies
Al ack
Ġass ur
Ġsleep ing
Ġbu ild
ĠBe atrice
ĠDo ctor
ott ed
Ġdev ice
Ġfra me
Ġemp ress
Ġgift s
Ġfaire st
HERM IA
Ġobed ience
Ġcontr ary
ĠCoriol anus
hum us
apt ista
SOM ERSET
C OL
L OR
T r
T OM
Z O
k ind
l ock
m end
t hen
t ime
he nd
in ite
re hend
Ġb ill
Ġp at
ĠI m
at er
ur ing
ro ll
EN ZO
ĠS ee
AR ENCE
AR VIR
ĠA y
ĠP ort
ĠP eter
ĠB aptista
ĠL avinia
sel ess
ĠT arqu
Ġhere after
Ġal t
ĠN ot
Ġfl ow
Ġpart y
Ġhar k
Ġpur su
Ġsm iles
cl ock
Ġtri f
AG US
Ġmis ery
ran io
Ġsorrow s
ĠIt al
Ġprom ised
Can not
pr ise
Ġdark ness
Ġmove d
Ġlim bs
BOT TOM
Ġap art
Ġmour n
Ġir on
ĠBrit ain
Ġpol icy
ĠAu fidius
LOR ENZO
ARVIR AGUS
A pp
F LA
O nce
R ome
S ha
c o
r is
he ther
in ct
Ġb ent
or at
it ol
Ġd ar
Ġc itizens
an ct
Ġg arden
our t
ri d
Ġli est
ord ing
Ġde w
hi les
am emn
il iar
ĠH al
Ġsh ot
ie ge
Ġsw ay
ĠT ime
EL LE
Ġun se
Ġqu it
Ġfl att
Ġro ck
IL LE
LA IN
Ġapp et
the m
Ġput s
Ġunder take
Ġtre ad
Ġwind ow
SH EPH
Ġca res
ĠTro j
Ġdream s
Ġknight s
Ġba be
more land
ĠCap itol
Ġpract ice
GA V
Ġamb ition
Ġbeha lf
Ġed ge
EX ETER
PUC ELLE
Ġce rem
ĠPet ruchio
FLA VIUS
amemn on
SHEPH ERD
B Y
D ear
D IANA
F ear
F IDIUS
L ay
L ong
N ER
W EST
a vy
d o
p ort
s er
Ġt ame
ou nce
Ġb ottom
Ġf its
Ġd ot
Ġp ier
an qu
Ġha zard
Ġwe eds
ad o
ad ies
al ks
Ġst ick
ra c
ra ld
id ence
ro s
Ġse ll
and ria
ĠC LO
Ġsu per
IN O
ru ction
if f
ĠĠĠĠ ĠĠ
Ġv es
ĠW ales
ĠL ear
OR IZ
ĠF rancis
all s
ĠD u
Ġwor thi
Ġar ri
ĠR ichmond
Ġsee ing
CH AM
ĠN ature
ci al
IL IP
Ġcl im
Ġsl ight
BER LAIN
mp et
Ġfriends hip
Ġdear ly
Ġfe ather
Ġserv ants
Ġadv ance
AU FIDIUS
itt en
ĠIs ab
Ġdisp osition
Ġprison ers
Ġcra ck
CL ARENCE
chan ge
so oth
Ġoffend ed
Ġmount ain
FL ORIZ
Ġble ed
Ġaffection s
ĠThese us
mbl ing
Ġsmo oth
og en
ĠVI I
heart ed
ĠBass anio
Ġdeg ree
ĠCam illo
Ġleng th
ĠPost humus
ĠCAP ULET
oder igo
orat io
ĠCLO WN
CHAM BERLAIN
FLORIZ EL
A ENE
H ence
H ILIP
M ar
b ours
g u
g ged
m ian
p ic
w h
w ould
Ã ©
Ġa vo
Ġs ought
Ġm ood
Ġm ag
Ġf ate
Ġf elt
Ġc row
Ġc ens
Ġp ick
Ġp age
om en
le ans
Ġfor feit
Ġdo gs
ck et
Ġsu ck
ĠA m
ct ed
Ġv en
ĠP HILIP
Ġsh r
Ġgo dd
Ġsw allow
ol ute
Ġfl ourish
IC ER
Ġri pe
Ġfair ly
LA UN
Ġgentle woman
ove red
Ġser p
Ġper force
CE LET
Ġrep utation
ĠCa ptain
Ġcur sed
Ġimp oss
Ġmon ument
An other
Ġrun s
tw ill
Ġhate ful
Ġmark et
Ġpleas ures
Ġbar ren
Ġac cept
Ġshort ly
HER O
Ġatt empt
Ġdev ise
Ġopp os
Ġve x
Ġunk nown
Ġrevere nce
cre ce
BIAN CA
ĠSc ot
ĠEx eter
Ġfig ure
Ġod ds
ĠWest moreland
ĠPy ramus
ĠLy sander
Ġcomplex ion
antag enet
Ġves sel
AENE AS
LAUN CELET
A men
H ail
R ep
S u
S IM
a ction
l aw
o c
o on
w ife
Ġ Exeunt
Ġs anct
Ġw ink
Ġb ade
or a
ar on
Ġhe rald
at or
le nder
Ġis land
oo ps
ri b
Ġst roke
ore d
Ġde er
Ġse est
AN OR
ĠC OUNT
Ġkn aves
Ġne gle
out s
LE ANOR
un ate
Ġr hy
Ġfri ar
Ġgra ces
Ġwr ought
Ġra ise
Ġpre fer
Ġpray er
bl ing
bl ood
Ġnat ive
RY MAN
Ġconf irm
ont ent
LUC IANA
ĠCl own
Ġstri fe
ĠThis be
ĠLu crece
Ġgre y
ĠTh us
ĠOr leans
ip ho
Ġgro ans
Ġcreat ures
Tru ly
Ġshi ft
Ġfing ers
uri o
Bet ween
Ġbount y
nat ural
ĠProv ost
Ġgodd ess
SIM P
ĠCOUNT RYMAN
C ELL
M istress
N A
R et
S IMON
a qu
b ow
i ate
i vers
l ong
m aster
o v
p re
t han
w d
x ford
Ġt ur
he ld
Ġm art
Ġw ants
er ving
Ġf in
Ġf il
Ġf if
Ġf ant
it able
Ġd istress
Ġd agger
Ġc ou
en ius
Ġp are
om ent
Ġde b
Ġdo ctor
am our
ĠS ome
ĠS lender
AR CH
ĠH ortensio
ru n
Ġv antage
ĠP ho
ast ed
Ġpr on
ĠD ou
LE Y
Ġspeak ing
ANT IO
Ġab hor
Ġfather s
ress ion
Ġpart ed
che ster
SC A
Ġwh ither
land o
Ġaf raid
Ġfollow ing
Ġfollow ed
ID ES
Ġsub stance
ĠLu c
ĠThou gh
pl ace
ĠAr thur
Ġint ell
Ġsign s
Ġbeat en
ca pe
urs ed
Ġunt il
Ġinstru ment
Ġfat al
Ġfam iliar
Con f
Ġeld er
Ġrevol t
Ġclot hes
Ġnumb ers
ĠIm ogen
ĠPort ia
ĠTarqu in
Ġappet ite
SIMON IDES
D raw
L u
L ON
P AT
S e
S ound
l ight
p ing
p ir
s we
s oe
u pon
Ġ 2
Ġ 4
Ġ 8
Ġt est
Ġt ide
Ġt ask
Ġs ink
Ġm oment
Ġb ury
Ġd er
Ġl amb
Ġh ind
Ġp our
se qu
ut ed
ut ies
ra ve
Ġso oth
Th ree
Ġfa vours
ĠM erc
Ġv ar
ĠW hich
ON SO
ĠG on
qu ire
AL ONSO
ep t
Ġr otten
Ġmar ks
Where fore
Ġnor th
Ġpe ers
Ġacc us
Ġbea uteous
Ġsent ence
Ġbo ar
ates by
Ġdef ence
Ġdel ivered
Ġinf inite
Ġinc re
Ġmouth s
Wh ither
Ġgrie ve
Ġpriv ile
ĠJul ia
Ġconce it
Ġfaire r
Ġmonth s
Ġlangu age
Ġdeter m
Ġdisple asure
ĠPis anio
Ġreck on
Ġjudg ment
GAV ILLE
LON GAVILLE
L AN
O C
P res
d es
d ed
f ri
f old
p et
v est
Ġ ze
Ġt all
Ġs ins
in o
Ġm ak
Ġw ither
Ġb ind
Ġc ave
Ġc alm
Ġl un
Ġn ice
ar bus
Ġh uge
Ġp aint
Ġin k
Ġin her
Ġbe lly
Ġe ight
Ġwe ather
Ġwe ars
as y
ri el
Ġst ock
Ġsha m
Ġlo ck
Ġsp le
Ġsp ur
ĠW in
OR GE
Ġbl est
Ġbl unt
Ġwor m
ĠR oss
ĠR oderigo
ĠT ranio
Ġpl aces
ig ious
Ġdis s
Ġal ike
ass ad
Ġthink ing
Ġcha se
ENE T
Ġtr ade
Ġser ved
Ġper ish
FF ICER
ft y
CA SCA
Ġbeg an
CON STA
IM ACH
Ġrep air
Ġmer chant
Ġwrong ed
Al though
Ġass ured
Ġbes ides
Ġlaw s
Ġban qu
Ġhang s
Ġstrong er
Ġpurp oses
Ġbless ing
Ġdel ay
Ġexce pt
Ġaff li
ĠRo bert
Ġwoe ful
Ġgar land
MAL COL
ĠChar mian
GE ORGE
Ġfier ce
LYS IMACH
Ab out
Ġdif ference
Ġcre ep
Ġweap ons
Ġwond rous
Ġdeceive d
WO O
Ġfart her
Hel p
ĠSat urn
Ġthie ves
Ġspe cial
ĠOffic ers
CONSTA BLE
MALCOL M
LYSIMACH US
A nt
B IA
C ame
C ons
D ELLO
H IP
M en
T RIN
V IN
W hether
W hiles
Y TA
a cy
c ame
j ust
l ive
p ul
r ite
r ison
Ġ &
Ġ 5
Ġ 6
Ġs ings
Ġs aint
Ġs cept
re es
Ġb ite
is per
on est
Ġo dd
en c
Ġp or
an k
an ley
st ain
Ġin ward
et ter
Ġfor s
Ġfor sooth
al ed
Ġst at
Ġst aff
Ġre com
Ġre jo
ur k
Ġwill ing
am s
am ed
est ed
ge ls
Ġsh ri
ous ly
Ġbl own
AL CI
Ġwor n
ĠO ne
Ġar rest
are d
Ġen vious
Ġal though
ĠJ aqu
Ġab ide
che ss
ĠV er
Ġlady ship
Ġco ff
Ġsle w
Ġtra vel
Ġbel ong
Ġmo v
Ġass ist
Ġsleep s
Ġvillain s
ĠBr ook
Ġkiss es
Ġcountry men
Ġsil ent
Ġcast le
Ġ1 0
POL YTA
ION DELLO
Ġsho ot
Ġtor ment
Ġmid night
Ġjealous y
Ġnob les
Ġpet ition
ĠHu gh
reed om
Ġcompan ion
Ġdec ay
ĠAg amemnon
Ġwol f
Ġcuck old
Ġacquaint ance
ĠMal volio
Ġbenef it
Ġetern al
CU LO
anqu o
Ġze al
BIA DES
HIP POLYTA
TRIN CULO
ALCI BIADES
B ORA
B IONDELLO
D EN
N ES
O US
W ALD
c ure
g n
z z
Ã ¨
Ġ 7
Ġ 9
Ġt arry
Ġs and
Ġs tern
er ing
er ved
Ġf ret
Ġc ell
Ġth orn
Ġp ause
Ġg az
ir ty
Ġli p
us es
AN LEY
ĠC oll
ĠH oratio
ĠA b
Ġv ill
Ġv ol
ast ing
Ġsh un
ST ANLEY
Ġthere of
ĠO xford
You ng
ĠT am
Ġj our
RO CL
Ġqu ench
Ġheart ily
Ġra ven
Ġpre par
Ġhar sh
Ġrem ains
Ġgl ove
Ġpri ck
UL T
Ġpass age
Ġch id
GO WER
Ġbel ie
Ġbel oved
Ġearth ly
Ġhum an
Ġfalse hood
BO ULT
Ġvillain y
Ġweep s
els h
AU MER
Ġattend ed
ĠHere ford
Ġpleas ant
Ġwis hes
Ġbook s
ĠFl ore
Ġwound ed
ĠServ ants
Ġacqu ainted
Ġobs erv
ĠPl antagenet
gl as
OS WALD
cul es
Cont ents
Ġunf old
Ġsens es
ĠGre cian
Ġconc ern
ĠVol s
ĠSw eet
ĠPand arus
Ġshrew d
ĠLa ertes
QUIN CE
PAT ROCL
Ġbanqu et
WOO ER
BORA CHIO
NES TOR
AUMER LE
PATROCL US
C ry
F ull
M any
R es
S UR
S ignior
b ast
d is
e rest
i pp
l ove
l eness
Ġ 3
Ġs ine
Ġm ill
Ġw ail
Ġf ed
Ġc am
Ġn on
en cy
Ġp omp
Ġhe ight
Ġbe fall
ld om
ch b
Ġis le
Ġst age
Ġst ret
id us
Ġre pe
EN CH
est or
ea u
th ink
ĠA h
ĠW elsh
ĠB anquo
Ġne phe
Ġam iss
au nce
ĠD un
Ġen force
Ġsa cri
Ġhand ker
ick ly
ĠN ever
own e
âĢĿ ?
Ġdes cend
Ġmar vel
Be hold
Ġbet wixt
Ġhear s
Ġlea gue
AT ES
li ed
Ġcl er
Ġsc ene
Ġper fection
Ġcomm itted
Ġwh isper
UR TH
Ġcont ract
Ġend ed
Ġgl o
the y
Ġpass ing
Ġstay s
Ġres c
Ġcrown ed
ĠMar ia
Ġstra in
Ġsend s
ene as
OLI VER
Ġrec ord
Ġlust y
Ġmist ake
Ġbanish ment
Ġga it
Ġnob ility
ĠGree k
Ġignor ance
Ġbeha vi
ĠHu bert
FR ENCH
Ġdign ity
Ġcircum stance
Ġclo ak
Ġtyran ny
Ġtort ure
Ġunha ppy
Ġpie ces
Ġimposs ible
ĠWin chester
aunce let
A B
P IR
P ID
f aced
g ive
l ook
m ong
n ew
Ġt ro
Ġm ass
re ls
Ġb ull
ll e
Ġl uck
ar ies
ot en
ot ion
st ant
om s
Ġin form
ad ua
Ġst amp
Ġre de
am ing
ea rer
ĠC orn
Ġno bly
ĠH ark
ĠA riel
ell a
Ġv ouchsafe
ST ANCE
ic a
au g
ep idus
ĠD en
ĠO li
Ġpl ant
EL AND
Ġun natural
ick le
ĠN e
Ġfo x
IC ANUS
Ġfriend ly
IL IUS
Ġother wise
Ġser ves
Ġper f
Ġra il
Ġstand ing
CON STANCE
IS H
IS SA
Ġevery one
cl us
Ġcons ul
Ġkind ly
Ġacc use
Ġsub tle
Ġfaith ful
Ġdisc over
Ġstri ve
Ġdevil s
Ġdru ms
Ġtem ple
iet y
Ġhard ly
up iter
Ġcommon we
HEL ICANUS
TA IN
ĠOr lando
Ġexp ed
Ha ving
Ġ1 1
Ġshi eld
Ġpit ch
Ġconqu est
Ġwhore son
ob arbus
Ġnecess ity
Ġappare l
ITH OUS
Ġcomb at
Unt il
ĠPrin cess
MOR ELAND
NER ISSA
WEST MORELAND
CELL US
Ġpare nt
ĠPho e
ĠDou glas
ĠTam ora
chb ishop
PIR ITHOUS
! âĢĻ
B ISH
C ESTER
L ady
S m
W OR
b ar
g on
l us
r oop
s ar
u ries
w as
w ho
z o
Ġ QUEEN
ou bt
Ġm ask
Ġw est
Ġw ander
er le
Ġc rest
Ġo ce
Ġo ak
Ġy oke
Ġto il
Ġha unt
ill y
Ġe ast
Ġst oop
ra b
ly ss
Ġk in
Ġde cl
Ġwill ingly
ge on
ĠC atesby
Th rough
Ġan swe
ĠH ost
Ġsp read
ĠM ess
ĠP aul
ĠL epidus
Ġmu lt
ĠR eg
Ġpo et
Ġal so
Ġbre ad
Ġbre ach
to gether
Ġfair y
Ġwr ink
Ġtr im
Ġcl ock
Ġsl aves
Ġshow ed
ret ion
Ġsle pt
Do es
Ġtri cks
Ġplay s
Ġpe as
Ġsure ly
hes us
Ġhang ing
Ġsec ure
Ġenter prise
Ġcommand ed
ĠHer cules
med iate
Ġdep end
MEN AS
ĠAl as
Ġter ror
Ġcor on
Ġvis age
Ġhair s
Ġfeel ing
bit ious
Ġund o
Ġtrou bled
Ġbeast s
Ġble eding
ION E
Ġentertain ment
Ġtor ch
FO URTH
Ġdest roy
Ġdeser ved
HERM IONE
Ġconj ure
Lea ve
THUR IO
Ġmil k
Ġhig her
ĠItal y
ĠTroj an
Ġavo id
ipho lus
ARCH BISH
Ġsacri f
PID US
Ġrede em
ĠOli via
WOR CESTER
lyss es
ARCHBISH OP
G ives
M uch
P re
a res
f ellow
l se
m aid
n ock
t ell
Ġ et
Ġa ch
Ġs iege
re et
Ġb ore
Ġf reedom
it ing
Ġl ent
Ġl ap
Ġn im
Ġy ond
at ro
Ġbe held
Ġha il
le an
ut s
as ca
Ġst ing
ur b
Ġso ci
Ġde af
Ġwill s
ĠC all
ĠC ade
Ġan gels
ru e
ĠA eneas
Ġkn it
Ġkn ot
ĠM arry
ĠP hil
ĠP adua
ĠB o
En g
ĠG aunt
em per
el ine
Ġun m
Ġen for
Ġpo cket
Ġal ter
ĠJ upiter
Ġoff ices
Ġro ar
Ġdes ign
Ġlea p
Ġnight s
Ġcomm it
Ġcont ro
Ġsm iling
Ġlie utenant
Ġyoung er
Ġkind red
ĠAnt ipholus
Ġgi ld
Ġtre mble
Ġdre w
mb eline
Ġadv ent
An on
ĠMar ina
Ġwat ers
Ġpal m
rem io
Ġpar ley
pr us
Ġred ress
ĠFl ourish
Ġadm ir
Ġwed ding
ĠEm peror
rs ites
ĠMay or
Ġdeser ves
Ġgent ly
ĠU lysses
ĠCy prus
Br other
Ġtail or
Ġmurde rer
ĠMil an
Ġpurcha se
ĠEp hesus
ĠSy ra
pic ion
Ġserp ent
bast ian
Ġanswe red
atro clus
C ARDIN
D el
F are
N YM
O ff
V IC
W it
b r
b ray
e re
g ues
n zo
p ier
r t
Ã §
in us
Ġm ile
Ġw hip
Ġw rest
Ġd ow
Ġd ress
Ġl ines
Ġy ester
Ġp h
Ġto ken
ow bray
Ġg id
ri pp
Ġst ub
ore nzo
Ġse mbl
ea red
IN CH
Ġbut cher
ell o
Ġfa res
Ġsp urn
ĠL auncelet
Ġsh own
ĠG reat
ous es
ST ERN
Ġam bitious
em ned
ĠF irst
ĠF IS
Ġcan n
LE PIDUS
TH A
TH E
ound ed
Ġshould ers
Ġsa ved
LO DO
Ġdis se
Ġwho lesome
Ġro ses
Ġcha rac
Ġgra ves
IL DEN
Ġwr itten
Ġsweet ly
Ġke y
QU O
Ġru st
Ġsl ay
ED WARD
Ġpri ce
Ġserv ices
Ġtre es
Ġcourt ier
Ġimp rison
MAR CELLUS
Ġhum ours
Ġdisc ontent
Ġbreak s
Ġadv ised
ĠMar ch
Ġgre w
ran k
Did st
Ġneed ful
ĠAr chbishop
Ġread ing
ĠSt anley
Ġcho ler
Ġcond emn
Ġbrave ly
HER MAN
BAN QUO
Ġdu ked
Ġabs ent
fere nt
Ġpossess ion
Ġdri ve
Ġda ily
PO ET
Ġjew els
Ġinno c
Ġpet ty
PUC K
ĠMen enius
ĠGu ild
Ġvent ure
ĠSen ators
ĠCom inius
Ġmiser able
Ġaud ience
rum io
ĠDian a
inds or
Ġwra ck
Ġmess age
Ġincre ase
OC TA
ĠColl at
Ġhandker chief
Ġoce an
CARDIN AL
VIC O
ĠFIS HERMAN
LODO VICO
ILDEN STERN
C ORD
F ind
I OR
M usic
U p
a us
b oy
d st
g rim
k now
m ark
s ay
t led
z y
Ġt aking
Ġb ot
Ġb ag
is hes
Ġf ront
it al
Ġl ing
Ġl am
Ġl ying
Ġth rown
ar row
Ġh ie
Ġp ee
st able
Ġg ather
Ġfor ces
Ġu g
ri ef
ent ly
Ġli ft
Ġli king
Ġas se
Ġas pect
ro g
Ġdo zen
Ġsha de
ĠC o
Ġsu its
IN TER
il ful
Ġsp ace
ear d
ĠM ake
ĠP eace
ĠW h
ĠW ilt
ĠW indsor
ant us
ĠG oths
ĠG remio
em antus
Ġknow ing
Ġor n
um n
Ġun p
Ġun just
Ġshould er
Ġal arum
os ing
Ġpart ly
LA W
Ġtr oops
Ġad o
ian o
ian us
Ġrem orse
Ġset s
ĠEn obarbus
Ġconf usion
Ġpass ed
Ġcur ses
Ġcur rent
Ġpra ises
Ġmon arch
Ġyouth ful
Ġadv ise
Ġban k
Ġjoy s
Ġjoy ful
aw s
ĠTh urio
Ġspo il
Ġprom is
Ġvi ctor
Ġlear ning
Ġint erest
Ġrec over
Ġcor re
Ġprin cess
Ġbur st
Ġshad ows
cri ption
Ġve ins
Ġliber al
Ġabs olute
Ġresol ved
Ġresol ution
Ġreb ell
Ġdrown ed
ĠSEN IOR
Ġsatisf action
Ġinv is
ĠVen us
CAP TAIN
Ġunw orthy
Ġprepare d
ĠCy mbeline
Ġweap on
ĠGentle man
Ġfle et
Ġprod ig
Ġsav age
Ġprivile ge
Ġsple en
Ġscept re
Ã¨ d
Ġjour ney
Ã§ on
THA ISA
CORD ELIA
: âĢĶ
B OTH
C ousin
E PER
E lse
F ERD
M OW
b ble
b les
e ve
i ond
r ong
t les
t ered
w it
Ġt ut
Ġt um
re land
Ġb ay
Ġc and
Ġo pe
Ġn ation
Ġp ace
Ġp awn
Ġto w
Ġg ru
at ive
ill e
ill ing
Ġwe pt
Ġwe ek
as es
as ed
ri l
Ġre ach
ess ica
Ġse qu
Ġlo ad
ĠS ince
AR INO
IN AND
Ġsp l
ĠP hi
ĠW or
ĠW as
Ġcon ceive
Ġcon ference
Ġthem e
Ġtheir s
ĠO f
ĠO ut
um erle
Ġr ate
ĠK ING
Ġex per
ĠN ap
ĠJ essica
ire ct
Ġab oard
Ġpart ing
Ġsc ore
ward s
Ġper pet
CA STER
PH IN
Ġaf eard
Ġbeg un
Ġrem ove
be red
Ġmer ri
Ġco at
Ġfe ver
Ġgi ving
Ġlight ning
Ġdisc retion
Ġcoun cil
let e
Ġstrong ly
Ġcommand s
Ġgrow ing
ĠAr t
ĠWe re
Ġprop ort
Ġgrant ed
oll o
Ġadd ition
SAL ARINO
DAU PHIN
Ġwhi pped
Ġinj ury
ĠAp emantus
BRA Y
ĠBass ianus
rat iano
ĠQu ickly
ĠSe bastian
Ġinvent ion
DOL L
Ġfurn ish
ĠDu chess
LAN CASTER
Ġnephe w
Ġstub born
Ġpee vish
Ġinvis ible
FERD INAND
MOW BRAY
iond ello
B ANTIO
C Y
C AN
E d
G UN
I mp
L ie
O ld
R un
T were
b ell
c hamber
d uff
f av
o ft
s ide
w ar
Ġt ied
he l
he ard
in ous
Ġm ing
Ġm oral
Ġw ard
Ġb on
Ġb asket
er ity
on ed
Ġc orse
Ġc aught
Ġl ower
Ġn et
Ġn est
Ġn un
Ġn ails
en Ã§on
ar ried
Ġh y
Ġh ue
Ġh ounds
Ġto oth
ĠI reland
se y
Ġwith draw
Ġre nd
Ġre ve
Ġli qu
ord elia
ur der
Ġdo ve
Ġsha re
Ġan c
ĠH ence
ĠA aron
if fe
Ġsp y
ĠM owbray
Ġv ass
ĠP atroclus
ĠB es
ĠB astard
ĠB ishop
Ġman hood
ĠG ar
ĠF ore
ĠF air
Ġbl ot
ĠD avy
ĠT ha
ĠThe rsites
Ġlike ly
CH IR
ĠK now
Ġdis ease
Ġex change
ĠJ ustice
ĠĠĠĠĠĠĠĠ ĠĠĠĠĠĠĠ
So ft
Ġlook ing
Ġsc ur
Ġsc ru
Ġper haps
Ġwar ri
ĠAnd rew
Ġpres erve
Ġcould st
cl am
mp ets
Ġtra vell
Ġseem ed
Ġcur st
ĠCl oten
Ġhel m
Ġste ep
Ġval ue
Ġbus h
Ġsound ed
Ġrun ning
At tend
Ġreturn ed
Ġcry ing
Ġsupp ly
Ġreven ged
Ġlead s
Ġfield s
Ġsuff ic
Ġfore ign
Ġcar ried
no on
iz ed
Com es
Ġtown s
Ġaction s
UT LAW
Ġinstru ct
Ġinstru ments
BUR GUN
Ġfam ous
Ġag o
ĠPro sper
De ath
PA INTER
Ġeas ily
Ġreb els
Ġer ror
Ġga ze
Ġamong st
Ġver se
Ġsus picion
Ġwhi les
ĠGree ks
Ġconcl usion
Ġtrib unes
BRA BANTIO
Ġcompl ain
Ġpersu ade
ĠPo ins
Ġsau cy
Rem ember
Ġeag le
Ġexam ple
ĠBer owne
Ġdischar ge
Ġpil grim
Ġassur ance
Ġcens ure
Ġven om
Ġbehavi our
Ġgid dy
ĠNap les
CHIR ON
BURGUN DY
C or
I m
M aking
O BER
S end
U IS
W ID
c ceed
e rer
f oot
s ame
u c
u pt
w all
Ġt res
he ar
Ġa v
Ġa ged
Ġw ore
ha nt
Ġb eds
er al
Ġd un
Ġd ote
Ġn ought
en ster
ar ius
Ġh om
Ġp ate
Ġp ark
Ġbe re
ay ed
Ġnot ice
ill ed
Ġe vent
Ġfor ty
ri ff
ent on
Ġst ro
Ġli very
Ġli kes
Ġse ize
Ġse ldom
and al
ĠC hamber
ĠC asca
ĠH ad
ĠM onsieur
ĠP ed
ĠB iondello
ĠG ower
ĠG rumio
ie l
Ġcon ven
OR LE
ul f
ven ge
Ġbl ue
Ġsw ears
Ġhat ed
ĠD ost
ĠO UTLAW
ĠThe ir
Ġsee ks
Ġr he
Ġr us
Ġr ouse
Ġqu e
LO UIS
ĠN estor
ci ans
ĠĠĠĠĠĠĠĠ ĠĠ
Ġdes erv
li a
Ġsc ope
Ġad vers
Ġru ff
Ġnew ly
Ġpur sue
Ġbra w
Ġche ck
Ġplay ed
Ġlight s
MAR IANA
Ġacc ident
Ġsub d
Ġover th
Ġstre w
Ġdou bl
Ġhence forth
Ġjust ly
Ġstri kes
ĠEd gar
ĠAt hen
Ġless er
Ġlate ly
Ġter m
Ġsur feit
Ġburn s
Ġbehold ing
Ġbosom s
Ġpen ny
Ġcle an
Ġprop hes
oll es
Ġshi ps
Ġstru mpet
Ġeffect s
Ġobs erve
Ġhost ess
ĠAd am
Ġqual ities
GU ILDENSTERN
Ġchast ity
Ġcontin ue
Ġstain ed
Ġgovern ment
Am ong
Ġobed ient
Ne ither
uce lle
ĠAlex andria
Ġstep s
ĠCon stable
Ġhap ly
ĠPol onius
Stri ke
Ġfix ed
Ġimm ortal
Ġclim b
Ġrhy me
Ġfif ty
Ġinher it
Ġrecom pense
ĠGuild enster
Ġug ly
OBER ON
WID OW
Ġtres pass
ORLE ANS
ĠGuildenster n
C UR
C ATES
G iving
M ORT
N ARD
P PA
S eem
T ut
a pe
i ps
l ain
m ing
p ur
p art
r ings
r atch
s ion
s ire
t ic
v ity
he mia
Ġa unt
in ate
Ġm at
Ġw re
Ġw ot
Ġw et
ha st
Ġb ru
Ġb all
is ons
Ġf an
es e
Ġc ro
Ġl aughter
en ches
Ġy ellow
ĠI nd
ow l
Ġg oose
at cl
se ll
ce llent
Ġfor ced
ad le
al a
Ġst out
Ġst ale
ra se
Ġso il
Ġde cre
am y
ion e
ĠC ordelia
AR NARD
Ġsu p
Ġall eg
ĠH y
ĠA ng
Ġv ul
ĠP oor
ĠB arn
ard ed
Ġsh ook
Ġsh ines
ĠG ratiano
Ġam end
ĠT han
um es
ak er
TH AS
EL BO
un g
Ġpro ved
ĠE ven
ĠE ros
ĠN y
Ġfl at
Ġbre eds
Ġfear ing
Ġsc our
Ġser ious
Ġwh it
Ġpre ced
Ġapp ointed
Ġking ly
Ġcont ri
RI PPA
Ġrem oved
ail er
Ġch in
Ġcur ts
OTH SA
AG RIPPA
Ġacc ess
Ġmis c
Ġgr at
Ġgr ass
Ġbus y
Ġstrange ly
Ġdel icate
ĠSt ep
Ġcra ft
Ġdraw s
Ġinf l
Ġinf ant
Ġdist ance
Ġcond emned
Ġcontent ed
Ġwise ly
Ġbar bar
Ġpoint s
Ġdiv or
ĠWhere fore
Ġest im
Ġfea red
Com mend
stand ing
Ġcoward s
ĠPar olles
Ġpit iful
Ġsecret s
Ġer r
ĠAd ieu
Ġproceed ing
Ġref use
GA UNT
Ġthro ats
Ġoffic ers
phe lia
Ġdece it
ĠDe ath
Ġimag ination
SO OTHSA
Ġpin ch
Somet hing
BAL THAS
Ġdisgu ised
WILLIAM S
ĠOctav ia
Rome o
soe ver
SUR REY
Ġstret ch
Ġnim ble
CATES BY
atcl iffe
ELBO W
SOOTHSA YER
BALTHAS AR
) ,
A US
B L
C ER
F ly
F ore
G ILIA
G HOST
L ANT
P LANT
R ight
R ather
V ELL
W INCH
b in
g an
g reat
h us
i ven
n el
n ken
o an
s ha
w hen
Ã ¦
Ġt e
Ġt ab
Ġs illy
Ġb ul
er iss
Ġf ount
it ic
Ġd ame
en es
Ġth in
st it
st one
Ġg ame
at ic
se e
Ġha w
Ġha ll
ay ing
im ple
Ġe c
Ġst y
ra ft
ra ced
id s
Ġsha pes
nt y
ER OS
Ġsu e
Ġsu ng
Ġsu cceed
ĠM ust
ĠB ed
ĠL orenzo
ĠG et
ĠF rom
ic ation
ep ing
ost ard
ĠO phelia
Ġor acle
ĠT om
hy lock
Ġlike wise
ig nty
Ġj u
Ġen s
Ġqu est
ime ly
Ġpro cess
Ġfl ame
io ch
os op
No ble
IL OR
Ġbre eding
Ġle vel
li ps
Ġdeath s
Ġtr oop
Ġper chance
Ġra pier
Ġke en
Ġapp l
Ġapp rehend
Ġmight st
ert ram
Ġrep ose
Ġbra nd
mp h
ab ly
Ġmother s
Ġres ist
AG ENET
Ġthr ong
Ġkill s
Ġstran g
Ġmo ves
Ġdru nken
Ġmur d
Ġsupp osed
Ġexce ll
Ġcar ri
Ġter rible
hil osop
Ġcor p
sh ould
oly ta
Ġtit les
Ġguard ed
Ġras c
head ed
Ġap ace
ĠTy re
Ġprov ided
Ġmut iny
Ġcondition s
Ġtrib ute
Ġeld est
Ġdirect ly
Ġrece iv
Ġextrem ity
Ġbegu ile
ĠKather ina
Ġgriev ous
Ġfro st
Ġpear l
Ġblus hing
Ġcerem ony
Ġintell igence
ipp olyta
Ġsine ws
ĠReg an
clam ation
PLANT AGENET
WINCH ESTER
eriss a
B reak
B ARNARD
D uke
F all
I GH
J ESS
R IC
S it
S OLDIER
V ERN
W orthy
a cc
e ves
l orn
l ogue
m ake
m outh
m ione
v ive
w or
y et
Ġ X
Ġa le
Ġs ire
Ġw and
Ġw ished
re g
re ason
re me
Ġb rown
is her
Ġd il
Ġc ouch
Ġl ark
Ġn ap
Ġth rew
Ġth read
Ġp ull
Ġp ite
Ġbe ats
Ġbe ams
le nd
our age
Ġfor ms
ri an
ri al
al se
ra cious
Ġlo at
ĠC ostard
AR RO
ĠH ear
ĠA umerle
Ġfa wn
Ġsp ect
ĠB ertram
ĠL ong
ĠL adies
Ġman ly
Ġman age
ul ate
Ġbl ast
Ġwor ks
Ġsir s
ĠT urk
ook ed
Ġpl ed
un o
un ity
Ġho le
Ġout ra
Ġdis eas
Ġal ack
Ġal oud
Ġoff ences
Ġfl out
Ġab used
IC A
ull us
li us
ap h
che l
Ġsc andal
Ġcomm ons
Ġra gged
Ġim mediate
Ġcont ents
Ġbeg et
Ġmer c
Ġbra ce
ac les
rant z
Ġco p
Ġco in
ens ion
Ġgu ide
bt ain
Ġafter noon
Ġhusband s
Ġthank ful
Ġbreak ing
Ġbo ots
Ġstra w
Ġdef y
Ġcomfort s
Ġmet tle
Ġsen seless
Ġyield ed
ĠRo bin
Ġbar gain
oss ess
Ġweak ness
vo c
Ġquar ter
ĠHel ic
Ar m
Ġclose t
Ġresol ve
Ġmir acle
ĠMac duff
Ġmed ic
Ġevil s
Ġforsw ear
Ġconce al
Ġprov ide
ĠRosal ine
Ġsmo ke
Bet ter
OS RIC
Ġamb assad
Ġconcl ude
Ġhun gry
VER S
ĠBl unt
VIR GILIA
ĠGentle men
ĠSen ate
FR AN
Ġamaz ed
Ġcal f
Ġtreacher ous
Ġlod ging
Gentle men
shi re
Ġtrif le
Ġoppos ite
ĠScot land
rib unes
Ġnegle ct
Ret urn
enc rantz
Ġrejo ice
Ġresc ue
Ġcommonwe alth
Ġenfor ced
Ġph rase
ĠWor cester
ĠFore st
ĠProsper o
JESS ICA
VERN ON
C har
D IT
H enry
O FFICER
R AT
R ichard
S ure
a ches
a ze
b on
e ad
f ast
f fered
g ro
i en
o very
s c
s cri
v ir
Ġt im
Ġt ig
Ġs outh
in ary
re nce
is a
er il
ll ed
Ġf em
Ġf ires
Ġd at
Ġd art
Ġo btain
Ġy es
Ġp red
Ġp ush
Ġp hilosop
Ġhe y
an ced
Ġha re
ut io
ir ing
im o
ch or
Ġnot ed
Ġfor lorn
as p
as ing
ri c
Ġli ken
Ġwill ow
Ġlo cks
Ġan n
il ence
ru ly
Ġfa ct
Ġsp ark
ĠM ant
Ġv oy
ĠP art
han o
end ing
ĠG REY
ul ous
ic le
Ġcan ker
ol t
ol er
Ġthere by
Ġor c
ĠT r
Ġj ot
CH ANT
Ġtru nk
Ġhon oured
Ġex ile
Ġex pl
Ġal together
Ġfl int
Ġro aring
ag ed
ci pl
Ġri ot
Ġri ver
li ament
ĠHe c
Ġsweet est
Ġapp oint
Ġaf oot
Ġever l
ew is
Ġrep roach
Ġnat ures
Ġco ast
Ġfe ign
Ġfall ing
Ġtri ed
Ġchan g
Ġbid ding
Ġmatter s
Ġmo an
Ġbes ide
iv ity
Ġstri ct
Ġhapp ily
Ġbo x
PER DIT
Ġcare ful
Ġbreath ing
Ġroyal ty
Ġdoubt ful
ĠSt and
Ġcra ves
Ġsk in
Ġmet al
Ġinf irm
Ġdist ract
Tw ill
ub lius
Ġsovere ignty
Ġsign ior
Ġsign ify
Ġappro ve
Ġbond s
Ġkingdom s
ĠTit inius
Ġpossess ed
Ġmarch ing
Ġflatter y
ug by
Ġele ments
ĠLove ll
Ġconcl ud
Ġur ge
Ġgrand am
Des p
Pl uck
Ġow es
Ġdism iss
Ġfee ble
Ġguilt less
Ġsol ic
Ġbab es
Ġprosper ous
Ġtreacher y
Ġrenown ed
Ġbegg ars
Ġfun eral
ĠIsab el
SIMP LE
Ġprepar ation
ĠPaul ina
Ġsoci ety
ĠBo hemia
Ġdow ry
Ġsembl ance
Ġduked om
Ġinnoc ence
ĠCollat ine
Ġrebell ion
Ġproport ion
Ġanc est
Ġalleg iance
PERDIT A
B ED
C h
G N
H o
H im
I I
I LO
I GN
N ew
O UR
P atience
S LY
b re
c urs
g entle
h orse
i qu
i um
l ter
l ate
n es
r oth
r ish
r ity
s m
t een
w orth
y ard
z ed
Ġa x
in cul
Ġm ethought
Ġw ipe
Ġw alks
on is
Ġd ine
Ġc hat
Ġh ouses
ĠI ras
ing u
Ġg ap
ed er
se c
ut ch
ke y
our n
Ġst um
ver ty
Ġas hes
ain ty
Ġde fect
Th ings
Ġsu gg
ĠH ippolyta
ĠM ine
Ġv ap
Ġv ault
ĠP ucelle
ĠB ring
ĠL aw
ĠL ewis
Ġsh out
Ġman if
Ġam ends
Ġam orous
Ġgood s
Ġgo ss
ĠF enton
ic ha
Ġsw ain
Ġar ise
Ġr oof
Ġbr an
LO VELL
Ġpo verty
Ġex erc
ĠJ ailer
ĠJ oan
Ġfo ld
ign ier
Ġfair ies
Ġcomp are
RI VERS
Ġbeg ot
Ġhar bour
Ġend ea
Ġyoung est
Ġco x
Ġco ll
Ġfall en
Ġtre mbling
Ġright ly
Ġimp ed
ix enes
Ġpra ised
Al most
Ġbea ut
Ġkiss ing
Ġcoun sell
RE IGN
Ġcare less
Ġtalk ing
Ġsight s
Ġprom pt
Ġsupp ose
COR IN
Ġsad ly
Ġwork ing
MA STER
ĠAl enÃ§on
Ġfore head
Ġdist urb
Ġask ed
Ġlad s
Ġpay s
PET ER
Ġrequ ite
Ġfour teen
MER CHANT
Ġhide ous
Ġbur nt
Ġba chel
ĠRos encrantz
De ad
Ġreb el
ĠCount ess
Ġsatisf y
SIL VIUS
Ġdest ruction
Ġsch ol
Ġinj uries
Ġgrand sire
Ġdeare r
Ġthreat en
Ġphysic ian
Ġexpect ation
ĠCoriol es
Ġpot ent
Ġmiser ies
MONT ANO
ĠCressid a
Ġloyal ty
Le ad
Ġcher ish
Ġtou ches
Ġimper ial
ĠKather ine
Ġpier ce
ept une
ĠJaqu es
Ġcler k
ĠMess ala
ripp a
Ġperpet ual
ĠGar ter
Ġscur vy
Ġdoubl et
ĠAthen ian
Ġvul gar
ĠBarn ard
ĠNy m
Ġpite ous
lend ower
Ġliken ess
Ġexpl o
BED FORD
REIGN IER
; âĢĶ
A BELLA
B ea
C ENTIO
D ION
E very
E BE
F ather
G LEN
L ive
M ethought
O EBE
P OR
S leep
U E
V illain
a is
a cious
b i
c ourt
g ins
j est
k n
m ity
m ade
p ret
u le
w ork
Ġ Ã
Ġ ought
Ġ vers
Ġt al
Ġt ren
Ġt ales
Ġs lip
Ġs itting
in centio
Ġm ould
Ġw enches
Ġb ounds
or p
or ough
ll en
Ġf rank
on oured
it a
it us
it ation
Ġd it
Ġd ate
Ġd iet
Ġd ainty
Ġc el
Ġc ud
Ġl in
Ġth irty
ar th
Ġp ed
Ġp ine
hat h
Ġhe dge
an ish
Ġg n
ce t
ill s
ill on
al ty
Ġhis t
Ġli ly
Ġli ver
Ġli ons
Ġso ber
ver t
ck now
Ġse x
AN IA
AN IEL
Ġlo dge
AR TIUS
AR THUR
Ġan sw
ĠH old
Ġsp it
Ġkn a
ĠM adam
ĠP ublius
ĠB eau
ĠG all
ĠG rey
Ġup right
Ġam en
Ġcon verse
Ġcon sequ
ĠF ollow
AL EX
Ġpr ime
Ġwor ms
TH ANIEL
ig ent
Ġj e
Ġr ush
Ġen chant
ĠK eep
As s
Ġpro g
Ġdis cipl
Ġal oft
ĠN eptune
Ġab us
Ġro be
Ġro cks
Ġro bb
IC IAN
Ġri ches
Ġmar vell
Ġtell ing
It em
Ġcl am
Where of
PH OEBE
Ġsl umber
ian a
Ġkeep er
Ġhouse hold
Ġhour ly
UL PH
Ġpass es
ĠAnt ioch
Ġpe er
Ġpe ep
AG UE
Ġright s
Ġacc ording
mb ers
Ġhands ome
Ġgr im
Ġbu rial
DO WER
com b
ĠAr m
Ġsil k
Ġsen ators
Ġattend ing
with standing
ĠAl arum
Ġpleas ing
Tw ixt
Ġrec on
Ġsur vey
PAND ULPH
Ġdiv ision
ots pur
esh rew
Ġwoo ing
Ġemb ass
TIT ANIA
Ġta x
Ġstir ring
Ġheir s
Ġsuffer ance
Ġrel igious
Ġsafe ly
Ġdi am
Ġdi est
Ġfrown s
Ġprot ect
Ġvan qu
Ġshore s
ĠAp ollo
Ġhun ger
Ġinstant ly
Ġmour ning
ĠLA DY
Ġcompl aint
Ġhor rible
Ġsens ible
Ġwag er
Ġappare nt
WO MAN
ĠPol ixenes
ĠDiomed es
Ġpunish ment
DOL ABELLA
Ġtou ched
ĠOctav ius
NA THANIEL
Ġvar let
VIN CENTIO
Ġfors ake
Ġconcern s
ĠVols ces
ĠCorn wall
Ġexped ition
ĠPhoe be
Ġadvent ure
Ġbot tle
Ġvass al
Ġstro kes
Ġdivor ce
CER IMON
Ġvoy age
Ġorc hard
incul o
GLEN DOWER
POR TER
Ġansw ers
A lex
F ri
G u
G ARDIN
H al
J ohn
K iss
L ies
N OX
T en
T ime
Y e
b el
d in
m et
n s
o qu
p ri
p iece
r oof
s en
s bury
u x
Ġt aint
Ġt ired
Ġa pe
Ġs ed
Ġw aking
ha med
Ġb atter
is c
or ies
es u
Ġd ial
Ġc ook
Ġo x
en se
Ġp i
Ġp est
Ġp ul
Ġp ath
ve t
at ched
Ġin fection
Ġmy ster
im ents
Ġnot es
Ġwe ed
al ter
Ġst uck
Ġst ocks
Ġre se
ur ity
Ġas hamed
Ġde fe
ĠS n
ĠS uch
th ren
Ġsu itor
Ġsu stain
Ġsu ffered
ĠH im
ĠH otspur
ĠP h
rom well
ĠL ea
ĠL ie
Ġsh irt
En ough
ĠG host
ĠG lendower
ive d
Ġcon vers
AL ICE
pp er
ĠD er
ĠD oth
ort hi
ort unity
ĠR ugby
are r
Ġlet s
ĠT ill
ĠT ars
Ġpl aced
Ġr at
Ġr ites
Ġen ri
ĠK night
Ġpo s
Ġex tend
ĠE s
ĠE LEANOR
ĠJ ud
Ġcha mp
Ġdes ired
Ġbet imes
Ġwr ites
Ġnight ly
Ġra ging
Ġhast y
UR SU
Ġever more
Ġhar vest
CON RA
Ġpur ge
IM ER
the ir
Ġsle eve
Ġrest ra
Ġche st
Ġche ap
Ġres ign
Ġback ward
orse t
ati ent
Ġeven ing
Ġwind ows
Ġste ed
Ġlay s
Ġwant ing
Ġswear ing
Ġexce eding
Ġsad ness
Ġwa ves
Ġaff ord
Ġdrink ing
Ġpar ce
Ġact s
oss om
Ġrequ ire
Ġwhe el
Com mand
Ġpen it
Ġwonder ful
Ġscorn s
Ġunt imely
Ġbro ad
Ġmount ains
Ġdire ction
Ġbeast ly
Ġgrie ves
ĠTit an
Ġmist ook
Ġmist rust
Ġbow els
SIL ENCE
Dis p
Ġele ven
Ġins ol
Ġvan ity
Ġes p
Ġow l
Ġsto le
Ġdism al
Ġgreet ing
Per chance
Ġvirgin ity
Ġcompan ions
Ad v
Ġmurde red
Ġloath some
que ath
Ġalt ar
Ġunse en
wh ite
Ġfant ast
Lu cius
ĠMerc utio
ĠGon eril
Ġdeterm ine
Ġreckon ing
ĠFlore nce
ĠDen mark
Ġsacrif ice
Wit ness
Ġyester day
ĠBes ides
ĠTha isa
upt ial
ĠChamber lain
Ġrhe um
MORT IMER
IGH T
Ġpled ge
ĠMant ua
Ġax e
ĠLaw rence
icha el
Ġdiam ond
GARDIN ER
ĠTars us
CONRA DE
C ROM
E ver
E LEANOR
F rance
K nock
L ARTIUS
O pen
S aw
U G
W ELL
b ack
b ation
b ody
c ore
c ock
c ont
f ess
h onour
i as
l ies
m bled
m ission
p as
p ost
s peak
v ans
y mph
Ġt ents
Ġs lipp
Ġm as
Ġm iles
re hens
ha bit
er man
or us
Ġd uties
Ġc ardinal
Ġl an
Ġl ame
Ġl aug
Ġy on
ar re
Ġp ow
ot ed
an ing
ing er
Ġg ird
ad v
ad vent
as ions
Ġde m
Ġde ck
am ents
AN MER
est ial
ĠS ure
ĠC in
ĠC itizens
ĠH ath
if ferent
Ġfa ction
Ġsp ot
ĠM ichael
Ġv ot
ĠP ir
ĠL EW
Ġne gl
ĠG arden
Ġam ity
em pl
Ġsw im
AL A
Ġpr int
all ed
Ġhat es
Ġwor ser
He ctor
ĠR em
ĠR atcliffe
Ġsay st
um aine
Ġpl an
Ġpl ight
Ġr ises
Ġen ra
Ġen mity
Ġmad man
Ġpro clamation
Ġex cus
Ġex claim
ĠE vans
ĠN erissa
ĠJ uno
ci ally
ci bi
Ġle cher
Ġle wd
li hood
LA YER
Ġper i
Ġra v
Ġra ck
Ġapp eal
Ġcont ain
Ġlong ing
Ġrep ly
the se
Ġbra gg
ĠPr ithee
ĠCa wd
Ġcons pir
Ġtri ump
Ġfort unate
Ġplay ers
Ġchar ged
Ġchar ms
Ġcourt eous
Ġchan ged
Ġret reat
Ġacc om
Ġacc ord
Ġpower ful
Ġmo ving
Ġass ault
Ġdisc ord
Ġsure ty
Ġste ad
ran ch
Ġinst ance
Ġdan gers
Ġdan cing
tw enty
itt ance
Ġremem bered
Ġbless ings
Ġexce ed
Ġsister s
Ġinf amy
Ġdist emper
Ġcar ries
Ġtrust y
Ġsum m
Ġgall ows
Ġgar ment
Ġmock ed
Ġgro om
Ġharm ony
Ġext reme
Ġran ks
Ġsoft ly
Ġbond age
eem ing
Ġwrit ing
ĠAttend ant
Ġag ree
ĠAd onis
Ġdepart ure
cil ius
Ġdri ven
LEN NOX
Ġbreat hed
Ġstar ve
Ġcruel ty
Ġdest iny
can not
ĠCle on
ĠGree ce
Ġhun g
Ġsto ps
Br utus
CR ANMER
Ġpol itic
rat itude
Ġdesert s
Ġstol en
Ġminister s
ib an
ĠAg rippa
Ġjoint s
Ġunkind ness
Ġswell ing
Ġsy mp
Acc ording
ĠAlb ans
Ġsuper fl
Ġpron ounce
fri end
ĠRoss illon
ĠVer ona
Ġpeas ant
Ġcoron ation
Ġcontro l
ĠSyra cuse
Ġcann on
Ġcharac ter
Ġprodig al
Ġmerri ly
fav oured
Ġscru ple
Ġsuffic ient
Ġconven ient
Ġprophes y
Ġpreced ent
ĠStep hano
Ġbarbar ous
ĠBed ford
Ġoutra ge
Ġmedic ine
Ġeverl asting
Ġancest ors
curs ions
Ġvers es
Ġhist ory
CROM WELL
ĠLEW IS
cibi ades
ĠCawd or
B less
D own
F ive
F ENT
F etch
G ain
G loucester
H um
L end
N IGHT
O ver
O UN
P EM
P ED
P SON
R ED
S AM
T Y
T IS
T oward
W ear
Y OUN
Z ounds
a ven
a ched
b ridge
c ons
e rers
k y
k ens
l iness
m or
m od
n icious
p ire
p ens
s ick
s cape
t oo
t ies
u ell
u ally
v ied
w ing
w art
w ater
Ġ ice
Ġ vel
Ġt ie
Ġa we
Ġm ast
Ġm ute
Ġw ilful
Ġb ene
Ġb alm
er ves
it ary
âĢĻ ,
Ġd rows
Ġc ove
Ġc urious
Ġo st
Ġn earer
Ġn uptial
Ġp ant
ow ing
at har
Ġbe like
ce ll
Ġha lt
ith ous
Ġe ats
ter bury
ri ce
ra ise
ra ces
Ġre ap
Ġli ef
ord er
ur ch
Ġde vour
Ġdo le
am n
Ġlo sing
ĠS ur
ĠS erving
ĠS hylock
and ra
ĠC romwell
ER ICK
th ought
Ġsp ee
ĠM on
ĠM ore
Ġv ast
Ġv ig
ĠW elcome
ĠW alter
Ġman tle
Ġman kind
ĠG U
em p
ie ved
ul ar
ĠF er
ĠF ie
ĠF ab
ĠF RED
ic er
Ġbl iss
Ex cellent
ĠD orset
Ġwor shi
ĠT ribunes
Ġhere in
Ġpl ent
Ġpl ag
ig hed
Ġho se
Ġmust er
Ġsa ils
pe cially
Ġpo x
Ġal oof
ave d
ĠN ed
Ġwhere on
So ld
Ġmar ble
Ġbre thren
li ct
Ġblood s
oul t
Ġsc ape
Ġsc ratch
Ġper nicious
Ġad ore
Ġcomm od
Ġaf ar
ĠV incentio
Ġpres ume
Ġpur ple
be g
Ġevery where
Ġset tled
Ġco ats
Ġco zen
Ġrest ore
Ġfe eds
Ġconf ident
Ġcons ort
Ġcons um
ab out
irt ue
Ġcur s
Ġchan ges
Ġmis chance
ĠY es
Ġvillain ous
Ġste ward
Ġbo ard
Ġhang man
Ġsound ly
av ille
Un cle
Ġsing ing
ĠHer mione
Ġsick ly
Ġdisp ose
Re ceive
Ġdep uty
Ġsk ull
Ġint ents
Ġint eg
Ġsuff ice
Ġcar riage
Ġcertain ly
MESS ALA
Ġlad der
Ġinc ens
Sw ear
Ġdiv ide
essen gers
Ġdesp ise
Ġspeed y
Ġpluck ed
Tru mpets
Ġfra il
Ġstir s
ĠFl uell
Ġind ign
Ġsever ally
Pro ceed
Ġob li
Stand s
Ġtreason s
Ġpain ter
Ġut most
Ġsim pl
Ġer rand
Ġpatient ly
Ġexec ute
Ġdelight s
Ġdri ft
Ġmid dle
Ġmed dle
Ġdi vers
Ġneigh bours
Ġele ction
Ġknock s
rate ful
Ġcre ate
Ġleg ions
Ġes cape
Ġmere ly
ĠBl ack
Ġprofess ion
Ġguest s
MONT AGUE
Ġconquer or
Ġtyran n
Ġperj ury
pit aph
Ġbew are
Ġpill ow
Ġinfect ed
ĠIsab ella
Ġlun gs
Ġpaint ing
Ġsham es
Eng land
Ġgild ed
Ġorn ament
CUR TIS
Ġcurts y
ĠHelic anus
Ġfem ale
iqu ity
Ġbachel or
Ġschol ar
FENT ON
PEM BROKE
PED ANT
SAM PSON
YOUN G
athar ine
Ġspee ches
ĠFab ian
ĠFRED ERICK
ĠFluell en
B BO
C IN
C LEON
C ITIZEN
D OR
E C
F ool
N ature
O OL
S CH
S ub
W arwick
Y S
Y Z
Y ield
b urn
b etter
c raft
f ool
f ac
f ield
f aith
h ow
h ine
j ou
l am
p ence
s l
s ues
t r
u ra
w ear
w ind
Ġt ainted
Ġa cknow
Ġw akes
Ġthe ft
Ġf re
Ġf ift
it ate
Ġc ord
Ġc ab
Ġl es
Ġl ute
Ġn igh
Ġn arrow
Ġn ymph
Ġp atter
Ġto y
Ġhe inous
an other
Ġin ch
ir on
Ġme ed
Ġe p
ent ion
ra ction
id a
Ġre in
Ġre ar
Ġre lish
Ġde li
ro ve
Ġse iz
Ġher d
est s
ĠS ha
ĠC hi
ĠC oun
ĠC amp
ĠC amb
US ICIAN
ER CY
Th ine
Ġsu llen
ru ng
ĠA ud
if th
ĠM AN
ĠM usic
ĠM USICIAN
Ġv ine
Ġv ous
ĠP ERCY
ĠL afe
ard y
Ġour self
Ġne at
em broke
Ġshe ets
Ġcon v
ul ation
ĠF ield
ĠF ifth
Ġbl ock
Ex cept
Ġknow est
el aus
Ġus es
um ents
Ġun man
Ġun pro
Ġr ot
Ġr ings
Ġbr ass
Ġout live
Ġpro ver
Ġpro logue
Ġdis pl
ĠE very
Ġoff ers
Ġfl ock
AM US
Ġro gues
ci p
âĢĿ ;
Ġdes ir
Be yond
Ġart icle
to p
LA S
che th
Ġsweet er
Ġcl ap
Ġra w
AND RA
Ġapp rehens
Ġpray s
Ġru b
Ġru led
Ġla b
Ġcomp ell
Ġcomp ound
Ġcomp lete
Ġhar ms
be it
Ġma le
St ab
Ġhold ing
Ġconf eder
Ġunder t
Ġpass ions
Ġstay ed
Ġcur tain
Ġchar itable
ars on
GO BBO
Ġback s
Ġimp art
Ġacc omp
Ġacc ursed
Ġstran gers
Ġsub scri
Ġmo ons
Ġfight ing
Ġban ks
Ġkiss ed
DO UG
com p
com ing
Ġpers ons
Ġent rance
Ġcry st
ĠDo ll
Ġprom ises
Ġcountry man
ĠSt reet
Ġwear ing
rew sbury
Ġlead en
ĠAl cibiades
Ġcho se
Ġyield ing
Ġaff right
ANTI GON
Ġsur pr
Ġmock s
Ġdesp ised
alt ha
Ġpen ance
Ġgro ve
Ġcr im
Ġcr ime
Ġcr imes
Ġquar rels
Ġbegin ning
Ġba ld
Ġpit ied
Ġlim b
Ġchur lish
Ġadm it
con bridge
Ab ove
Ġdif f
Ġur g
Cont ent
Ġdemand s
Ġdece iv
Ġbend ing
ĠMen elaus
ĠMAC DUFF
Ġpersu asion
Ġpersu aded
Ġbount eous
ĠCan terbury
Ġhor rid
CLIFF E
Ġstart s
Ġkins men
ĠAlex ander
ĠRe ignier
Ġbride gro
Ġcuck oo
Ġhol p
ĠBel arius
Ġboot less
Ġprevent ed
Ġperj ured
ĠCal iban
Ġprophe t
Ġpursu it
Ġcerem on
Ġpron oun
ĠLuc io
ĠGon z
Ġdiss ol
gn ant
mong st
Del iver
OCTA VIUS
Ġcorre ction
Ġcand le
Ed ward
Ġreve ls
Ġbere ft
ĠPed ro
Ġestim ation
Ã¦ sar
Ġsty le
BARNARD O
ĠLong aville
RAT CLIFFE
Ġann oy
Ġexerc ise
Ġcox comb
DION YZ
Ġconsequ ence
URSU LA
advent ure
ĠCin na
Gain st
Ġvel vet
Ġinteg rity
CIN NA
OOL MASTER
SCH OOLMASTER
ĠCoun cil
ĠLafe w
DOUG LAS
ANTIGON US
DIONYZ A
? âĢĻ
A w
B oy
C ass
C ANT
C OX
D en
F E
F ree
F alse
G ES
G AD
H arry
M eet
M arch
N CAN
P ri
P art
T ra
T ON
T akes
T alk
b ea
c er
d ra
d el
d isp
f rom
f ace
f ret
i ction
i que
k ins
l ar
m o
m as
s ir
t ied
v ius
y e
Ã ĩ
Ġa fore
Ġa ug
in to
Ġm or
Ġm onsieur
Ġm essengers
Ġw ak
Ġb one
Ġb ough
Ġb ail
Ġb ully
er ation
or ter
ll ing
Ġf ray
Ġd ed
Ġd ower
Ġc ent
Ġc rows
Ġl at
Ġl ance
Ġl atter
en ix
Ġth irst
Ġth rows
Ġh ire
Ġof fered
an ks
an gs
ow ed
Ġg age
Ġg orge
at us
Ġbe came
Ġbe think
Ġha ught
le ct
ut land
im p
Ġme as
Ġnot withstanding
Ġe pitaph
ad ing
Ġst ake
id ing
EN Ãĩ
Ġlo fty
ge ons
ER BURY
Th row
il ius
Ġbut t
ĠH ol
ru de
ru nk
ell ows
ĠM ost
ĠM aine
ĠB E
ĠB ar
ĠB ARDOLPH
Ġsh ining
ant ime
ous ins
qu is
Ġmu se
ul ter
ul via
Ġsw oon
AL ENÃĩ
Ġthere to
ĠD ion
Ġar ch
What e
ĠR ou
ĠR ivers
ĠR utland
Ġr uth
Ġen f
ĠK atharine
Ġqu aint
Ġho p
Ġsa p
IR AS
orn s
Ġex pense
ĠN othing
Ġro pe
Ġgra in
Ġdes c
Ġdes cription
Ġlea f
Ġart icles
Ġear l
ap ly
Ġper formed
Ġra vish
Ġwh ist
Where to
Ġpre c
Ġcour ses
Ġru m
DU NCAN
RI ER
Ġset ting
rant ic
Ġfe at
esar io
Ġunder go
Ġworth less
Ġcur b
Ġforth with
Ġimp atience
Ġreason able
Ġpra is
ister s
Ġmo iety
Ġass ail
Ġthousand s
Ġshame ful
ĠTo pas
SH ILL
ĠLu cilius
Ġent ered
ĠTh ink
ĠTh ose
Re ady
Ġsil ken
ĠSt ay
Ġdep osed
Ġattend s
MA YOR
Ġdream t
Ġcho sen
Ġdeep ly
Ġmin utes
Ġter r
Ġdrink s
Ġrec re
Ġinc on
Ġvis ion
Ġprof ound
Had st
Ġconfess ion
Ġwhe t
Ġatt ain
Ġdev otion
az on
Ġpret t
Ġcr adle
Ġkne els
See ing
Ġcapt ains
Ġcounsel s
Ġrespect s
Ġpu iss
cher s
Ġadd ed
Ġind ifferent
Ġba it
Ġble m
Pr oud
ĠPom fret
ern on
Ġlim it
Ġcheer ful
Ġfill ed
ĠCount y
Ġflatter ing
Ġproceed ings
Ġviol ence
ey ed
Ġwast ed
Ġnob ody
Ġstor ms
Bet wixt
Ġmut ual
Ġgross ly
Ġay e
Ġgent leness
ĠAp ril
Ġgovern or
VER GES
Bes eech
Ġcorn er
Ġdwell s
Ġtrans port
Ġmaiden head
Ġhunt ing
Ġimag ine
Ad ieu
Ġchall en
Ġcorrupt ed
Ġemploy ment
ĠSh rewsbury
Ġextrem es
Somet ime
Ġhol id
col m
Ġing ratitude
Ġdisgu ise
Ġnobl er
Ġnobl est
ĠMil ford
Ġprovo ke
ĠAlb any
ĠSic inius
ĠBoy et
roll ed
Ġarri v
SIMP COX
Ġfil thy
Ġcou ple
ĠSaturn inus
Ant ony
Ġstat ue
Ġsand s
ĠDun can
Ġmult itude
Ġach ieve
lean or
Ġspl it
ĠPhi lipp
Ġliqu or
Ġpilgrim age
Ġrus hes
Ġoverth row
ĠThan e
ĠBarnard ine
Ġmarvell ous
Hal f
Ġmyster y
ĠDer by
Ġlaug hed
Ġperi od
ĠAud rey
CANT ERBURY
GAD SHILL
ALENÃĩ ON
A g
B est
C le
D ie
D ef
E G
E mb
E GE
I nt
P le
S AND
T y
T ro
T ouch
V ARRO
b et
b ra
b ook
c har
d id
d aughter
g ard
g one
i pt
i able
j ud
l ion
m ay
m ir
o ps
p ol
r r
s in
t ong
u ary
v ion
w ord
w hel
Å ĵ
Ġt ar
Ġt ea
in ent
in th
Ġm ouse
Ġw id
Ġf ulf
Ġf rantic
it an
it ive
Ġd roop
Ġc asket
en or
en ing
Ġth igh
ĠI ach
Ġhe al
st ock
Ġg av
Ġg ames
at he
at en
Ġbe queath
Ġha b
Ġha llow
im ony
ch ing
Ġe w
Ġe bb
Ġst ool
Ġse vent
ĠS i
ĠC elia
Ġno d
Ġno on
Ġsu ms
Ġall iance
ĠA men
Ġsp ar
Ġsp ell
To gether
ĠM ESS
ĠP uck
ĠP lease
ĠB id
ĠB ull
ĠB altha
end er
end om
qu iet
Ġmu dd
Ġbl ank
fe its
Ġpr im
Ġhat red
ĠD umaine
Ġus ure
Ġsay est
ĠT w
ĠT HE
other s
Ġlike lihood
ig ion
EL Y
Ġun will
Ġr ising
Ġmad ly
Ġbr anch
Ġtru er
Ġdis o
Ġex cess
Ġal ms
ĠE re
ĠE ly
ĠE leanor
Ġfo il
Ġcha p
ag gers
Ġri g
Ġri dd
Ġdes ol
Ġdes cent
Be comes
li er
Ġpart ner
Ġcl ay
Ġcl amour
Ġown er
Ġper t
Ġra ce
Ġru e
ĠV ernon
Ġcomp act
sw ald
Ġhar l
Ġshow ers
Ġgl oss
be fore
Ġkeep ing
Ġrep roof
Ġput ting
Ġco al
Ġconf ine
UL L
Ġgi ant
ont es
Ġplay ing
ect ed
Ġimp atient
Ġacc ent
Ġacc used
Ġsub stit
Ġhum ility
Ġbea uties
Ġfight s
ĠMar iana
day s
Ġlast ing
Ġwel kin
ĠBe ing
Ġgrow th
tw ould
ĠDo ver
Ġsupp ort
ĠSt aff
Ġreven ue
Ġattend ants
Ġpleas es
Ġcho ke
Can st
Ġbat tles
Ġdiv ided
Ġmock ing
Ġeat en
Ġsuit ors
Ġprof ane
Ġtouch ing
Ġplain ly
urs day
Ġharm less
Ġcapt ive
Ġemp ire
Ġfeast s
Ġmount ed
Ġconst ancy
ĠFl av
Ġdish onoured
Ġjest s
Pro ve
Ġunderstand ing
Ġobs c
Ġwood s
Ġreb uke
Ġsmall est
Ġexec uted
ĠAd rian
Ġwed ded
ĠSil vius
Ġinv ite
Ġfrown ing
Ġscarce ly
Ġcre pt
Ġfellows hip
Bel ike
Ġsong s
atri cians
Ġbestow ed
Ġfig ures
Ġnecess ary
Ġproclaim ed
Ġwond ers
Ġborrow ed
ĠAlex as
Ġbas eness
Ġcorrupt ion
Ġfruit ful
isp ers
Ġbell s
Ġbig ger
ĠVol umn
Stri kes
Ġsqu are
Ġaffect ed
Ġwol ves
Ġhill s
Ġsal ute
Ġwitch craft
ĠMal colm
omin able
BAL T
Ġhig hest
Ġnobl eness
Ġfun ction
Ġstab bed
Ġflatt erer
Ġmag ic
Ġshr oud
Su pp
Ġhind er
ĠSaturn ine
pul ch
Ġbelong s
boy s
wit hal
Ġexper ience
Ġbraw l
Ġball ad
ĠAng iers
Ġfount ain
Ġexcell ence
Ġrasc als
Ġdiseas es
Ġmerc iful
Ġambassad or
Ġtig er
ĠTr inculo
ingu ish
Ġexplo it
Ġcel estial
Ġlin en
Ġkna very
ĠLie utenant
ĠPir ithous
Ġsuperfl uous
TY BALT
Ġdrows y
Ġcove t
ĠSur rey
Sold iers
Ġobli vion
Ġfift een
Ġbridegro om
Ġlat est
ĠRou en
EGE ON
SAND YS
ĠIach imo
A dd
B ESS
B eshrew
E EPER
L ast
L ives
L IE
M urder
R el
S OL
T ush
V ouchsafe
a gain
a way
a ving
c over
d own
f ed
l ers
m es
m ine
m iss
o at
p o
r ot
s aid
s ino
t ween
u ate
v is
v ous
v illain
w ed
w orthy
z ab
Ġ Upon
Ġt un
Ġt orn
Ġt ire
Ġt aunt
in ch
in ces
Ġm ort
is ement
er p
Ġf et
Ġf ist
Ġf ert
Ġf ile
âĢĻ âĢĶ
Ġd ried
Ġc ed
Ġc ull
Ġl ar
Ġo il
en a
en ced
en vo
Ġp ir
Ġp ounds
Ġto ys
Ġhe el
an ger
an iel
st ood
Ġg ilt
at han
Ġha m
ay er
Ġnot orious
Ġe gg
Ġwe al
ad d
Ġit s
Ġre new
us s
Ġk en
Ġas under
Ġde em
Ġdo l
EN ANT
Ġsha kes
Ġse pulch
ea rest
ĠC ourt
ĠC Ã¦sar
Ġsu gar
Ġbut ter
if ic
Ġsp urs
ĠM an
ĠP embroke
ĠB en
ĠB rab
Ġsh rink
ant ages
Ġam ple
ul a
ĠF ort
ĠF ool
ic ity
OL ER
ĠD is
ĠO ber
ĠO swald
Ġar bit
ĠT rain
ĠThe bes
Ġpl ants
ish ing
un uch
ĠK EEPER
pe ed
Ġpro ves
Ġpro cure
Ġey el
Ġdis like
Ġex act
Of t
Ġri bs
Ġle ather
to ck
li zab
Ġwr ing
Ġwr ang
ide red
Ġsweet s
Ġcl own
Ġsc ant
Ġsc old
Ġsc atter
Ġper d
Ġra bble
AND IT
Ġpre gnant
Ġapp ly
Ġapp eared
Ġwit hered
Ġla bours
ĠV ent
Ġmight ily
Ġcont end
ger y
Ġsl ack
Ġsl aught
bl er
Ġpur g
ple x
be ing
Ġbra g
ne ath
Ġrest ored
Ġfe ature
Ġconf er
Ġworth iness
Ġres ort
Ġbring ing
Ġchild ish
ĠAn swer
ĠAn jou
Ġdra m
Ġhel ps
Ġmo ist
mb ly
mb les
Ġhigh ly
An y
Ġhapp ier
Ġsec re
com pass
ran ge
ener al
av ish
av arre
tw o
ĠHer ald
Ġfly ing
Ġsupp l
Re ad
Ġcra m
Ġwat ery
Ġinf er
Ġsen ate
Ġfoot ing
TR IA
with out
ĠFrench man
ĠFrench men
Ġmin ion
Ġrec ount
Ġself same
Ġsur m
Ġwis er
Ġreport ed
Ġbeat ing
ĠPer d
Ġcr ooked
Ġwalk ing
Ġta vern
See k
Ġopp osed
Ġopp ression
Ġcap able
Ġlack s
Ġmortal ity
ĠLe ontes
UT ENANT
Ġid ol
Ġmot ive
Ġadd ress
Ġind irect
Ġve in
Ġrel ent
Ġrel ieve
ĠJul ius
Ġob st
Ġob sequ
Ġpap ers
Ġlaugh ing
Ġresol v
Ġhurt s
ĠChrist endom
Ġsho e
Ġsho es
anc ies
Ġvow ed
Ġocc asions
Ġcarry ing
ey s
att ered
Ġpract ise
icul ous
ĠLeon atus
ĠĠĠĠĠĠĠĠĠĠĠĠ Ġ
Ġlist s
Ġdeser ving
Ġsuccess ion
Ġur ged
Pl ay
ĠEx cursions
Ġrob es
Ġthreat s
Ġtrans g
Ġvisit ation
Ġsto pped
Ġdebt s
Ġce le
min ster
Ġhor ror
Ġmeant ime
Ġlament able
ĠGre en
jo in
ĠWest minster
Ġemploy ed
enet ta
Ġant ic
Ġsau ce
Ġbab y
Ġallow ed
Ġdeter min
Ġcompass ion
Ġcloud y
Ġheav iness
Ġbud s
ĠSic ilia
App ear
Ġdot ing
Ġworthi est
Ġfeather s
Pres ent
Ġpor ter
Ġshri ek
Ġthorn s
ĠFlore nt
Ġobserv ance
Ġglo ves
AB BESS
Ġparent age
Ġimprison ment
Ġtut or
Ġwarri ors
hear se
Ġhom age
Ġruff ian
Ġscour ge
AUS TRIA
Ġbul k
Ġconclud ed
Ġbran ches
Ġendea vour
Ġbeaut iful
Ġtal ents
ĠBeau fort
Alex andria
Ġdefe at
Ġbene ath
ĠMon mouth
ĠGU ARD
Ġcommod ity
Ġincens ed
Ġcryst al
ĠMESS ENGER
LIE UTENANT
SOL ANIO
envo i
ĠOber on
lizab eth
B ase
C ut
D A
D rum
F oul
G race
G REG
H Y
I ll
I LE
I WARD
J ust
K ind
L L
M er
M ad
P o
P ar
P et
R o
S l
S aint
T roy
W rite
a ur
a bl
b less
c ies
c old
d one
f it
g led
m ight
m ind
m ont
m aker
n ame
n othing
o in
o ons
p res
p les
p urse
p icious
p oc
s cap
w omen
Ġt row
he res
Ġa ut
ou is
Ġm ap
Ġb ide
Ġf ut
Ġf ence
Ġf urious
Ġf ickle
âĢĻ ?
Ġd aring
Ġc ities
Ġl ime
Ġn am
Ġn urs
ar io
Ġh ides
Ġp ud
Ġp ipe
Ġp angs
Ġto ss
an ied
Ġg ust
Ġg ains
ed nes
Ġin habit
se th
ce eds
ch o
Ġe unuch
ke ep
Ġwe a
ad em
as ci
al o
al ing
her n
Ġst ink
Ġst ates
Ġre nt
Ġre ek
Ġre vel
ur ous
us hy
Ġk ern
hi re
EN AS
Ġsha med
Ġse par
ĠS er
ĠS ix
ĠC er
ER IA
Th rice
AR RIER
Ġan ointed
if ies
Ġfa c
Ġfa ster
Ġsp ies
ĠM oth
Ġv est
ĠW ol
art ered
ĠB ottom
ĠL ion
ĠL od
ĠL artius
Ġman sion
ĠG erman
Ġam ain
Ġmu ff
ind eed
Ġcon sec
OR Y
ers u
ĠF le
ic o
Ġwas hed
Ġsw ine
Ġsw eep
Ġcan op
Ġpr ate
ol a
ol ab
Ġhat ch
ĠO ld
ĠO liver
ĠO FFICER
Ġar ray
Ġar ras
are rs
Ġpl enty
ig gard
Ġj ade
Ġj ump
Ġun like
Ġun ruly
Ġen sue
Ġqu ake
pe red
Ġtru ce
Ġpo ll
Ġex it
ĠE ast
ĠE lizabeth
ĠJ esu
wn y
Ġsome what
Ġfl ames
Ġab und
Ġab bey
Ġhea p
Ġhow l
Ġro d
Ġro ad
ag on
Ġgra vity
âĢĿ âĢĶ
Be en
li est
Ġpart ies
LA VIN
Ġsc ars
Ġcomm ends
Ġra gs
Ġra ised
Ġwh ir
Ġke ys
Ġworld ly
Ġway ward
Ġla c
Ġcomp ar
Ġcomp osition
Ġarm ies
Ġcont ag
Ġcont empl
DU LL
sw ear
Ġnoble man
Ġlive ly
ious ly
Ġma jest
Ġsm other
KE EPER
IAN US
ac ity
Ġtra g
Ġtra ged
Ġconf idence
Ġunder neath
Ġel oqu
Sir s
Ġpresent s
Ġchar g
Ġturn ing
Ġhus h
Ġimp ud
Ġbel ov
Ġkill ing
Ġmean est
Ġhusband ry
Ġhome ly
Ġfalse ly
Ġdisc overy
fort une
Ġbreak fast
Ġbu ilt
Ġbu zz
Ġbo at
let ter
Ġland ed
Ġent ra
Ġent ire
Ġca uses
ĠTh ird
ĠTh ursday
Ġreturn s
Ġtalk ed
Ġread iness
Would st
Ġdisp os
Ġdoubt s
Ġcold ly
ang led
Ġlead ing
MA EC
Ġyield s
Ġdeep er
Ġaff ords
ub a
Ġpay ment
Ġpast ime
Ġbold ly
Ġreport s
Ġperson al
VAL ERIA
Ġwhe l
ĠCh iron
Ġthri ft
Ġglad ly
Ġsport s
Ġcoward ly
Ġcoward ice
Ġappro aches
Ar cite
Tru st
Ġopp ose
Ġopp ortunity
Ġ1 2
Ġcap s
Ġcap ital
Ġreg ion
Ġtrou bles
Ġmurder ous
Ġconst ra
Ġgrie ved
Ġid ly
Ġrel igion
Pro claim
Ġag reed
SP IR
my self
Ġconqu ered
su ing
cal f
cal us
GU E
Lord s
Ġdri ves
ĠSil ence
Ġstud ied
Ġtemp les
born e
ĠSc roop
ĠWith in
Ġsort s
Ġvan ish
Ġgent ry
Ġproper ty
Know ing
Ġes cap
mon th
rim ent
Ġpriest s
Ġdeg rees
Me antime
Ġdign ities
Ġant ique
Ġstomach s
Ġobject s
Ġfright ed
Ġdet ested
col our
Ġeag er
Ġchief est
ĠBel mont
Ġsy ll
Ġwing ed
Ġblus hes
Ġbill s
Ġmood y
Ġsanct uary
Ġfant asy
Ġdistress ed
Ġdeb ate
Ġdeterm ined
ĠJaqu enetta
Ġcoff in
Ġgaz ing
Ġrepe at
Ġparent s
Ġwrink led
Ġming led
Ġhy poc
Ġmisc arry
Ġec st
Ġmurd ers
Ġnap kin
Ġloat hed
ĠHec uba
Ġinfirm ity
Ġdistract ed
Ġimped iment
ALEX AS
Ġdiscipl ine
ĠArm ado
din and
ĠLea ve
ĠJud as
Ġchamp ion
ĠTitan ia
Ġnegl igence
Ġtriump hant
Ġsymp ath
ĠFer dinand
Ġpatter n
Ġlab oured
Ġsurpr ised
Ġcrim son
ĠGonz alo
ĠPhilipp i
Tro ilus
ĠBaltha sar
ĠStaff ord
ĠFlav ius
ĠBrab ant
Ġeyel ids
ĠVent idius
Ġsecre cy
ĠPerd ita
GREG ORY
ednes day
asci vious
olab ella
LAVIN IA
MAEC ENAS
B u
B ardolph
B rave
C IS
C ourage
D ep
D ist
D iv
D oubt
D irect
E nd
F it
F ellow
G ra
H igh
J OHN
L a
N ame
P ANT
P oint
T each
T itus
V irtue
W r
b ras
b oard
c or
c ast
d rink
e z
e ven
e xt
g od
l ings
l arge
m ans
m uch
p ray
u ced
v ile
w hy
z a
z es
Ġ Un
Ġt reat
Ġt ak
Ġt ick
Ġt ack
Ġa st
Ġa che
Ġa ges
in ish
in ence
in bras
Ġm us
Ġw i
Ġw ave
Ġw ip
re p
Ġb er
ll ies
Ġf ath
Ġf ren
Ġf owl
on ce
it iff
âĢĻ ;
Ġd ash
Ġc u
Ġc ong
Ġc ords
Ġl ull
Ġl ends
Ġo mit
Ġn iggard
Ġh ook
Ġp a
Ġp ent
Ġp up
Ġto e
Ġto ad
Ġto kens
ot ent
an n
st ances
Ġg un
at age
at tle
se ed
Ġe g
Ġe ff
al ms
Ġst iff
ra v
id ents
Ġre hearse
ur de
us hi
Ġas h
ro se
Ġdo ves
Ġse ated
ĠS in
ĠS et
ĠS imon
ĠS imple
ĠC ARRIER
Th rows
AR IO
Ġall ay
il ogue
if ter
Ġsp rings
Ġsp acious
To day
ho enix
ĠM er
ĠM et
Ġv ouch
ĠW hile
ĠW idow
ĠB ra
ĠB ona
ĠL o
ĠL ike
ant ity
qu al
qu ess
ind arus
em and
Ġshe lter
Ġgo est
ers ed
row ard
Ġbl ossom
el ing
Ġar rant
He alth
For give
Ġpl um
ig ation
EL IUS
un ction
Ġun re
Ġun fe
Ġun ivers
CH MON
Ġr ated
Ġen cl
Ġbr im
ist s
Ġtru ant
Ġpro ject
Ġab st
Ġcha ri
Ġri vers
Ġri der
Ġri cher
IL ARIO
Ġart s
che st
Ġcl oth
Ġcl oy
Ġsc ale
Ġsc roll
Ġper mit
Ġnight ing
Ġad der
Ġad ulter
Ġra is
Ġra ges
Ġwar ning
Ġcall ing
Where on
CA PH
Ġstr atage
PH ILO
PH ILARIO
ĠV ar
Ġcomp et
RI CHMON
ach io
Ġfool ery
Ġend ing
Than k
Ġnat ivity
Ġchi val
Ġfe ats
Ġfe eding
Ġunder stood
Thy self
ĠAnt enor
ab y
Ġcur t
Ġtre ble
LUC Y
LUC ILIUS
Ġright ful
Ġdra g
Ġbel ief
Ġafter wards
Ġchan ces
ix ed
Ġfal con
Ġmean er
Ġacc idents
Ġsub orn
âĢĺ âĢľ
Ġass ay
ours core
fort unate
Ġste als
Ġadv is
An swer
Ġsec urity
ĠBe hold
Ġinst inct
ĠTh ree
Ġden ial
Ġdisp osed
PE IUS
Ġseek ing
Ġlead er
Ġwa ist
Ġknight hood
rem pt
Ġforg iven
Ġsum mon
Ġpar liament
Ġrec overed
Ġbold ness
Ġinc ense
Ġrich ly
Ġgall ed
Ġvis or
Ġweak er
Ġfast ing
Com m
Com ing
Ġdev ised
Ġentreat s
Ġcr ush
Ġcreat ed
ĠHel p
Ġappro bation
Ar ise
Ġbad ge
Ġfra g
Ġloss es
Ġprin cip
Ġmod el
Ġ1 3
Ġlow ly
Ġinter rupt
Ġinter pret
Ġvile ly
Ġbreast s
Ġid leness
Ġcross es
Ġinstru ction
Pr ince
Pro v
Ġresol ute
Ġmal icious
Ġbow l
Ġadm ired
Ġseal ed
BRO THER
Ġsucc our
Ġentertain ed
Ġtor ches
Ġbrief ly
Ġsn atch
BASS IANUS
Ġbreat hes
ĠTy r
rs ula
Ġsaf er
Ġenc ount
CAM PEIUS
Ġsland ers
Ġins ult
Ġproof s
GA OLER
Ġbastard s
Ġgrand father
Ġintend s
Ġintend ed
Ġcirc le
Ġfi ends
mon st
Ġcorn ets
Ġsto pp
Ġwait ing
Ġgir ls
Ġdamn ation
Ġbetray ed
CORN ELIUS
Ġbas est
ĠRe venge
ĠPet o
Ġmelt ed
Ġrece ives
Ġrece ipt
Ġtempt ed
Ġrid iculous
Ġdet est
ĠOn ly
Ġprosper ity
Alarum s
Ġdig est
Ġusurp ing
Ġprevail ed
OX FORD
Ġband s
Ġheav ier
Ġev ents
ĠPrin ces
Ġdischar ged
Ġtap er
Ġpear ls
Tr ans
Ġpat ron
Ġtrif les
Ġworthi er
ĠVII I
Ġshr ill
oc ate
Ġnegle cted
ĠMerc ury
Ġlun atic
Ġaffli ction
Ġassist ance
Ġmill ion
Ġnon ny
ĠDun sin
Ġtro d
ĠHost ess
Ġwrink les
Pre pare
ĠPhil ome
Ġdiscontent ed
OCTA VIA
Ġlam bs
Ġasse mbly
Ġtow er
Ġwarri or
Ġwre ck
Ġinfl u
BL UNT
Ġtab les
Ġcop y
FRAN CIS
Ġphilosop hy
chor ida
Ġgoss ip
Ġcounsell or
Bea uty
Ġcud gel
Ġembass y
ĠEs calus
Ġrestra int
Ġpenit ent
Ġinsol ence
ĠRem ember
Ġaccom pl
Ġsimpl icity
Ġtyrann ous
CITIZEN S
Ġacknow ledge
Ġcab in
Ġprover b
Ġapprehens ion
Ġhaught y
ĠBE AU
ĠBar b
Ġenf ranch
Ġprec ise
Ġrecre ant
Ġholid ay
Ġfert ile
Ġced ar
ĠBen volio
ĠFort inbras
Ġfut ure
ĠWol sey
PANT INO
CAPH IS
RICHMON D
ĠDunsin ane
A c
A gain
A ILOR
C orn
C ond
F our
F ortune
F alstaff
G ave
G RI
G ENTLE
H ard
H onest
H aply
L ight
M AM
M OP
N AL
P ast
P ost
P LAYER
R en
R AG
S n
S erv
S blood
T ook
U se
V Y
V al
W alk
W oe
Y E
Y ork
a pped
b reak
b alls
c at
e le
e ch
f le
f its
i bly
j e
l ord
m other
o ving
p ress
r ound
r ates
s old
t ri
t il
u gg
y thee
y za
Ġt ha
Ġt alks
Ġt ickle
Ġt ardy
Ġa h
Ġa ctor
ou ble
Ġs ly
re b
Ġb ol
Ġb ate
Ġb ars
is m
or ate
Ġf ol
Ġf ancies
Ġf roward
it ch
âĢĻ .
Ġd ing
Ġd uck
Ġd aggers
Ġc ue
Ġc rew
Ġc ushi
Ġl ur
Ġo bl
Ġn ort
Ġn ail
Ġn amed
Ġth umb
Ġth orough
Ġh ound
Ġp oo
Ġp el
Ġp atch
Ġp hoenix
Ġto ps
ĠI rish
Ġhe ave
ot he
an ed
an che
st ri
ow land
om y
Ġg ull
Ġg uts
Ġin sp
Ġbe ck
ut ius
im ate
im ber
Ġme ets
Ġme ek
ch ool
ad ise
Ġhis s
ra ll
ra ck
ver ted
Ġas ham
Ġas cend
ain ed
ĠS m
ĠS AILOR
and a
ĠC ons
ĠC esario
th ree
Ġno ses
ĠH o
ĠH all
ĠH ang
if er
ell us
Ġv ices
ĠP LE
ĠW atch
ĠB ell
ĠB less
ĠB ushy
ĠL ouis
Ġman gled
ĠG eneral
qu er
Ġgo ver
OR US
ĠF ear
Ġwhat soever
ic ing
Ġsw an
Ġmore over
Ġpr ote
ĠD own
ĠD aughter
ĠD raw
Ġor ator
Ġar rows
Ġus age
ĠT ru
ĠT ouch
For bear
Ġpl ough
Ġpl ains
Ġpl ots
od e
Ġj ades
Ġr ad
Ġr out
Ġbr ine
Ġqu antity
Ġho ar
Ġtru est
pt on
Ġey ne
Ġpo le
Ġpo pul
Ġdis cl
ĠE l
ĠE gl
ĠE arth
ĠN ell
ĠN avarre
Ġab ject
Ġab ominable
Ġfo llies
Ġhow ling
de vil
Ġro de
Ġro ots
ag er
ag us
ber ry
Ġle vy
Ġle ek
Ġlea ving
ign ed
Ġsweet ness
Ġser ving
Ġapp le
Your self
Ġwit ty
Ġim itate
Ġru l
Ġru min
Ġla zy
ĠV iol
Ġcomp ul
Ġdown right
Ġbeg ged
Ġlong s
Ġend ured
Ġgl ow
Ġgl ance
ert rude
Ġbra zen
ne ver
St ood
IAN S
vil ion
Ġdear th
Ġco il
Ġrest s
Ġtra vail
BE IANS
Ġel bow
ĠSir rah
Ġch im
Ġche ese
Ġfull y
Ġpe rempt
Ġimp each
Ġdra ught
Ġfaith fully
Ġmo le
Ġdisc overed
Ġste eds
ĠBr itt
Ġbu ff
ĠMar quess
ĠLu cet
Ġgre ets
ran mer
ener ate
Ġinst ead
ner ly
Ġenter s
Ġca itiff
Ġcommand ment
Ġstra it
CASS ANDRA
ĠAr vir
Ġread s
Ġcomfort able
Ġproud est
ĠSt ri
Ġcra b
Ġmet e
Ġreven ges
Ġsin ful
vent ry
Ġdist raction
Tw ould
Ġforg otten
Ġpast ure
Ġsur geon
Ġwis est
Ġgall ants
ĠWho se
Ġwoo ed
Ġatt ach
Ġwret ches
ĠCh urch
you ng
Ġpluck s
Ġappro ved
Ġspeech less
Ġlust re
Ġ1 4
Ġoffend er
Ġoffend ers
Ġinter im
Ġscar f
Ġconst able
HOR SON
Ġrel ief
BUS HY
Ġpoison ous
ĠPro c
bb les
Ġobs cure
Ġpost erity
Ġadm itted
Ġsho p
ider ius
Ġjo ined
ĠNor way
Ġcommend ations
con ce
Ġign o
Ġocc up
Ġmid st
Ġdi adem
Ġpract ices
SA YE
Ġsteal ing
Ġknock ing
Ġopin ions
Ġins in
REY NAL
Ca ptain
ILL IUS
ĠU rsula
Ġdrunk ard
Ġrob bed
Ġtrans form
Ġtrib une
Ġsix th
ĠGu ard
Per haps
ĠBl anche
Ġwrath ful
Ġdirect ed
JAQU ENET
Ġnaught y
Qu ick
Ġschool master
Ġbas er
ĠWATCH MAN
ĠRe ad
ĠQu ince
Cl arence
ĠPy rr
Lea ving
Ġsqu ire
ĠMars hal
ĠSw ear
Ġsal ve
Ġtwelve month
ĠDid o
Ġincl ination
Ġprod uce
Ġfart hest
Ġstream s
oths ayer
Ġprophe cy
Ġtap ster
Ġflatt ered
ĠDu kes
Mar cus
Ġmag n
Ġswallow ed
Ġgrey h
Ġabhor red
Ġaccus ation
Ġstock ings
Ġaffli ct
Cons ider
AB HORSON
Ġtro p
ĠSyra cus
ĠCo ventry
Ġtow ers
Ġming le
Ġnun cle
Cor iol
Ġinherit ance
ĠHy men
Ġerr ors
Ġquest ions
Ġappl aud
Ġcorp se
Ġimmediate ly
ĠPart hi
Him self
ĠGall ia
Ġprog ress
ĠAntioch us
Ġrecon cil
Ġpest ilence
orthi es
Ġparce l
Ġlan tern
Ġbragg art
ĠServing man
Ġplag ues
Ġsubscri be
Aw ake
Ġcent re
quis ite
Ġdiso bed
Ġharl ot
athan iel
ĠFlorent ine
DA VY
Ġecst asy
Ġfren zy
Ġash ore
ĠSimon ides
Ġchival ry
ĠPhilome l
MAM ILLIUS
MOP SA
til ene
ĠPLE BEIANS
Ġprote ction
ĠEgl amour
ĠBritt any
ĠLucet ta
ĠArvir agus
REYNAL DO
JAQUENET TA
ĠPyrr hus
A IN
A chilles
A jax
B rief
C he
C IUS
C ount
C old
C OUR
D are
D REY
F ar
G l
G REY
I ENS
J O
J ack
J ud
K ne
M is
M an
M asters
O ther
P R
P ur
P ass
P YR
P ersu
R ich
S W
S ad
S ent
S MAN
V E
W in
Y onder
a e
a it
a che
b o
b ing
b id
b rain
b raid
c ar
c ount
d ro
e ce
f end
f ound
f ire
f ollow
f ellows
g ot
g rown
i ard
i ber
j ourn
l ph
m ad
m ust
n ows
p ut
p ly
p han
r ade
s y
s ur
s kin
t ry
t ish
t urn
u bs
Ġ z
Ġt ink
Ġa gue
Ġa pes
Ġs ow
Ġs ith
Ġs ess
in ity
in ies
in ty
Ġm ate
Ġm ates
Ġw o
Ġw ins
re am
ha d
ha le
Ġb ath
Ġb ows
er ick
er kin
or achio
Ġf est
Ġf itted
on esty
Ġd r
Ġd ally
Ġd uteous
Ġd ressed
Ġc ow
Ġc as
Ġc ured
Ġc ousins
Ġn ourish
Ġn earest
en as
en no
Ġth und
Ġth wart
ar ce
ar ms
Ġh ood
Ġp icked
Ġp atricians
Ġg y
Ġg ay
Ġg ets
at in
at ory
Ġin quire
se ver
se em
le ave
ut o
ut ton
ch ild
Ġfor ged
Ġwe b
The e
as hes
ri bly
ra ight
Ġre v
Ġre form
Ġre vive
Ġli k
Ġli ar
us ions
ver tis
Ġde monst
Ġdo ct
ck ets
Ġsha ft
Ġlo cked
ea ble
ĠS ol
ĠS ec
and s
ge ant
ĠC ato
Ġsu lph
ĠH ar
Ġsp r
Ġkn ell
ĠM ethinks
ĠM urde
ĠP arson
ĠW ood
ĠW ednesday
ĠB ear
ĠB ANDIT
ĠL UC
ĠL enno
Ġne cks
ant ing
ĠG ertrude
ous ed
Ġup hold
Ġcom ment
ie v
Ġshe et
Ġgood man
ĠF our
ĠF ather
ĠF red
ĠF aul
ĠF roth
ĠF ulvia
Ġwhat e
Ġbl ade
Ex ceed
pp le
au n
au ld
ĠD ull
ĠD olabella
Ġus ur
ĠR ep
ĠR owland
um ps
TH ID
ound ing
un ct
un eration
Ġj ar
Ġj ack
Ġun hallow
Ġun fortunate
CH US
RO MAN
RO OP
Ġen large
ĠK NIGHT
IA S
As k
Ġout side
Ġsa vour
unt ary
Thou ght
Ġdis loy
Ġex quisite
ĠJ er
Ġab uses
AM IENS
Ġgreat ly
Ġro ll
ful ness
Ġcha ins
ag ot
Ġgra ced
Ġri v
Ġday light
Be come
ber y
Ġle vied
AT SW
ign e
Who ever
che ap
Ġcl os
SC O
SC ARUS
Ġsc ra
Ġsc ald
Ġsc attered
FF ITH
Ġad verse
Ġra pe
Ġra pt
Ġstr ay
Ġstr ings
Ġim ages
Ġru d
ud es
Ġcomp os
Ġcont ains
sw eet
Ġhar der
Ġpur ity
Ġgl ories
Ġmer its
Ġmer riment
Ġsm art
Ġbra ke
St eal
vil ius
Ġco pe
Ġconf ounds
Ġconf lict
ab our
Ġch ronic
Ġpresent ed
Ġchar ges
Ġpeace ful
Ġlight ly
Ġimp ress
Ġimp ression
Ġdra gon
Ġchan ging
Ġchan nel
Ġhum orous
Ġmo e
Ġplease th
Ġbes eem
Ġbed fellow
Ġlaw y
ĠY ea
BO ATSW
Ġadv anced
Ġbo on
ĠMy tilene
Ġthrough ly
Ġdevil ish
LEON INE
AU DREY
Ġcommand er
Ġsing ular
Ġspo ils
Ġunc on
mer cy
Ġmur m
Ġden ies
Ġvo id
Ġdisp ersed
Ġgener ous
Ġgener ation
Re venge
Ġcra fty
Ġsk ies
xt on
Ġsuff ers
Ġair y
ĠSo ft
Ġdist inguish
Ġask ing
Ġwa its
Ġbar ge
Ġpar le
Ġsur vive
ec enas
Ġinc est
TA ILOR
cha s
Ġtender ness
ĠWhere in
HER ALD
ĠShe pherd
Ġwhe res
ĠEnglish man
Ġfour th
ĠMa ecenas
Ġatt ire
Ġspeed ily
Ġpen alty
Ġstreng then
Ġcr utch
ixt een
Ġcreat ion
Ġunt h
Ha ppy
ĠIn n
sh ow
Ġopp ress
cept ion
Ġran c
Ġreg ent
Ġpu pp
Ġbur d
Ġscar let
Ġid i
Ġmot ions
Ġsuffer ing
Ġdisg raced
Ġind ust
Ġfam ish
Ġsecret ly
Ġlabour ing
Ġmir ror
Con ce
Ġperceive d
Hear t
Ġvain ly
Ġwed lock
Ġbeard s
pher ds
Ġmid wife
Ġstud ies
DE CIUS
ĠVen et
Ġcontin ent
Ġcontin ues
Ġcontin ual
Ġwealth y
Ġdif ferent
Ġed ict
Ġrequest s
Ġchurch yard
Ġdwell ing
Ġmonst ers
ĠGu iderius
Ġsmell s
Br ought
Ġperform ance
Ġconj ur
Ġrare ly
Ġnecess ities
Ġcontr ad
Ġsolemn ity
Ġdec ree
Qu ite
Ġmend ed
ĠPo le
Bl ood
Ġseason s
Ġamaz ement
Ġweight y
Ġlangu ish
ĠEgypt ian
Ġwont ed
ĠLy chorida
Ġunl uck
Ġaffect s
Ġtriumph s
ĠPand ar
Somet imes
col oured
Ġlod g
ĠPis a
Ġimper ious
Ġbegg ary
ĠCal ais
Ġbegu iled
ĠSp ain
Ġpil ot
Ġalt ered
ĠItal ian
App roach
Sha ke
Ġworthi ly
Ġfin ish
Ġfif th
ANTIO CHUS
Ġtest ament
Ġtest imony
Ġder ived
Ġsaint s
stain ed
Ġchid ing
eau x
Ġperf ume
ĠPhoe bus
Sm all
Ġmask ed
Ġadmir able
Ġcharac ters
ĠCo le
ĠWh ither
Ġorn aments
Ġvictor ious
Ġtum ult
ĠPhi lip
Ġtravell er
Ġav ouch
Ġsubd ued
Ġwre ath
Ġdecre es
hus band
Ġte xt
Ġappl ause
Ġstrang eness
Ġcarri on
Ġcorp oral
FRAN CI
Char les
Ġsolic it
gentle man
sm ith
Ġmanif est
kn ave
Ġtren cher
Ġclam orous
Fri end
Ġbatter y
Ġenri ch
Ġfantast ical
Ġenra ged
Ġrav ished
cell us
Ġplent eous
ĠCamb ridge
ĠMusic ians
Ġaccomp anied
Ġbough s
ĠDion yza
Ġwhist le
Ġrum our
Ty balt
Ġhab its
Ġmudd y
Ġunwill ing
ULL US
Ġcovet ous
Par is
Ġeloqu ence
Ġsyll able
Ġsympath y
Ġwip ed
Ġpup il
ĠMet ellus
Ġunivers al
Ġnighting ale
Ġprincip al
Ġinflu ence
ĠBarb ary
GRI FFITH
GENTLE WOMAN
reb onius
Ġfol ks
ĠTouch stone
ĠViol a
Ġperempt ory
PYR AMUS
ĠLenno x
ĠFred erick
ĠFaul conbridge
THID IAS
BOATSW AIN
A ff
A mb
A aron
B orn
B urn
B UN
C ertain
C ries
D uring
E m
E nt
F ound
H ie
H amlet
H onour
I ago
I FE
J ustice
K ill
K EN
L y
L ed
L avinia
M ac
N ear
O h
O pp
P al
P hi
P rom
R os
S N
S ing
S orrow
S ilence
S IWARD
T ear
T aking
U r
W orse
W ords
a gainst
b u
b ol
b od
b ag
b able
b by
c ur
c ould
c od
d oor
e ches
f ly
f ive
f air
h ors
h rew
m id
n ance
p led
p ardon
s ho
s erv
s uch
s ub
t or
t ter
t ree
v aunt
w ood
w orn
z ing
Ġ ire
ou rer
Ġs all
Ġs ize
Ġs ixteen
Ġm ire
Ġw ages
re en
re ep
Ġb aw
Ġb ites
Ġb alls
Ġb olt
Ġb ias
or iz
Ġf en
Ġf res
Ġf ishes
Ġf ourscore
on ish
Ġd on
Ġd om
Ġd ul
Ġd all
Ġd irt
Ġd omin
Ġc ri
Ġc od
Ġc ures
Ġl ass
Ġl amp
Ġl ux
Ġn our
Ġn ick
Ġy are
Ġh its
Ġp y
Ġp ious
Ġp uff
ĠI lly
an o
st ers
st rong
Ġg ore
Ġg est
Ġg aunt
Ġg ulf
Ġin ches
Ġbe am
Ġbe est
Ġbe ef
Ġbe ads
Ġha y
ir anda
Ġme al
Ġnot able
ke ley
ke eping
Ġfor c
Ġfor fend
ri ve
al ance
Ġst are
Ġst ark
Ġst ew
id el
Ġre vell
ord eaux
ur ance
us ale
Ġde formed
Ġdo e
am ity
am inius
Ġse ar
Ġse vere
Ġlo ins
ĠS ing
ĠS omet
ĠS outh
ĠS peed
ĠC e
ĠC ur
ĠC imber
th orn
Ġan ch
Ġan chor
ĠH oly
ĠH onour
ĠA TH
Ġsp in
Ġsp ear
Ġsp ots
Ġsp otted
Ġsp heres
Ġkn ives
ĠM e
ĠM el
ĠM use
ĠM urder
Ġv ac
ĠP ut
ĠP ent
ĠW orthies
ĠB ack
ĠB oult
ĠB agot
ĠB ordeaux
ĠL atin
ard ian
Ġsh ower
Ġsh outs
ĠG riff
Ġup ward
ive ly
Ġcon vert
ic s
Ġbl asted
Ġbl azon
Ġsw agger
pp ily
Ġpr ating
ol ve
ol as
ĠO ther
Ġor phan
ĠR et
ĠR uss
ĠT ri
ĠT ears
ĠT omorrow
ĠT ALBOT
TH IS
od ious
EL AUS
un ed
un cle
Ġj ig
Ġj aws
Ġr ats
Ġen ge
Ġbr ood
Ġqu ill
Ġsa le
Ġtru n
unt o
Ġhand le
ff er
Ġdis per
Ġdis hes
Ġdis order
ĠE r
ĠE ur
ĠE thi
ĠN ich
In st
oy al
Ġfl inty
own ed
Ġcha mbers
ci le
ci vil
Ġwhere to
Ġwhere upon
ĠĠĠĠĠĠĠĠ ĠĠĠĠĠĠĠĠ
Be at
Ġlea gues
to ld
Ġtr ash
Ġple a
Ġsweet heart
SC ROOP
Ġper adventure
Ġad vertis
Ġson net
Ġwar y
When ce
CA S
Ġpre tend
Ġpre cept
IT ION
Ġpres erv
RI BUN
Ġbeg ging
bl ind
Ġrem ed
Ġpur ses
be ians
ors hip
Ġbetter s
Ġma im
Ġrep ro
Ġsm il
Ġsm ack
atch ing
Ġpri vy
Ġpri cks
ons o
Ġfollow er
Ġsle nder
Ġtra ce
Ġtra ffic
Ġconf ir
Ġgu ides
Ġcons idered
Ġkind le
Ġch ides
Ġres erv
Ġtre as
ult ies
Ġlight ed
Ġret ires
Ġsub mit
Ġover come
Ġbes hrew
Ġjust ify
pect ed
any med
Ġmis fortune
Ġgr in
Ġgold smith
Ġste alth
Ġbri d
ĠBr other
Ġadv antages
Ġhapp en
pen ny
Ġbo ister
Ġsun s
vers y
PER CY
ĠLu cian
Ġlay ing
Ġbreath less
Ġpurp os
Ġpurp osed
aw ful
Ġdan ces
Ġhorse men
Ġunc ertain
Ġneed le
Ġneed less
Ġtem perate
Ġdef iance
Ġproud ly
Ġgener ally
ham pton
Ġwat ched
itor ies
Ġinf ants
Ġinf ancy
Ġreven g
Ġpal ate
Ġpal try
Ġwin ters
Ġmark ed
Look s
Look ing
MEN ELAUS
Ġmusic ian
Ġmusic ians
ĠAl ack
ĠGloucester shire
Ġwa ft
Ġmin st
Ġcontent ion
Ġtrust ed
TES AN
Ġpar ish
Ġpar adise
Ġact ors
oss ed
Ġuncle an
Ġsur ly
Ġsur ge
Ġem ulation
Ġmock ery
Ġrequ ires
Ġbase ly
Ġatt orn
Ġdro pp
Ġplain ness
ĠCh orus
Ġentreat y
Ġentreat ed
Ġentreat ies
Ġord in
Ġord inary
gg ing
Ġwatch ful
!âĢĿ ]
Ġappear ance
sh ine
Ġfra m
oll a
Ġcap acity
Ġund es
Ġrespect ed
Ġreg al
Ġbro ils
Ġwild ly
ĠPar liament
night s
cri pt
cri be
Ġve il
Ġform al
Ġmal ady
Ġmal ign
De v
Ġpost s
Ġut tered
Ġjo lly
Ġchoose th
ĠPl ace
Ġcommend ed
Hear ing
gl ass
sp ur
Ġtor ments
Ġarg uments
Ġsn ake
Ġga ol
Ġga pe
Ġstar ved
Ġmed it
Ġbitter ness
Ġele ment
ĠĠĠĠĠĠĠĠĠĠĠĠ ĠĠ
Ġremain der
Ġequ ally
Ġpubl ish
Ġhun ter
Ġed uc
Ġfaint s
Ġfaint ly
Ġes pecially
ĠMen as
BRA KEN
ĠGu ards
Ġcompl iment
Ġhunt s
Ġdebt or
Ġdism ay
Ġdeg enerate
Ġtyrant s
Ġrevol ted
Ġlament ation
Ġexpress ly
Ġdoom s
Ġflood s
Ġhid den
Ġreign s
Ġmurde rers
Ġport s
Ġparticul ars
there fore
Ġcircum stances
Ġmelt ing
ĠCon stance
Ġeng ine
Ġexecution er
MONT JO
Ġpress ed
Heaven s
Sp oke
Ġcher ub
Ġincl ined
Ġeag les
Ġcoz ened
Ġing en
Ġbawd y
Ġheav ily
Ġperil ous
Turn ing
Ġfurn ished
ĠHa ven
Ġperj ur
Ġetern ity
ĠCal chas
Ġghost s
Ġev idence
ĠBer keley
Ġung entle
Bear ing
Ġfro zen
Sha me
Ġflatt erers
port ion
Ġpier cing
Ġstick s
Ġarri ved
Ġmarket place
Ġmart y
Conf ess
Draw s
Ġarrest ed
Ġcoff ers
Ġvill any
Ġvol ume
Ġvol untary
dis c
Ġdescend ed
Ġcontract ed
Ġglo be
stant ial
Ġperf um
Ġdesign s
Ġcontro versy
Ġadmir ation
Ġyester night
Ġdisse mble
Ġrust y
Ġling er
Ġado pt
Ġbank rupt
Ġcorre ct
Ġdun gh
Ġque ens
Ġadvers aries
Ġoverth rown
Seem s
hast e
Ġcro p
Ġju gg
Ġdil igence
Ġspect acle
ien na
Ġappoint ment
Ġvap our
ĠÃ ł
Ġgn aw
Ġclam ours
ĠAlarum s
Ġvanqu ished
Ġpi geons
ĠPh Åĵ
ĠKnight s
post er
Toward s
Ġost ent
Ġvig our
icer o
DOR CAS
burn ing
ura ble
Ġunman nerly
Ġruth less
Ġterr itories
Ġblem ish
Ġew es
ĠSi ward
Ġusure r
ĠTw o
Ġridd le
Ġdesol ation
Ġsepulch re
Ġslaught ered
ĠSer vilius
ĠSix th
ĠCer imon
ĠFle ance
Ġcontempl ation
Ġpa vilion
Ġencount ered
Ġnort hern
Ġgover ned
ĠEl bow
Coriol anus
COUR TESAN
ĠLUC IUS
ĠJer usale
ĠCole vile
Phi lip
ĠGriff ith
THIS BE
Ġdisper se
ĠNich olas
anymed e
ĠLucian a
BRAKEN BURY
MONTJO Y
ĠJerusale m
0 0
1 6
2 0
5 2
5 6
7 2
; ]
A ED
B RI
C hi
C ast
C OB
D est
D GE
F ell
G all
J ove
L ist
M al
M ist
P ity
P ossess
P ILO
R EL
R ise
R AM
S on
S en
S us
S har
S its
S uff
S top
T U
T arry
T YR
T onight
W ert
W omen
b ee
c as
c rown
d oubt
e very
e ze
f ish
f ig
g own
h onest
k ers
l est
l ves
l ets
m ers
m istress
m arried
n is
n am
n od
p ers
p oor
p oral
s k
s ong
t rue
u ing
w er
w ine
w hile
w itted
Ġt ough
Ġt unes
Ġs ter
Ġs ans
Ġs lips
in al
in ction
Ġw ight
Ġw ren
re ly
re th
re qu
ha s
ha ppy
Ġb it
Ġb au
Ġb ench
Ġb alance
er th
er ate
er ness
er fl
or m
Ġf er
Ġf ul
Ġf ates
on us
on na
it c
it imate
es y
es tern
Ġd ice
Ġd aff
Ġc y
Ġc oy
Ġc ale
Ġc ran
Ġc lip
Ġc ases
Ġl ink
Ġl ane
Ġl urk
Ġo per
Ġo min
Ġn ut
Ġn avy
Ġy o
Ġth rall
ar ition
ar ino
Ġh ip
Ġp ith
Ġp ru
Ġp ard
Ġp ip
ĠI X
Ġhe m
an im
ing ed
Ġg e
Ġg at
Ġg ear
Ġg em
Ġg aud
Ġin iquity
Ġbe et
Ġbe llow
Ġbe fits
Ġha voc
et ition
ut boys
ir gins
ir nam
im ach
Ġme mber
Ġme mbers
Ġis sues
ill ings
Ġe b
ke ys
Ġwith hold
ri ft
Ġst ings
ra ign
ra cing
id d
Ġli c
Ġli ck
Ġli vers
ur t
ur ther
us ing
Ġk ites
ould y
Ġde me
ro be
hi ps
EN IAN
am ps
Ġse ed
Ġse ized
Ġher b
Ġher bs
Ġlo g
Ġlo ses
ea st
ĠS und
ĠS leep
ĠC r
ĠC hat
ĠC ould
ĠC ON
ĠC ob
ĠC ranmer
th umberland
Ġsu nd
Ġsu nder
Ġan ew
ĠH ume
ru ck
ĠA ed
if ully
Ġsp right
Ġsp ider
Ġsp rite
Ġsp rung
ho d
ĠM in
ĠM is
ĠM or
ĠM art
ĠM uch
Ġv ail
ĠP ha
ĠP ardon
ĠP oly
ĠP indarus
art ar
ĠB awd
ĠB etter
ĠB orachio
ĠB irnam
ĠL ance
Ġsh ru
ĠG ardin
ĠG anymede
qu it
Ġup braid
Ġam ount
Ġam aze
Ġmu m
Ġcom edy
out hed
ind ing
em b
em ents
Ġshe riff
Ġcon ge
ic ed
Ġbl aze
Ġwas p
Ġsw ifter
Ġcan on
Ġpr anks
all el
ĠD or
ĠO ver
Ġor b
Ġar row
Ġar rog
You th
ĠT H
ĠT ra
ĠT ur
ĠT rebonius
LE IUS
For get
um ption
ig onus
Ġun rest
Ġun sp
Ġun born
Ġun pre
Ġun quiet
CH E
Ġen act
Ġen suing
Ġmad onna
Ġsa ith
pe ople
Ġpro s
Ġpro bable
Ġpro ffer
pt uous
Ġdis pense
Ġex hi
ĠE ve
ĠN an
ĠN athaniel
urn ia
Ġfl ag
Ġab and
AM INIUS
de ath
Ġcha nt
Ġcha ff
ust om
Ġgra ft
Ġri ve
âĢĿ !
Ġmar s
Be gin
Ġhear ken
ign s
Ġfear fully
che on
ide le
Ġtr ot
Ġany one
Ġcl app
Ġcl apped
Ġsc ap
Ġper use
Ġper plex
Ġcomm ence
Ġra rest
Ġwar n
Ġwh ispers
Where at
Ġcomp ounded
Ġhead strong
bl ack
bl own
bl eness
Ġfool ing
Ġrem ote
ED Y
Ġend less
Ġfind ing
Ġrep ute
Ġrep etition
Ġmer maid
for ward
Ġbra ver
Ġco als
Ġfe els
Ġconf ines
Ġserv ile
Ġgri pe
Ġcons ume
Ġtri but
ĠAnt igonus
Ġch oo
ĠYou ng
oun sel
Ġseem eth
Ġres p
Ġtre ads
Ġcourt iers
Ġelse where
Ġimp ortune
Go es
MAR SHAL
Ġret ired
Ġhope ful
Nor thumberland
Ġsub mission
Al beit
Ġhum bled
ph urnia
Ġsleep y
Ġbes iege
Ġdisc om
Ġdisc ern
Ġmis led
Ġgr ate
Ġgr ounds
Ġill s
ĠMar cellus
SH ER
com fort
pl ay
Ġent h
Ġca used
Ġcommand ing
Ġsend ing
Ġdru gs
Ġget ting
ĠHer ne
Sh ows
Ġdel ays
ĠSt e
ĠSt ill
ĠSt ate
Ġdep ends
PRO CU
with in
Ġdam es
Ġcar ve
Ġdream ing
Ġcho p
Ġaff air
Ġbar ber
Ġpar agon
Ġrec overy
Ġcut s
no ble
ub al
ub ber
PAND AR
Ġinc ur
Ġinc ont
Ġinc orp
Ġten our
pr oud
Ġsign al
ĠOr sino
Ġest abl
Ġconfess ed
Com fort
Ġred empt
Ġatt aint
TIT INIUS
Ġscorn ful
Ġpret ence
Ġwatch ing
Ġhur l
Ġta wny
Ġharm ful
Ġfra med
Ġfra ught
Ġfra ilty
Ġopp ressed
Ġmod ern
Ġsigh ing
Ġcap on
Ġwild ness
Ġfeast ing
Ġbond man
GR EEN
Ġmot ley
Ġdish onest
Ġind ent
AD AM
FL AMINIUS
Ġmist aking
Ġcross ed
Ġve he
ĠAs k
alb ain
ĠPro ceed
Ġcheer fully
bb ing
Ġfill s
Ġacqu it
Ġpain ful
Ġadm ire
ĠCount ry
ĠPl ay
sp ring
Ġdepart ed
Ġproceed ed
ĠSal ic
ĠSal arino
Ġarg ues
Ġsn ail
ĠCor in
Ġquiet ly
Ġjealous ies
att ling
Ġinv est
Ġforsw ore
Ġpract is
Hold s
Ġver d
Ġver ity
Ġpet tic
Ġwretched ness
ĠFri ends
ĠVal er
Ġcred ulous
Ġinj urious
Ġinj ustice
Ġgent ler
Des ire
Des cend
isho ps
Ġcatch ing
Ġdemand ed
Ġloud er
mon ster
Ġpun ished
ash ful
Ġwicked ness
ys imach
itiz en
Ġcourtes ies
Ġsix pence
Ne xt
ĠBrit ish
ĠBrit ons
ĠCan st
Ġdeal ing
Ġod ious
Ġmem or
ĠDe cius
Ġimport s
Ġpublic ly
Ġcost ly
LORD S
Ġimag in
ex ec
Ġsail ors
Ġutter ance
ĠPo pe
ĠSold ier
Bl ack
HOL LAND
Ġpict ures
Ġconc ord
Ġunl awful
Ġaud it
Ġbuck le
thy self
bear d
Ġpack et
Ġallow ance
Ġcal amity
Le ft
Ġcher ry
Ġincl ine
Show ing
Ġswell s
Ġing rateful
Hel en
Turn s
Ġconvey ed
Ġcover t
Ġrash ness
Ġgroan ing
Ġstab s
Ġwax en
Ġreward s
Ġprovo ked
Ġconfound ed
ĠHeaven s
QUIN TUS
Ġbuild ing
ĠTroj ans
do ing
Ġdot age
Ġslight ly
Ġpage ant
Ġaccept ance
Ġvex ation
Ġwink ing
Ġrhy mes
Ġmart ial
ĠLuc ullus
Ġdiss ension
Ġmerchant s
Ġcreep ing
Ant onio
Ġfors ook
Ġcoff er
Ġbelie v
Ġhuman ity
Ġobserv ation
Ġshrewd ly
aug han
Ġcommonwe al
who se
oubt ed
Ġpoet ry
Ġet c
Ġdisse mbling
Ġcholer ic
Ġasse mbled
Ġgru dge
Ġsequ ent
Ġsequ el
CAN IDIUS
Ed mund
Ġhy mn
ĠFair ies
Ġgrat is
Ġtab or
Ġhaw k
wor ld
Ġtim orous
Ġdart s
Ġpred omin
Ġphilosop her
Ġfact ious
ĠHec ate
Desp ite
Ġsugg estion
Ġcoll ected
ule ius
Ġfrank ly
Ġrecon cile
Kiss es
Kiss ing
Ġpul se
Ġconvers ation
Ġfantast ic
Ġpow der
Ġgird le
Ġdem i
Ġplan et
Ġlecher y
ĠChi ef
Stab s
comp any
Ġceremon ies
Den y
Ġmor sel
Ġmeas ures
Ġincon stant
Ġprett iest
Ġtransport ed
Touch ing
Ġwid ows
Ġdroop ing
Ġspar ks
Ġsubstit ute
Ġcele br
Mer cy
mind ed
Ġcanop y
Ġabund ance
Ġwhir l
Ġtraged y
Ġentra ils
SPIR ATOR
ĠBrabant io
Ġfath om
ĠSin on
Ġchari ot
Corn ets
Ren owned
Ġcompul sion
Ġchim ney
ĠStri ke
Ġoccup ation
Ġthund ers
auld ron
Ġdisloy al
FRANCI SCO
Pal amon
oriz el
ĠIlly ria
ĠATH ENIAN
Ġboister ous
Ġminst rels
Ġeduc ation
Ġdooms day
Ġingen ious
ĠPhÅĵ bus
BRI DGE
PILO GUE
TYR REL
Ġcale nd
Ġomin ous
ĠCON SPIRATOR
ĠGardin er
PROCU LEIUS
Ġredempt ion
ysimach us
! )
0 4
0 8
2 8
3 6
4 4
6 0
6 4
6 8
8 0
8 4
8 8
9 2
9 6
; âĢĿ
A p
B re
B an
B old
B LAN
C o
C han
C rown
C hor
D rink
D emetrius
F e
F ine
F eed
F alls
G BY
G racious
H olla
K ent
L adies
M ars
M ORLAND
M artius
O d
O bs
P ret
P ale
R est
R oyal
S at
S al
S afe
T ears
W ar
b a
b est
b oth
c all
c ity
c ass
c und
c ertain
c ounter
d on
d ow
d ur
g ent
g age
g ives
g iving
h ome
j or
l in
l ic
l ittle
m ar
m eet
m atter
n ut
o ves
o cc
o vers
p end
p ie
r ons
r ated
r ato
t aking
u it
u ance
v ice
v ation
v irt
v ial
y the
y ster
y ally
Ġ ess
Ġt u
Ġt ilt
Ġt asted
he et
he th
Ġa ust
Ġa pr
Ġa right
ou ches
ou bled
in ers
Ġm are
Ġw hale
Ġw estern
re ction
Ġb ower
Ġb ier
Ġb iting
is eth
er look
er whel
or ch
ll a
Ġf el
Ġf ost
Ġf ust
Ġf iles
Ġf isher
Ġd aint
Ġd rench
Ġd ined
Ġd aunt
Ġc overed
Ġc auldron
Ġl ot
Ġl au
Ġl ascivious
Ġo pens
Ġn ations
en ough
Ġy awn
Ġth rees
Ġh ilt
Ġh ild
Ġp ry
Ġp ig
Ġp ag
Ġp ile
Ġp ens
Ġto ads
Ġhe arers
ot hered
ot hel
ve red
ve ls
ow ls
Ġg or
Ġg out
Ġg eld
Ġg lean
Ġin n
Ġbe e
Ġbe es
Ġha l
Ġme llow
ill ion
Ġe cho
ad el
as phe
ri f
ri ous
ri pe
ri de
Ġst alk
Ġst ony
Ġst ains
Ġst aves
ra ment
ra ught
id ity
ly ing
ly mp
us hes
Ġso res
Ġk itc
Ġas pir
ain ing
Ġde ity
Ġde ject
ro p
Ġsha king
Ġse ct
Ġse eds
Ġse als
Ġse xton
ĠS on
ĠS end
ĠC ent
ĠC icero
Th ither
AR T
Ġsu pre
Ġan at
Ġan im
Ġan gle
il is
il ities
ĠH ie
ĠA pp
ĠA mb
ĠA fter
ĠA rab
ell ed
Ġsp ed
Ġsp here
Ġsp ied
Ġsp ec
Ġkn ots
ho lesome
ĠM ary
ĠM any
ĠM utius
ĠM iranda
ĠM ardian
Ġv a
Ġv ale
Ġv icious
ĠP ant
ĠW all
ĠB our
ĠB ig
ĠL ive
end ed
Ġat one
ĠG ad
Ġup per
Ġmu d
Ġshe pherds
Ġgo bl
ong ue
Ġcon ception
ven ged
el ius
ol s
Ġthere withal
ĠD el
ĠD ick
ĠD ane
ĠO nce
Ġor ation
ĠR ather
ĠR aven
ĠT rust
ĠT ullus
ĠT RAG
ĠT iber
ĠT ubal
Ġhere tic
um ing
reat ion
ak ers
Ġpl un
Ġpl ac
ig arius
un is
Ġj et
Ġj erkin
Ġun st
Ġun set
Ġun arm
CH ORUS
Ġr ite
Ġen compass
Ġmad ame
Ġmad men
Ġbr at
Ġbr ist
Ġbr othel
ist ed
Ġout run
Ġpro ceeds
Ġheart y
Ġpo ise
unt ing
Ġex eunt
Ġex its
Ġex tern
Ġspeak er
Ġoff ends
With draw
Ġfl our
Ġfl aw
Ġab ate
Ġab ode
Ġfo ils
de aling
ress es
ag ge
Ġtw in
ust ria
ci ble
Ġri pen
Ġri ding
So on
How ever
We ep
We igh
Ġmar r
Be g
ber ries
Ġbet ake
Ġle ct
Ġlea se
AT E
Ġpart ial
Ġtr ad
Ġcl out
Ġcl ub
SC E
Ġsc ab
Ġsc ythe
Ġad orn
Ġra m
ee ble
per y
Ġpre late
Ġpre poster
There in
Your s
IT US
we igh
ĠV illain
ĠV ARRO
ĠV ienna
Ġmight ier
Ġsl ut
Ġshow ing
Ġrep l
Ġrep rehend
Ġrep uted
Ġrep lied
Ġrep lete
Ġsm iled
Ġsm othered
cl ed
cl oth
ne ither
ne cess
St ep
St range
RU GBY
Ġeye balls
ac qu
Ġrest rain
Ġtra ct
Ġcons pire
Ġpass ages
Ġtri p
Ġtri be
Ġkind s
ĠAnt ium
ab les
Ġch rist
ont ory
Ġres idence
Ġtre mbles
Ġchar med
Ġcourt s
ID EN
Ġpe ck
Ġpe cul
Ġimp osition
Ġafter ward
Ġcount ed
ceive d
Ġover came
Ġover look
Ġover heard
Ġmo ans
Ġass ume
Ġdisc ont
Ġthank ed
Ġmis doubt
Ġstate ly
Ġval ued
Ġfar m
Ġsent ine
Ġstri ves
Ġadv ocate
ĠFor ces
Ġban ners
Ġhither to
Ġbo il
Ġgre asy
Ġstrong est
com par
ken bury
op led
Ġca ves
Ġfree ze
ĠAr den
Ġhard y
Ġjud ged
Ġsupp os
Ġsupp li
Ġdisp atched
Ġdoubt ed
Ġexce eds
Re bell
Ġcra cked
ott age
VOL SCE
ĠSo othsayer
ĠAl onso
Ġdist inct
Ġcar cass
rem ember
Ġbar r
Ġbound less
Ġpar ch
Ġbat t
Ġsur prise
Ġten or
pr oof
Ġopen ing
ask ets
Ġwhe els
Ġwoo er
Ġemb raced
Com mit
Ġatt ent
Ġatt ention
Ġdev out
Ġpen et
az z
az ing
Ġcle ave
Ġtraitor ous
Ġprop ose
Ġwalk ed
sh ot
Ġopp osition
Ġext en
Ġext emp
Ġmod erate
Ġlack ed
Ġguard s
Ġreg ions
Ġinter cept
Ġinter pre
Ġdire ful
Ġsoldiers hip
Ġconst ruction
Ġble eds
Ġdu kes
Ġpassion ate
Ġmist aken
Ġrel ate
Ġrel ation
Pro d
Ġlaugh s
Ġbow ed
Ġlim its
Ġeffect ed
Ġag ent
Ġcheer ly
Ġwitness es
bb o
Ġobs erved
Ġeas ier
Ġtent h
Ġdeliver ance
su ed
Ġteach ing
ĠChrist ians
Ġsim ply
Ġhealth ful
Ġjo cund
Ġbuy s
Ġrevere nt
Ġfine ly
ĠPl ain
Ġcommend ation
Ġcommend able
Hear d
sp ir
Ġsole ly
Ġblow ing
Ġround ly
Ġthrow ing
Ġviol et
Ġga oler
ĠCor poral
Ġda wn
Ġconce aled
Ġbitter ly
ĠLeon ine
Ġstor ies
Ġwhore s
Ġglass es
Ġobey ed
Ġmut ton
Ġlist en
Ġequ iv
Ġwhi pping
Ġmel ody
Ġamb ush
Ġunw holesome
app ear
Ġbastard y
Ġur ging
ĠAp art
Des ires
Cont in
Bes ide
him self
Ġcorn ers
Ġrob bery
ĠGe off
ĠBrit on
Ġgreet ings
Ġconj unction
Ġclaim s
Ġfond ly
Ġexpect ed
Ġimport ant
Ġstuff ed
urp ose
Ġdamn able
Ġlament ing
Ġcompan ies
Ġguilt iness
Ġexpress ed
Ġvict ors
hum an
Ġeng ross
Ġeng aged
SON G
Ġbuck ram
Ġsol ace
Ġextrem est
Ġwaste ful
Ġroot ed
Ġplead ing
Ġdet ain
Le on
Ġfirm ly
Ġchief ly
ĠBel ieve
ĠDon albain
Ġapt ly
Ġbud ge
Ġearnest ly
Ġexam ine
Ġbegu il
Ġprophe cies
Ġbew ray
Ġpurcha sed
Ġsweat ing
ĠOffic er
Ġprovo k
Ġesteem ed
ĠSee k
Ġpursu ed
Ġunse ason
WEST MORLAND
Ġdot es
Ġclim ate
Ġadvance ment
gu ard
wh ore
Ġmag ist
omen es
ov ico
Ġtur tle
Ġfil th
fri ends
Ġnice ly
Ġgarland s
Ġpor ridge
Ġstat utes
ĠVer ges
Ġfret s
SUR VE
Ġrepe al
Ġperfection s
ĠGreek ish
Ġstamp ed
Ġplant ed
who le
Ġwander ing
Ġhaunt s
ĠMess ina
Ġmult it
Ġbread th
Ġcoron et
Eng lish
Ġalter ation
Ġwrest le
Ġbag s
Ġbon net
Ġliqu id
Cor rupt
Im mediate
ĠPed ant
Ġadvers ary
Ġdecre ed
Ġcontri ve
Ġmisc arried
Ġgrat ify
Ġsucceed ing
Ġrasc ally
Ġfrost y
Ġale house
Ġblast s
Ġambassad ors
oler able
Ġriot ous
Ġfeign ed
Ġgap ing
Ġstum ble
Ġsugg est
Ġvap ours
Ġped ant
Ġprog en
Ġcomplaint s
Ġpi kes
Ġrese mble
ĠPh ry
Ġenri ched
Disp atch
Knock ing
Ġmas qu
Ġspot less
Ġvot re
Ġaccord ingly
Ġsumm ons
beg gar
Ġindign ation
Sub d
Ġcord ial
Ġnymph s
Ġdeli vers
Ġunpro v
Ġconfeder ates
Ġmoons hine
Ġpronoun ced
Cass io
dra wn
Ġaug ment
Ġded icate
Ġgorge ous
Ġpuiss ant
Ġpuiss ance
bet ween
Ġchap el
Ġrig our
ĠAdrian a
ĠVolumn ius
Ġham mer
Ġperd ition
Ġtransg ression
Pet ruchio
might y
oons hine
Ġaut umn
keep er
Ġstink ing
ĠLod ovico
Ġmuff led
Ġconsec rate
Ġcontag ious
Ġtrag ic
Ġcu ps
Ġeg gs
Ġstratage m
ĠTyr rel
fle ur
ĠBell ario
ĠTru mpets
ĠProc uleius
Ġigno ble
Kne el
Ġtink er
ĠHar fleur
Ġspr ites
ĠMurde rers
ĠFour th
Ġusur per
Ġunhallow ed
igne ur
Ġidi ot
Ġindust ry
ĠVenet ian
Ly sander
Ros al
ĠTears heet
ĠEur ope
Ġprecept s
Ġattorn ey
Ġordin ance
spur gh
Ġdungh ill
AED ILE
Ġgaud y
ĠPoly d
SHER IFF
Ġincorp orate
Ġcalend ar
BLAN CHE
Chor us
dur ate
Ġsupre me
ĠAmb assad
ĠRaven spurgh
ĠTRAG EDY
Ġpecul iar
ĠGeoff rey
SURVE YOR
1 2
2 4
4 8
7 6
A f
B ack
C T
C ried
D ar
D ra
E ight
E ros
E PILOGUE
F ight
F RO
G one
G rant
G iven
H u
H ot
H ea
H IT
H op
H ortensio
I V
I CH
I ARD
J EW
J oin
K ather
K illing
K NIGHT
K nows
L ess
L AM
L aid
M O
M et
M ount
M ock
M ont
M ITH
N Y
N urse
P e
P y
P om
R a
S ur
S ear
S ister
S ERV
S pare
S uffolk
S MITH
U GH
V er
V IS
W ILLO
W HIT
Y SIC
b ur
b ate
b ition
b asket
b lesome
b earer
c ary
c ides
d ame
d iv
e b
e v
f ear
f ind
f ull
g or
g old
g over
g rand
g rave
i i
i ally
i pping
i ency
k ill
l ady
l ust
m a
m itted
o pp
o ken
p ter
p oint
p ipe
r ation
s ad
s ix
s leep
s imple
s ium
t ha
t ail
u ation
v ory
v iew
w r
w en
w ink
w are
w ark
x ter
z ards
Ġ il
Ġ Exit
Ġt am
Ġt esty
he m
he ath
Ġa us
Ġa uth
ou g
ou ched
Ġs urn
Ġs ched
Ġs ighed
in f
in er
in her
Ġm ater
Ġw age
Ġw reak
re ment
Ġb ale
Ġb ened
Ġb ourn
is le
is ome
er ning
or ing
Ġf ard
Ġf ry
Ġf itt
Ġf itting
on ours
âĢĻ !
Ġd astard
Ġd irty
Ġd war
Ġc ard
Ġc ert
Ġc uff
Ġl oo
Ġl aud
Ġl itter
Ġl ances
Ġo o
Ġo yster
Ġn erves
Ġth res
ar ve
ar ity
Ġh ive
Ġh int
Ġh ug
Ġp ence
Ġp ins
ĠI lion
Ġhe w
Ġhe res
Ġhe ath
an ge
st ool
Ġg amb
Ġg asp
Ġg inger
Ġin ve
Ġin voc
Ġbe lied
Ġbe friend
ce l
Ġha g
Ġha le
Ġha ven
ut oly
ir g
Ġme w
Ġme ad
Ġme chan
ch ion
Ġe el
ri v
ri er
al us
ent ious
ent imes
Ġst ag
Ġst int
ra ised
Ġli able
ur bs
ur bed
Ġso journ
ver ing
Ġdo it
ck les
Ġher mit
AN GER
est ic
ĠS ly
ĠS em
ĠS ave
ĠS TR
ĠS isters
ge us
ĠC he
ĠC ar
ĠC ad
ĠC urio
Th rust
Th under
th us
th ose
AR L
Ġsu bt
il ent
ĠH orns
ru ms
ĠA ct
ĠA bb
ĠA quit
ĠA ustria
ĠA CT
ĠA utoly
ell y
Ġfa ils
Ġsp an
Ġsp ill
Ġsp ade
Ġsp ices
Ġsp arrow
To ld
ho s
ho le
ĠM oon
ĠM ouldy
ĠM oonshine
Ġv all
Ġv ult
Ġv ary
Ġv aunt
Ġv irgins
ĠP LAYER
rom ise
ĠW art
ĠL end
ĠL ysimachus
ĠL igarius
Ġsh in
Ġsh runk
Ġsh illings
ĠG ot
ous y
qu estion
Ġam ber
em ilius
Ġshe ath
Ġgo ats
Ġcon ject
ĠF A
ĠF ast
ĠF ife
ĠF eeble
ic ial
Ġbl ust
Ġbl ots
Ġbl asphe
Ex p
Ex pect
Ġsw ays
Ġsw inged
AL IARD
fe ren
Ġpr attle
ol f
ol is
Ġhat ches
Ġthere upon
ĠD ame
ĠD ieu
ĠO lymp
ate ly
ort s
are st
ĠT ew
ĠT artar
ĠT unis
ĠThe e
Ġpl at
Ġpl ate
Ġpl aint
Ġpl ume
Ġpl otted
TH ALIARD
ig s
od est
Ġj ars
Ġun ity
Ġun acc
Ġun adv
Ġun civil
Ġcome ly
Ġen join
Ġbr oo
Ġho gs
Ġmust y
Ġmust ard
Ġsa ge
Ġsa ble
Ġsa vours
pe ius
Ġpro c
Ġpro long
pt ains
Ġpo pe
Ġdis su
Ġex empt
ĠE ver
ĠN ight
ĠJ ac
urn ish
In f
In v
In fect
ack s
Ġthink est
Ġfl ows
Ġfl aming
Ġab b
Ġab ed
Ġab ility
Ġro ared
Ġro yally
Ġcha f
Ġcha sed
Ġcha fed
ag n
ag re
ag ine
ag ate
Ġtw ink
Ġgra pes
ci ences
Ġwhere with
os ity
Ġri chest
Ġmar row
Be ats
Ġbre w
Ġbet ide
Ġbet rot
ree ch
li ard
li ction
li ena
Ġear ls
Ġblood less
Ġwr ote
ans wer
Ġple beians
Ġcl ime
Ġper ce
Ġper ils
Ġra iment
Ġhast en
Ġhast ily
Ġpray ed
PH YSIC
Ġim min
cc ess
Ġru les
Ġru ined
ĠV aughan
Ġcomp el
iss ing
Ġcont ending
Ġpres age
Ġpres erved
Ġsl oth
sw ain
Ġhar t
Ġhar ness
bl est
Ġpoor ly
Ġpur sues
ple asing
Ġend ow
Ġgl utton
ert ake
uck et
Ġrep lies
Ġmer cha
Ġmer cil
Ġsm ock
cl asp
Ġbra very
ĠCa ptains
St ud
St oop
ac on
ret ched
Ġlie u
Ġco g
Ġconf in
Ġconf ined
Do ing
BE VIS
Ġmind ed
Ġcons ist
ĠAnt onius
ail ing
ail ed
ail ors
ab s
ab ility
Ġch ough
Ġch uck
Ġgi v
Ġfort night
Ġche cks
Ġres erved
Ġchar ter
ĠAn on
Ġlight ness
Ġwrong fully
Ġimp l
Ġimp ious
Ġdra b
Ġanswer ing
Ġfal chion
Ġret ain
Ġacc ents
Ġearth qu
Ġpra ising
Ġsub urbs
Ġover t
Ġwind y
Ġthree fold
Ġi vory
Ġmon uments
Ġdisc reet
Ġthank fully
Ġmis pr
Ġlaw less
ĠY or
BO UR
Ġbri ers
Ġbri dge
Ġstri ving
Ġill ust
Ġbu bble
Ġye oman
Ġwel comes
Ġsun shine
ĠBe cause
OM ENES
ues day
Ġbreath s
com mand
pl ain
Ġent ice
Ġoft entimes
Ġwant ed
ĠTh rough
Ġstra ins
Ġspirit ual
Ġless on
Ġfoul er
Ġdru dge
Ġunc les
ĠIs is
Ġsick en
Ġdisp raise
Ġdoubt less
Ġvi ands
ĠSt rato
Ġdep th
Ġdep ose
Ġsk ip
Ġinf ring
ĠCass andra
ott ing
Ġattend ance
Ġint olerable
Ġmusic al
Ġaw ak
Ġaw ful
Ġdam ask
Ġdist inction
CLE OMENES
Ġcertain ty
Tw enty
Ġmin es
Ġforg o
Ġfit ter
Ġfit ness
Ġpar l
ĠNo ble
Ġact ive
Ġrec reation
UNT SMAN
Ġmarry ing
PET O
Ġhell ish
Ġhot ly
ĠWhen ce
Ġdiv inity
Ġvis ited
Ġopen ly
Ġjudge ments
Ġeat ing
ELL ER
Ġprof its
ip otent
Ġest ates
Ġwhe at
Ġemb ark
Ġdro pped
Ġstraight way
CL ITUS
Ġchange ling
az ed
Ġgro oms
amp les
Ġdark ly
Ġcle ft
Ġcast les
Ġscorn ed
Tru mpet
Ġcapt ives
Ġcapt ivity
Sc orn
Ġrevenge ful
Ġran ge
Ġclose ly
Ġreg iment
Ġmoon light
Ġbro ached
Ġsoft en
UT IUS
Ġwild erness
Ġlow est
Ġtrou blesome
Ġinter cess
Ġinter change
umb ers
Ġshi pped
Ġconst rain
ĠFl orizel
cher y
Ġwound ing
Ġbattle ments
AD OR
Ġdu ly
Pr inces
Ġob durate
Ġfam ine
Ġfam ily
Ġfashi ons
Ġcase ment
Ġlim ed
Ġpoison ed
De ep
Ġchur l
su pp
Ġwood en
Ġadm ittance
Ġdrown ing
arl isle
Con vey
Ġbirth s
Ġexec ut
ĠPl ains
ĠPl uto
Ġqual ify
Ġwisdom s
Ġorder ly
Ġconsent ed
Call s
Ġarg os
Ġsn uff
BASS ADOR
Ġviol ets
ey es
Ġchast isement
Dis gu
Ġmed itation
Ġinv ited
Ġpract ised
Ġconce ited
Ġtemp oral
Ġprov ision
Ġver ge
ĠSc ots
Ġcontin uance
Ġref us
Ġcounter po
Ca ius
Ġmut inous
ĠCle omenes
Ġvan ished
app are
app ointed
Ġdif feren
Ġstruck en
Ġfaint ing
ĠMont joy
uthor ity
Ġwanton ness
Ġembrace ments
ĠSERVANT S
Ġtrans formed
Ġtrans late
Ġrude ly
Ġir ons
Ġship w
Ġbeggar ly
Per form
Ġphysic ians
Ġod ours
ĠDe ipho
Ġcourage ous
Ġimport un
Ġformer ly
ĠDes p
ĠCom mend
Ġprotest ation
Qu estion
ald o
Ġhid ing
Ġutter ly
Ġutter most
Ġbas ilis
Ġfle ece
Ġwag gon
Ġport ion
Bl ow
Ġlen ity
Cl ifford
ib el
ib ility
Ġmild ness
Ġsac rament
Ġline al
Ġant e
Ġsau c
ĠSh ould
Ġeng ag
Ġdisdain ful
Ġrid es
Ġhol es
Ġpack ing
Ġclot he
Ġdet ect
Ġweigh s
Ġleng then
ĠSay e
Ġmil itary
arn ish
Ġtemper ance
Ġmischief s
Ġtap ers
MOR E
Tr oth
Ġmourn ful
them selves
ĠLear n
Hence forth
Ġavo ided
Ġforfeit ure
Ġswallow ing
law s
Ġprefer ment
Ġshift s
Ġcou ched
Se ven
Ġaffli cted
Cons ent
Ġshri ft
zz led
Ġgaz ed
ĠAb out
Ġraven s
Ġraven ous
Ġbelie ved
Ġsine w
Ġmill ions
Ġcler gy
Ġresc ued
mong er
Ġmass ac
ĠNe ither
Ġexped ient
Ġpeas ants
Ġdepend ing
Ġach ieved
Ġwrest ling
Ġduked oms
ĠCollat inus
Ġbag gage
Ġlam ps
Ġlam ents
rog ative
Ġunjust ly
Ġtum ble
fav our
war rant
Ġbon ny
foot ed
Ġdun geon
Ġadvers ity
Among st
hast ly
ĠInd ian
Ġcurts ies
Ġju ice
Ġapprehend ed
Ġbrand s
ĠX II
Ġspect acles
ĠTurk ish
Ġtim eless
Ġtig ers
Ġspark ling
Ġconclud es
New s
Ġmanif old
Ġendea vours
Ġimped iments
Ġtren ches
Ġdit ch
ALEX ANDER
Ġpeer less
Ġvanqu ish
Ġox en
Ġparce ls
Ġinsol ent
Ġslipp ery
adv antage
Ġplan ets
Ġexclaim s
Ġbragg ing
Ġconspir acy
Ġsumm ers
mor ris
mod ated
Ġdole ful
Ġworshi pp
DOR SET
fool ish
lam is
ĠChi ld
Ġdispl ay
del iver
Ġthirst y
Ġhop eless
Ġchallen ged
Cle opatra
EG LAM
tong ued
Ġtar get
Ġgames ter
Ġhallow ed
ĠEly sium
ĠVolumn ia
Ġlar g
Ġpir ate
Ġpir ates
Ġwrang ling
Ġinfer ior
Ġsurm ise
Ġindirect ly
aur us
Ġfac ulties
ĠEast cheap
Ġlac key
Ġmajest ical
Ġimpud ent
Ġwhel p
Ġescap ed
Ġhypoc rite
Point ing
Ġber ries
Ġlull aby
ĠBra kenbury
ĠVar ro
Ġcurt ains
Ġforgiven ess
Ġinsult ing
Ac qu
je ction
sold iers
Ġpoo rest
othe cary
Ġinsp ired
ĠSm ith
Ġrad iant
Ġrumin ate
Ġmagn anim
Ġgreyh ound
Ġdisobed ience
Ġsess ion
Ġfest iv
Ġgy ves
ĠSec ond
Thought s
Ġriv als
Ġchronic le
Ġwheres oe
Ġpupp et
Ġburd ens
Ġcontrad ict
tor ic
Ġpy ram
Ġgest ure
ĠCur tis
Ġenge nd
RIBUN ES
Ġremed ies
Ġbrid al
Ġmalign ant
TU BAL
Ġbau ble
Ġpard ons
Ġge ese
Ġgat hered
Ġdeme an
ĠSund ay
ĠChat illion
ĠAed ile
ĠSte ward
Ġpettic oat
Pret ty
ĠBig ot
Ġparch ment
ĠApart ment
Rosal ind
ĠPolyd ore
FRO TH
JEW ELLER
Pom pey
SERV ILIUS
UGH BY
WILLO UGHBY
WHIT MORE
Ġaus picious
Ġauth ors
ĠSTR ANGER
ĠAquit aine
ĠAutoly cus
ĠJac ob
Ġbetrot hed
PHYSIC IAN
Ġmercha nd
Ġmercil ess
ĠDeipho bus
EGLAM OUR
3 2
4 0
A EL
A llow
A vaunt
B er
B ound
B ATES
C O
C al
C ur
C am
C ho
C reat
C arry
D ue
D ies
D ark
D urst
D emand
E BLE
F ast
F ire
F rench
F ANG
F urther
G row
G old
G rand
G rief
H ar
H ome
H ate
H oratio
I X
J oy
J esu
L ose
L ittle
L ays
M el
M ARD
N eg
O UT
O bey
P U
P our
P age
P ull
P eter
Q ueen
R ough
R ef
R ob
R atcliffe
S ith
S ec
S eal
S hylock
T ri
T LAND
T imon
T ranio
T reason
W ent
W ant
W eak
W ife
W ork
W IFE
X TON
a oler
b at
b ound
b uck
b ows
b ird
b olt
c ond
c hered
c ontent
d ent
d ea
d ains
d ges
d og
d anger
f o
f ar
f our
f irst
f itable
g row
g ans
g race
g ory
g ling
g artered
g berry
h ot
h orn
h onesty
i ors
j urious
k nown
l ow
l ie
l abour
m is
m ount
m ary
m outhed
m akers
n or
n ay
n ant
n aldo
o le
o oth
o bs
p able
p hant
r ine
r ors
r mid
s ight
s ers
s pe
s ack
s uck
s omet
t ale
u ity
v ille
w al
w ent
w atch
w alk
w rest
y ear
y outh
Ġ ou
Ġt art
he t
he ars
he aven
Ġa th
Ġa qu
Ġa vail
ou rest
in st
in ore
Ġm ow
Ġm ace
Ġm ix
Ġm ote
Ġm ated
Ġm ature
Ġm ickle
Ġw aked
re port
ha ge
Ġb ashful
is heth
er o
er ver
er io
er bear
or ity
Ġf um
Ġf ade
it ious
it ches
it adel
Ġd ive
Ġd ub
Ġd ye
Ġd urance
Ġd azz
Ġc art
Ġc ate
Ġc age
Ġc li
Ġc ows
Ġc ip
Ġc lipp
Ġc itadel
Ġl ake
Ġl ep
Ġl ag
Ġl ace
Ġl ump
Ġl ousy
Ġo h
Ġo mn
Ġn omin
en o
Ġy ard
Ġth irt
ar c
ar ily
ar med
Ġh ies
Ġh oof
Ġh inds
Ġp ines
Ġp ages
Ġp aces
Ġto t
ĠI den
ĠI des
Ġhe n
Ġhe ro
Ġhe igh
ot hed
an iard
st e
st ra
st eal
st ancy
st airs
om b
om it
Ġg le
Ġg ard
Ġg um
Ġg ud
Ġg hastly
at hed
at isf
Ġin formed
Ġin human
Ġbe ak
Ġbe ach
Ġbe adle
Ġbe arer
Ġbe coming
se en
ce mber
Ġha ck
Ġha gg
Ġha cked
Ġha lter
le ad
le ction
ut ter
ith met
Ġme als
Ġme agre
ill ius
ill ars
Ġe ke
Ġe aster
oo ing
Ġwe eks
Ġwe ighed
Ġit ch
ri g
ri eve
al most
Ġst em
Ġst ation
Ġst able
ra ord
ra ble
id amn
Ġre le
Ġre alms
Ġli ars
ur d
Ġso ar
Ġk ick
Ġk ite
Ġas pire
ore s
Ġde ign
Ġde form
Ġde alt
ro om
hi es
EN ER
am son
am illius
Ġsha p
Ġsha ckles
Ġse w
Ġse ats
Ġlo gs
ea pol
ĠS it
ĠS and
ĠS out
ĠC ha
ĠC ain
ĠC han
ĠC ousin
ĠC rab
ĠC arlisle
th rough
Ġsu ed
il ver
il fully
Ġbut chered
ĠH ell
ĠH um
ĠA ss
ell er
Ġsp aniel
Ġkn avish
ĠM ed
ĠM OR
ĠM other
ĠM amillius
Ġv il
Ġv ag
ĠP res
ĠP ers
ĠP ET
ĠP ETER
ĠW ast
art hage
ĠB est
ĠB oth
ĠB ury
ĠB rand
ĠL ay
ĠL est
ĠL ight
ĠL ic
ĠL ud
ard seed
Ġsh uff
En joy
ĠG one
ĠG races
ous and
qu ar
Ġup bra
Ġam pl
Ġam iable
em inate
em pered
Ġlord ly
Ġshe athe
Ġgo at
ong st
Ġcon vent
âĢĶ âĢĻ
ĠF ly
ĠF aith
ĠF idele
ven al
Ġbl oss
Ex t
Ex cuse
Ġsw agge
fe w
au f
el f
Ġpr one
all ows
ost rate
ĠD ef
ĠD RA
ĠD utch
ĠO wen
Ġor ig
Ġor gan
Ġor gans
Ġar raign
He igh
ĠT urn
ĠT own
ĠT ham
ĠT uesday
For th
reat he
Ġpl ess
Ġpl od
ig ate
un less
Ġun e
Ġun us
Ġun ho
Ġun aw
Ġr ook
RO OM
Ġen rolled
ĠK ings
ĠK nock
ist ered
Ġqu iver
Ġho vel
Ġho bby
Ġout st
ice t
Ġsa ving
red it
Ġpo ets
Ġpo isons
Ġdis li
Ġdis claim
Ġex che
Ġex amples
ond ay
ĠE ither
ĠE ls
ĠE geus
ĠN one
ĠJ e
Ġoff spring
In jurious
oy s
Ġfl ing
Ġfl own
Ġfl ax
Ġfl ocks
Ġab ound
Ġab ides
Ġfo g
Ġhea ps
Ġhow soever
de ep
Ġro ars
Ġro bs
Ġcha l
ag ues
Ġgra pple
Ġwhere at
Ġwhere by
Ġri ots
Ġri val
How e
Be hind
Ġbre eches
ber d
ber g
ber ate
ber ds
li b
li ves
Ġpart ake
Ġear ned
ap olis
Ġhonour ably
Ġgentle women
Ġsweet en
Ġser geant
Ġad ds
Ġcomm otion
Ġra iling
Ġwar p
Ġwar med
SE XTON
Ġeyes ight
Ġstr ing
Ġstr ut
Ġpre ach
Ġpre rogative
Ġapp li
Ġapp ertain
Ġapp arition
Ġpray ing
we b
we ep
Ġcour ser
Ġru ins
ĠV irg
Ġcomp rehend
Ġhead long
Ġmight iest
Ġcont emn
Ġcont rolled
Ġbrother hood
aint ing
Ġsl avish
Ġbeg s
Ġbeg ets
Ġnew er
Ġhar p
bl ossom
me at
Ġend ur
Ġgl im
Ġbest rid
Ġma w
Ġmer ited
Ġsm elt
Ġhouse wife
St ir
St ick
St raight
Ġpri z
Ġpri cked
RU TLAND
ac ulate
ret s
Ġco ach
Ġco pper
Ġsle eves
Ġconf isc
Ġel ves
Ġpass en
Ġtri vial
Ġkind er
Ġkind led
ĠAnt h
oun ters
Ġgi bb
Ġfort ify
Ġche ers
irt s
Ġstay ing
Ġcur led
Ġcur sing
Ġplay fellow
Ġwoman ish
LUC E
Ġcourt ly
Ġcourt ship
ID AMUS
Ġpe al
Ġright eous
Ġchild hood
Ġhus wife
Ġback ed
Ġimp ose
Ġimp utation
Ġimp iety
Ġchan c
Ġcount y
Ġdre gs
Ġbod e
Ġearth y
Nor folk
Ġfaith s
Ġover ween
Ġover take
Ġover fl
Ġhum bleness
Ġdou bled
Ġgrace ful
Our selves
Ġbes et
Ġjust ices
Ġmon key
Ġmaid ens
Ġbed chamber
Ġdisc ours
Ġmis use
Ġmis con
vere nd
Ġste er
Ġsent ences
Ġstri king
Ġyouth s
Ġban e
ĠMar gery
Ġhelp less
Ġbo arded
ĠMy rmid
Ġgre ase
Ġgre edy
Ġcare fully
Ġthrough out
ran ces
Ġenter ing
Ġca vil
Ġcommand ers
ĠTh row
At hens
Ġneed y
Sh out
ĠDo gberry
Ġprom ontory
Her self
Ġdef iled
Ġsupp ress
Ġsupp lied
Ġproud er
Ġfound ation
Re qu
Ġvi per
ĠSt arve
Ġwork man
Ġtend s
Ġsk ilful
Ġdraw ing
ang le
Ġmet hod
Ġreven ues
Ġpal aces
Ġquick en
Ġsen net
Was h
ĠAl cides
Ġaw ry
Ġaw aked
Ġfore run
Ġfore see
Ġdist illed
Ġcar ved
Ġdream ed
Ġwa ving
Ġwa ited
Tw ice
Ġgeneral s
ĠGo vern
ĠGo bbo
Ġpar rot
Ġpar allel
Ġact ed
Ġbat he
Ġbat ed
Ġac ross
Ġmoney s
Ġhot ter
Ġgall s
aud io
Ġtender ly
pr ison
Ġgar b
Ġprof aned
Say ing
Ġrequ ital
Ġexp ost
Ġexp ire
Ġexp ired
Ġconfess or
vo ke
Ġwoo s
Ġwoo ers
Ġemb races
Ġemb ossed
Ġfast en
Ġdev oted
Ġfeel ingly
Ġcle ars
Ġord nance
ixt ure
irm ish
Wh ispers
Ġunt r
Ġunt rue
Ġquar re
Ġprop osed
Ar thur
See king
Ġlust ful
sh ill
Ġfra ud
Sc arce
Ġext ort
Ġstrength s
Ġlack ing
Ġmortal s
Ġreg ards
ĠLe ad
Ġbro il
Ġbro ker
ardin als
UT E
Ġpu ppy
Ġinter chan
Ġmount s
Ġmount ing
Ġdire ctions
Ġconst rue
Ġwrit ers
Ġadd ing
SIC ILIUS
Ġind uce
FL UTE
mand y
Ġmist y
Ġinstru ctions
Ġliber ties
Pro sper
Ġstru gg
ĠClaud ius
Ġfam ished
Ġgod like
Ġag ony
Ġag rees
itter ing
Ġfill ing
Ġpost ed
Ġmir acles
Ġreb u
Ġadm its
Ġlov est
Ġer st
Ġlion ess
ĠNor mandy
Ġqual ified
Ġdelight ful
con fess
Ġsor ce
Ġsafe guard
Ġflatter s
ĠSal erio
ĠEm ily
Ġfresh ly
BASS ET
ĠCor inth
Ġquiet ness
ey ton
ug ust
Dis dain
Dis miss
Ġsaf est
Ġmeasure d
icul ar
Hold ing
your self
Ġstor my
Ġver ily
Ġins ur
Ġref resh
Ġref used
Ġref uge
Ġmanner ly
Ġswift ly
ĠJew ry
Ġwhi pp
Ġwhi ps
ĠFri end
Ġvan ities
Ġdif fer
ĠU r
ĠU se
ĠMont ano
Ġrose mary
Ġleg ate
Ġleg itimate
Ġdece ase
Ġdece iving
Ġdece ased
Ġfail ing
Ġpun y
Ġsteel ed
Ġfru its
Ġthreat ens
Ġbend ed
Ġow ed
Ġhunt ed
Ġenjoy ing
Ne igh
Ġvent ured
thi ef
Ġbount iful
Ġkneel ed
ĠDe cember
Great er
Me an
Ġheed ful
fl ies
Ġimag inary
Ġsolemn ly
ex cellent
Ġtail ors
Ġwond ered
ĠGre cians
ĠGre gory
ĠWest mor
Ġfle w
Ġpot ion
Ġreign ed
Ġbreed er
Ġrepent ance
Ġforest all
IGO T
pro fess
Ġport ly
Ġconc erning
Cl ose
Cl audio
Ġmild ly
Ġprofess es
Ġline aments
ĠSh ow
ĠSh ore
Stri king
Put s
Ġaud acious
Keep s
Ġfright s
Ġconquer ing
Ġconquer ors
Ġsal utation
Ġhol iness
ĠDid st
Ġclo ister
Ġmodest ly
Ġincl ining
father s
Ġdig estion
Ġusurp ed
Ġband y
Ġheav iest
Ġlod ged
ĠHa ving
Ġconvey ance
Ġimper fect
Ġregard ed
val iant
Ġmiss ing
Ġfun ctions
Ġprophe tic
Ġghost ly
Ġev ident
Ġung racious
Ġung rateful
Ġcomplex ions
Ġgriev ances
Ġsuspect ed
eas y
vi our
Ġsy nod
Ġdim in
Ġdim med
Ġthie vish
ĠEp idamn
ĠSp ir
ĠSp art
ĠSp aniard
ĠSy ria
ĠSy cor
roll ing
Lay ing
Long er
Ġarri val
Mar garet
gu ish
ĠAm azon
Ġshr ine
Ġserp ents
Rep air
Su ccess
Ġsanct ity
Ġsanct ified
Ġherald s
rib ute
Ġconfirm ation
Ġtur f
ARCH IDAMUS
run es
Ġintell ect
Ġtest ify
Ġmoment ary
OC CO
Ġeight een
Ġsham eless
Ġrejo icing
Ġpetition s
zz le
Ġsand y
Ġthorn y
ĠAb bey
ĠAb hors
ĠVols cian
Cry ing
Res olve
Ġwail ing
Ġstret ched
Ġenforce ment
Ġrecord ed
FRENCH MAN
Ġtro dden
Ġbull ets
ĠCorn elius
Ġperf umes
Ġhaunt ed
Ġmult ip
ĠReg ent
Ġsacrif ices
tell ing
ĠPhil ostrate
ripp le
Ġimprison ed
ĠWilt shire
Ġmonarch s
Ġcand les
Ġmerri er
Ġnet tle
Ġnet tles
Ġvass als
ĠBes eech
ĠFair y
Ġcomplain ing
Ġrhe toric
Ġsubd ue
Ġpenny worth
Ġbru ise
ĠInd ia
ĠAng us
BL IUS
Ġte am
Ġhaw thorn
Ġec lips
Ġju venal
Ġprocess ion
Ġcarri ages
BARNARD INE
vir oned
Ġinfirm ities
Ch oose
Ġdefect s
Ġgoss ips
Ġfold ed
Ġcounsell ors
Ġexplo its
Ġmould ed
Ġdit ty
Ġcud ge
Ġenchant ing
ĠKeep er
Gu ilty
din ner
ĠSn out
ĠSn are
Ġshirt s
Adv ance
Ġdiamond s
Ġexcus es
Ġexcus ed
Ġoutrage ous
Hum bly
ĠServing men
Ġvig il
Ġworshi ps
beg otten
Ġconsort ed
Ġconsum m
ĠBlack heath
Ġep ilogue
Ġconv oy
Ġcompell ed
Ġaccomp any
Ġceremon ious
Ġdissol ve
Cass ius
FE EBLE
Pri ck
bea uty
del ivered
disp osition
Ġmor ris
Ag amemnon
Best ow
EG EUS
Emb race
Ple ad
Ġtea ches
Ġfulf il
Ġsevent h
ĠBull en
ĠBull calf
Supp ose
Ġtaunt s
Ġken nel
ific ial
Ġidol at
Ġobsequ ies
Ġobsequ ious
Ġgust s
Ġwea sel
Ġkern s
Ġvest al
Ġcompar ison
Ġentire ly
Ġconstra int
La ertes
drink ing
Ġtack le
Ġeff eminate
Ġabst ract
Ġtha w
Ġcushi on
Ġpel ting
Ġhoar se
Ġtrop hies
ĠSyracus ian
ĠParthi a
Ġreconcil ed
Jud ge
Pur sue
Persu ade
dro ps
seem ing
Ġdoct rine
ĠSol anio
aun ch
Ġlawy er
Ġmurm ur
Ġunluck ily
SN OUT
Ur ge
Ġfres her
Ġdall iance
Ġlux ury
Ġnour ished
idel icet
ĠCe res
ĠMel un
ĠPent apolis
ĠOther s
Ġorphan s
Ġtrun cheon
ITION ER
Ġostent ation
Chi ef
Sen net
Ġpip es
Ġbeet le
Ġlic ense
Ġsund ry
Ġspright ly
ĠTur ks
Ġunsp otted
Ġtribut ary
ĠPlay ers
Ġverd ict
ĠValer ia
Ġcelebr ation
Ap ollo
pie ces
Ġhild ing
Ġkitc hen
Ġaspir ing
ĠCent aur
ĠPant ino
ĠBour bon
Ġunset tled
Ġencompass ed
Ġextern al
Ġdiscont ents
Ġinterpre ter
Leon ato
Ġmultit udes
Immediate ly
ĠPhry g
Ġunprov ided
Af fection
ICH AEL
Kather ine
Ġbale ful
Ġfard el
Ġimmin ent
Ġearthqu ake
Ġintercess ion
Ġdifferen ces
Ġmagnanim ous
Ġmerchand ise
Ber owne
MARD IAN
PU BLIUS
Ġaqu a
ithmet ic
Ġeaster n
ĠSand ys
ĠMOR OCCO
ĠPET ITIONER
ĠLic io
Ġbloss oms
ĠDRA WER
ĠTham es
ĠEls inore
ĠVirg ilia
ĠGovern or
ĠWestmor land
ĠEpidamn um
ĠSycor ax
ĠAbhors on
A ng
A BER
B R
B ar
B ra
B IN
B ind
B are
B ade
B enedick
B IGOT
C oll
C ardinal
C atesby
C reep
C ARL
D ou
D er
D et
D iss
D aughter
D rew
D read
D ream
E s
E st
E COND
E WARD
F ill
F am
F IT
F led
F ORT
F ulvia
G ARD
G rew
G rows
G host
H aste
H oly
J ul
L ear
L ust
L ife
L orenzo
M on
M ort
M aid
M elt
M onsieur
N ight
N erissa
P ier
P ron
P INCH
R ed
R are
R omans
S EN
S um
S ick
S to
S land
S ENT
T end
T aste
T ribunes
V ENT
W ish
W AT
W orth
W ait
Z WAT
b al
b one
b all
b red
b ud
b ring
b rew
b rate
b rand
c ine
c les
c erity
c ounsel
d ist
d itary
d amn
f les
f ires
f rey
f ault
f alse
f ixed
g om
g ate
h ours
i ation
i by
j our
k illing
l ay
l im
l adies
m ast
m el
m orn
m ons
m oney
m oon
n it
n al
n ish
p ot
p an
p ast
p eace
p ated
p ingham
p oke
r ather
s n
s it
s ore
s ound
s orrow
s ister
s ric
s chool
s ilver
t re
t imes
t omorrow
t emand
t uned
u i
u ble
u pp
u el
u cus
v iol
w in
w ords
y ed
z ar
Ġ *
Ġ icy
Ġ ounce
Ġ Zounds
Ġt een
Ġt ides
Ġt ithe
Ġt allow
Ġt inct
Ġt eeming
ou ple
ou rers
Ġs ot
Ġs li
in qu
in able
Ġm i
Ġm ong
Ġm ol
Ġm ason
Ġm andra
Ġw art
Ġw aken
Ġw ards
Ġw aning
re nder
ha pen
Ġb un
Ġb its
Ġb ishop
is ander
er re
er ly
ll s
Ġf rust
Ġf iled
on i
it ure
it ched
it ated
it ution
it more
Ġd us
Ġd ues
Ġd ross
Ġd aws
Ġc res
Ġc ough
Ġc ited
Ġc itizen
Ġc askets
Ġc ripple
Ġl our
Ġl ain
Ġl out
Ġl eak
Ġl atch
Ġl ined
Ġo p
Ġo live
Ġn inth
en em
Ġy ew
ar ned
Ġh oop
Ġh ired
Ġh ips
Ġp ea
Ġp ell
Ġp end
Ġp all
Ġp ang
Ġp ities
Ġp istol
Ġp iety
Ġto re
ĠI mp
ĠI ris
Ġhe arer
Ġhe aved
ot ions
st ring
st rate
st ril
om bed
Ġg am
Ġg au
Ġg ig
Ġg ash
Ġg enius
Ġg ashes
at re
at hi
at tend
at ches
at ement
ed on
Ġin cess
Ġbe er
Ġbe com
se mble
le ven
le mn
le ucus
le arned
ut ish
ir y
ir ation
Ġme ads
ch oes
gh ter
Ġis sued
Ġe choes
And ronicus
our y
Ġfor d
Ġfor ked
Ġwe lf
ad les
ad mir
ter y
as c
as ies
ri but
ent ed
her s
her y
Ġst ou
Ġst if
Ġst airs
Ġst amps
ra p
ra ising
ra gon
id ers
id ias
Ġre n
Ġre ft
Ġre vers
Ġre lease
Ġre hears
Ġli ked
us hing
us band
Ġso e
Ġso ever
Ġk er
Ġde ws
Ġde xter
ro ar
Ġdo ers
hi gh
hi pped
am ine
Ġsha k
Ġse am
AN CELL
ĠS ea
ĠS ON
ĠS ame
ĠS ever
ĠS ailors
ĠS ECOND
ĠC L
ĠC ol
ĠC ret
ĠC arthage
Th omas
th ine
th ings
th ousand
Ġno ds
Ġno dd
AR Y
Ġall ies
Ġall ied
Ġan guish
IN BRA
il th
ĠH app
ĠH UNTSMAN
ĠA emilius
ĠA liena
ĠA ugust
if ying
ell ing
Ġfa b
Ġfa ctions
Ġsp out
ear y
ear th
ho des
ĠM ount
ĠP e
ĠP rom
ĠP ity
ĠP atience
ĠP orter
han ging
ĠW oo
ĠW ife
ĠW hiles
ĠW omen
ast es
ĠB et
ĠB as
ĠB eshrew
ard an
Ġsh orter
ĠG al
ĠG rand
ĠG lamis
qu ired
ST RAT
ST EWARD
Ġmu l
res pect
Ġcom est
em an
em ple
âĢĶ âĢľ
ul ph
ul can
ĠF al
ic her
ic ates
Ġbl o
Ġbl ab
Ġsw arm
pp ortunity
au x
au ca
el bow
ol ic
ol ved
ol og
ĠD est
ĠD ear
ĠD ie
ĠD isp
ĠD aniel
ĠD ardan
ĠO pen
ĠO sric
ĠO pportunity
Ġor bs
Ġor ient
Ġor atory
Ġthan e
What ever
Ġus ual
He ld
ort hampton
ĠR hodes
Ġlet ting
ĠT ere
ĠT ruly
ĠT RIBUNES
ĠT emple
Ġhere ditary
For sooth
For bid
reat hed
ue ens
ĠThe tis
Ġj ester
Ġun sh
Ġun even
Ġun stained
CH ANCELL
Ġr ates
RO BIN
Ġen quire
Ġmad cap
Ġbr ittle
Ġqu ell
Ġqu art
Ġqu ond
Ġqu ote
Ġqu ittance
Ġho ard
Ġho ist
Ġho sp
Ġho ping
Ġout face
IR Y
Ġpro bation
Ġpro strate
Ġey eless
orn er
Ġpo ckets
Ġhand maid
Ġdis fig
Ġdis inher
Ġdis dains
Ġal arm
ĠE geon
ave l
ĠN ew
ĠN ile
ĠN ilus
ĠN eapol
âĢľ âĢĻ
ĠJ our
In g
In s
Ġab j
Ġab ridge
Ġfo am
Ġfo ison
AM BASSADOR
de ad
de eds
Ġro ast
Ġtime ly
Ġcha ps
ag ing
ag ant
Ġtw ins
Ġgra ver
Ġgra pe
Ġgra ze
Ġri bb
Ġmar iners
Be gu
Be came
Be gan
Be ware
Ġbet ime
Ġle vity
Ġlea ps
ough by
Ġart ificial
Ġlife less
ap s
che ek
Ġtr ades
Ġcl ad
Ġcl ink
Ġcl osed
Ġcl og
Ġcl iff
Ġcl ubs
Ġsc ri
Ġsc are
Ġsc orch
Ġsc reech
Ġper us
Ġper sever
Ġnight gown
Ġad j
Ġad ult
Ġcomm un
Ġra g
Ġra mp
Ġra ms
Ġra iled
Ġra zed
per ion
per form
Where ver
When as
AND ON
AND ROM
man y
Ġworld s
Ġpre med
Ġapp ell
PH UR
Or lando
Or sino
we eping
Ġru ng
Ġru dd
Ġru ler
Ġla vish
ud den
ĠV ery
ĠV ulcan
Ġcomp ounds
Ġdown ward
Ġdown fall
Ġdown stairs
Ġarm ours
Ġarm ourer
ef ully
Ġpres umption
aint ies
ks bury
Ġsl umbers
sw orn
Ġbeg one
me aning
Ġrem iss
Ġpur blind
Ġgl ittering
be en
be come
be aten
Ġbest ride
IM ANDRA
IS LE
Ġrep rove
Ġbra wn
Ġbra gs
ne ck
St re
St anley
St rong
St ruck
mp ress
Ġpri cket
Ġpri zed
ret urn
Ġchi ck
Ġco ven
Ġco lle
ens ible
Ġrest less
Ġtra il
Ġtra ined
Ġtra vels
Ġfe alty
STAFF ORD
Not e
Ġconf used
Ġgu ile
Ġcons ult
Ġcons ciences
Ġtri pping
ab ble
ĠYou th
Ġche at
Ġche cked
Ġres erve
BA GO
Ġplay er
Ġwoman hood
LUC ULLUS
Will iam
ĠAn y
Ġthr oned
ĠCl itus
Ġcount s
Ġcount ries
MAR ULLUS
Ġbod es
Ġstran gle
Ġsub jection
Al ready
Al enÃ§on
Ġover whel
Ġover borne
Ġstre ak
Ġhum ane
Ġass es
Ġbea ver
Ġhome ward
Ġwind ing
Ġi vy
Ġbes m
Ġbes ie
Ġmon k
Ġdisc overs
Ġtruth s
Ġgr ind
ĠY onder
ĠLet he
Ġbri er
Ġbri dle
Ġsent enced
Ġstri de
ĠBr istol
Ġbus hes
Ġhither ward
pen ter
Ġbo ist
Ġbo ats
Ġcoun c
ĠLu cy
ĠMy self
Ġcare er
Ġhonest ly
Ġnear ly
Ġinst ances
ner y
of ern
pl us
pl ant
pl uck
Ġdan k
op her
Ġwant eth
Ġca ution
ĠTh ine
ĠTh idias
Ġstra ws
Un like
Un worthy
Ġdru g
Ġsight less
Ġprove nder
ift ed
ĠAr g
ĠAr my
Ġhard ness
Ġden ying
ĠDo es
Her ald
Her mione
rest ed
Ġpity ing
Ġroyal ties
Ġdef aced
Ġcomfort ed
Ġjud ges
Ġsupp le
Ġdisp ro
Ġdisp ossess
Ġdoubt ing
Ġexce l
Ġexce ls
Ġsad dle
Re ve
Ġhalf penny
ĠWe ird
Ġcra ven
Ġcold er
ang ling
Ġwear ied
Ġmet ap
Ġinf all
Ġpal pable
Ġpal frey
Ġdare d
Ġsin ister
Ġsin cerity
Ġwin ner
Ġattend ant
Ġsoon est
Ġint r
ĠAl ice
ĠAl isander
Ġfore ster
Ġfore said
Ġdist ill
Ġdist ant
Ġdist rust
Ġdist empered
Ġcar b
Ġcar go
Ġcar penter
Ġcho ked
Ġdeep est
Ġknight ly
Ġaff able
Ġaff irm
Ġtrust ing
Ġbar ons
Ġfit ly
Ġact ing
Ġcut ting
Ġcor al
Ġbold er
oward s
Ġgracious ly
oss ible
Ġsur feits
Ġinc ertain
Ġinc ision
Ġten ants
Ġem inence
Ġem pery
Ġcol t
Ġgall op
Ġgall eys
Ġopen ed
ĠShe riff
Ġsuit ed
Say s
Ġdesp is
Ġdesp atch
Ġhair y
Ġexp os
Ġwhe aten
Ġemb racing
ĠEnglish men
Ġatt ired
Ġdro ve
Ġdev ices
Ġpen se
Ġpen ury
Ġdark en
Ġcr ook
Ġfavour ites
urs es
Ġunt ainted
Ha ppily
ĠWill oughby
Ar med
Ġcapt iv
so ci
Ġstir r
Ġstir red
Ġext ant
Ġext inct
Ġext raord
CAL PHUR
oll ity
Ġ1 5
Speak ing
pare d
Ġreg ister
Ġbro ach
Ġoffend ing
oop ed
Ġshi pping
ĠFl ute
ĠFl aminius
ron icles
Ġmot ives
ashi on
Ġdread ed
Ġba ited
Ġdu chess
HOR NER
Ġrel iev
Ġliber t
Pro vo
ACH E
Ġsecret ary
Ġsecond s
Ġfing res
Ġobs erving
Ġpost ern
Ġwood cock
pin ion
Ġut ters
Ġsho ck
ĠHelen us
Ġshar per
Ġbirth right
Ġforget fulness
ĠMac morris
ĠMac edon
sp ent
Ġflatter ies
Ġdri ving
Ġap olog
Ġviol ate
Ġpure st
ey e
Ġchast ise
Ġmed d
Ġmed lar
Ġinv iting
Ġfeed er
ease blossom
Ġprov inces
Ġwhore master
Ġsmo ky
Ġver ified
ĠSc arus
Ġins ide
Ġref lection
Ġobey s
Ġswift est
Ġlist ening
Ġgross ness
Ġmel odious
Ġconcl usions
Ġunw elcome
Ġcred itor
Ġcred itors
Ġrain eth
Ġcre am
Des erve
Des erves
HUM E
Pl antagenet
Ġbare foot
erc har
Bel ong
Ġheat hen
irgin ity
Ġleg acy
Ġdece as
Ġchurch man
Ġchurch men
eat en
Ġcunning ly
Ġunf it
Ġuns ure
Ġuns peak
Ġuns atisf
ĠEx ton
Think ing
Ġprivate ly
EX TON
Ġtrans l
Ġir ks
Ġenjoy s
Ġenjoy ed
Ġsmell ing
Ġvent ures
HORTENS IUS
ĠCan idius
Ġod our
Ġhor ribly
ĠJack s
Ġimport unate
Me asure
Me rely
Ġsens ual
Ġnecess aries
Ġcost ard
Ġproclaim s
fl owers
Ġcat erp
Ġlament ed
Ġsail or
Ġvict u
jo ining
Ġbas in
Ġbas is
Ġfle a
Ġpot ency
Ġslow ly
pro per
Ġdign ified
Ġmelt s
ĠCon rade
ĠVol temand
go ing
Ġant iquity
Ġhap less
ĠSe leucus
Ġjoint ly
Ġunl ooked
ouchs af
Ġthick et
Ġaccount ed
Ġtempt s
Ġtempt ing
Ġbuck led
Ġsol us
ĠPand ulph
Ġconsider ation
Ġunkind ly
Ġcustom ary
act ors
rent ford
Ġbab bling
ĠCam ps
Ġconstant ly
Rem ain
Ġdisple ased
Ġlean ing
Ġclo ven
Le an
bes eeming
Ġcher ished
Ġincl in
Ġinvent ory
Ġspare d
Ġwarm th
Ġstore d
Ġcloud ed
ĠCapul ets
hand s
hand ed
Ġbrook s
Ġprevent ion
Ġbenef its
Hang ing
Ġhabit ed
Ġreck less
ĠSat an
Ġcover ing
Ġforbear ance
Ġcool s
Ġcool ing
Ġbew itch
Ġbew itched
Ġimm odest
Ġgriev ance
Acc ursed
Ġtap est
Ġsour ce
Ġcock le
Ġblus hed
Ġprovo kes
ĠAlb ion
Ġesteem s
ront ed
Ġpill age
Ġinfect ious
ĠSic ily
Ġchair s
Ġbuild ings
Tr inculo
kind ness
kind led
Ġalt ars
Sha lt
co al
ris y
Ġdar ling
Ġrock y
Ġpier ced
Ġsuper stit
ĠFrancis co
Ġarri ve
Mar ried
Ġcens ured
Ġsuck ing
Ġven ison
Ġattempt s
Ġvessel s
Ġherald ry
Ġprefer red
Ġtur b
Ġfin er
Ġabhor r
ĠLuc ret
Conf ound
Conf irm
Draw ing
Lu c
Lu centio
Se es
Se ize
Ġsink ing
Ġder ive
Ġvar iable
Ġaccus ers
Ġaccus ations
Ġinfinite ly
Ġincre asing
Pres ents
Ġexcept ed
Ġexcept ions
Ġcreep s
Ġdecay ed
Ġzeal ous
Ġgaz es
Ġvill age
Ġbelie ving
Res c
ĠWelsh man
Ġnephe ws
Ġdescend s
Ġbehavi ours
Ġluck y
Ġperf id
Sm ile
Ġoak s
Ġstoop ing
Ġdecl ine
Ġdecl are
Ġdecl ined
Ġdecl ining
Ġwrink le
Ġtrim med
Ġsecure ly
Ġconjure r
ĠPhil ario
Ġunm eet
Ġenfor c
Ġadmir ing
Off ering
Wit hal
br other
Ġwrest ler
Ġbutcher s
Ġadvised ly
Find ing
know ledge
ĠWh itmore
Ġalarum s
Ġmonarch y
Ġvictor ies
Ġtum bled
Ġpawn ed
Ġsequ est
Ġconceive d
Ġexper t
Ġproport ions
Ġward robe
ĠHence forth
ĠTha liard
Ġhelm et
Attend ants
Im m
Im agine
Ġav aunt
Ġdeserv ings
Ġbraw ls
Ġbraw ling
Ġsubd u
Ġclean ly
Ġclimb ing
MORT ON
ĠInd eed
Ġwhit eness
ĠStep hen
Ġinfl ame
Ġestim ate
Ġdeceit ful
BL ER
ĠMust ardseed
Ġens ign
Ġens ues
Ġresist ance
Ġthrong s
wor m
Ġdil igent
Ġpull ed
Ġloat hes
Ġfawn ing
Ġdiseas ed
Ġbrace let
sc orn
ĠTr uth
Ġfeign ing
Desp air
bre ath
ĠBarnard o
Villain s
ĠÃ Ĩ
ita e
Ġcel erity
Ġped lar
Ġgn ats
Ġembass age
Ġdial ogue
Ġpest ilent
Ġpenit ence
Adv ise
Ġmas que
Ġnegl igent
Ġconspir ator
Ġextreme ly
Ġsymp athi
Ġost ler
Ġhalt ing
Ġdevour ing
wear y
wear ied
Ġep ithe
Ġconv ince
Ġdispl ayed
Ġdesir ous
Tra itor
cer ning
mo i
Throw ing
ĠHol iness
ĠHol ofern
Ġquaint ly
Ġdesc ried
Ġprett ily
Ġchallen ger
char ge
tong ue
Ġsevent een
Ġprim rose
Ġusure rs
Ġdesol ate
Ġpert urb
Ġobsc ured
miss ive
add ers
Ġdol our
Ġleather n
Ġwrang le
Ġscold ing
Ġpurg ation
Any thing
Ġcram med
Ġobst inate
Ġcele brate
Ġdetermin ation
