{"<|bos|>":0,"<|eos|>":1,"<|pad|>":2,"!":3,"\"":4,"#":5,"$":6,"%":7,"&":8,"'":9,"(":10,")":11,"*":12,"+":13,",":14,"-":15,".":16,"/":17,"0":18,"1":19,"2":20,"3":21,"4":22,"5":23,"6":24,"7":25,"8":26,"9":27,":":28,";":29,"<":30,"=":31,">":32,"?":33,"@":34,"A":35,"B":36,"C":37,"D":38,"E":39,"F":40,"G":41,"H":42,"I":43,"J":44,"K":45,"L":46,"M":47,"N":48,"O":49,"P":50,"Q":51,"R":52,"S":53,"T":54,"U":55,"V":56,"W":57,"X":58,"Y":59,"Z":60,"[":61,"\\":62,"]":63,"^":64,"_":65,"`":66,"a":67,"b":68,"c":69,"d":70,"e":71,"f":72,"g":73,"h":74,"i":75,"j":76,"k":77,"l":78,"m":79,"n":80,"o":81,"p":82,"q":83,"r":84,"s":85,"t":86,"u":87,"v":88,"w":89,"x":90,"y":91,"z":92,"{":93,"|":94,"}":95,"~":96,"¡":97,"¢":98,"£":99,"¤":100,"¥":101,"¦":102,"§":103,"¨":104,"©":105,"ª":106,"«":107,"¬":108,"®":109,"¯":110,"°":111,"±":112,"²":113,"³":114,"´":115,"µ":116,"¶":117,"·":118,"¸":119,"¹":120,"º":121,"»":122,"¼":123,"½":124,"¾":125,"¿":126,"À":127,"Á":128,"Â":129,"Ã":130,"Ä":131,"Å":132,"Æ":133,"Ç":134,"È":135,"É":136,"Ê":137,"Ë":138,"Ì":139,"Í":140,"Î":141,"Ï":142,"Ð":143,"Ñ":144,"Ò":145,"Ó":146,"Ô":147,"Õ":148,"Ö":149,"×":150,"Ø":151,"Ù":152,"Ú":153,"Û":154,"Ü":155,"Ý":156,"Þ":157,"ß":158,"à":159,"á":160,"â":161,"ã":162,"ä":163,"å":164,"æ":165,"ç":166,"è":167,"é":168,"ê":169,"ë":170,"ì":171,"í":172,"î":173,"ï":174,"ð":175,"ñ":176,"ò":177,"ó":178,"ô":179,"õ":180,"ö":181,"÷":182,"ø":183,"ù":184,"ú":185,"û":186,"ü":187,"ý":188,"þ":189,"ÿ":190,"Ā":191,"ā":192,"Ă":193,"ă":194,"Ą":195,"ą":196,"Ć":197,"ć":198,"Ĉ":199,"ĉ":200,"Ċ":201,"ċ":202,"Č":203,"č":204,"Ď":205,"ď":206,"Đ":207,"đ":208,"Ē":209,"ē":210,"Ĕ":211,"ĕ":212,"Ė":213,"ė":214,"Ę":215,"ę":216,"Ě":217,"ě":218,"Ĝ":219,"ĝ":220,"Ğ":221,"ğ":222,"Ġ":223,"ġ":224,"Ģ":225,"ģ":226,"Ĥ":227,"ĥ":228,"Ħ":229,"ħ":230,"Ĩ":231,"ĩ":232,"Ī":233,"ī":234,"Ĭ":235,"ĭ":236,"Į":237,"į":238,"İ":239,"ı":240,"Ĳ":241,"ĳ":242,"Ĵ":243,"ĵ":244,"Ķ":245,"ķ":246,"ĸ":247,"Ĺ":248,"ĺ":249,"Ļ":250,"ļ":251,"Ľ":252,"ľ":253,"Ŀ":254,"ŀ":255,"Ł":256,"ł":257,"Ń":258,"čĊ":259,"Ġt":260,"he":261,"Ġa":262,"ou":263,"Ġs":264,"in":265,"Ġm":266,"Ġw":267,"re":268,"ha":269,"nd":270,"Ġthe":271,"Ġb":272,"is":273,"er":274,"or":275,"âĢ":276,"ll":277,"Ġf":278,"on":279,"it":280,"âĢĻ":281,"es":282,"Ġd":283,"Ġc":284,"Ġl":285,"Ġo":286,"Ġn":287,"en":288,"Ġy":289,"Ġth":290,"ar":291,"Ġh":292,"Ġp":293,"Ġyou":294,"Ġto":295,"ĠI":296,"hat":297,"Ġand":298,"Ġhe":299,"Ġof":300,"ot":301,"ve":302,"an":303,"st":304,"ing":305,"ow":306,"om":307,"Ġg":308,"at":309,"ed":310,"Ġin":311,"Ġbe":312,"se":313,"ce":314,"Ġha":315,"et":316,"Ġmy":317,"ld":318,"ay":319,"le":320,"ĠĠ":321,"ut":322,"ir":323,"ith":324,"im":325,"Ġme":326,"ch":327,"gh":328,"Ġnot":329,"Ġis":330,"ill":331,"Ġe":332,"Ġthat":333,"And":334,"oo":335,"ke":336,"our":337,"Ġfor":338,"Ġu":339,"Ġwith":340,"Ġwe":341,"The":342,"ad":343,"ter":344,"as":345,"Ġit":346,"ri":347,"al":348,"ent":349,"Ġyour":350,"Ġhis":351,"her":352,"Ġst":353,"ra":354,"id":355,"Ġthou":356,"ght":357,"Ġhim":358,"ly":359,"Ġre":360,"Ġthis":361,"Ġli":362,"ome":363,"Ġhave":364,"ord":365,"Ġon":366,"ur":367,"us":368,"Ġso":369,"Ġk":370,"ver":371,"Ġas":372,"ore":373,"ould":374,"ain":375,"Ġde":376,".]":377,"ro":378,"Ġdo":379,"hi":380,"ck":381,"Ġwill":382,"ood":383,"EN":384,"am":385,"Ġsha":386,"ess":387,"Ġse":388,"Ġher":389,"ion":390,"AN":391,"est":392,"Ġlo":393,"ea":394,"ĠS":395,"and":396,"ge":397,"ĠC":398,"nt":399,"US":400,"Ġthy":401,"ER":402,"Th":403,"th":404,"Ġno":405,"AR":406,"Ġsu":407,"Ġall":408,"Ġan":409,"IN":410,"il":411,"Ġbut":412,"ĠH":413,"ru":414,"ake":415,"ĠA":416,"if":417,"ell":418,"Ġfa":419,"Ġsp":420,"To":421,"ct":422,"ear":423,"ight":424,"ĠĠĠĠ":425,"Ġkn":426,"Ġshall":427,"Ġthee":428,"ho":429,"ĠM":430,"Ġv":431,"Ġare":432,"ĠP":433,"That":434,"ES":435,"rom":436,"han":437,"ĠW":438,"ast":439,"Ġby":440,"art":441,"ĠB":442,"ĠL":443,"ard":444,"Ġsh":445,"Ġour":446,"ON":447,"Ġne":448,"Ġman":449,"ine":450,"En":451,"ant":452,"end":453,"Ġat":454,"ĠG":455,"ous":456,"qu":457,"ST":458,"Ġup":459,"Ġam":460,"sel":461,"Ġmu":462,"res":463,"one":464,"Ġcom":465,"out":466,"ind":467,"em":468,"Ġlord":469,"ie":470,"ive":471,"Ġshe":472,"Ġgood":473,"hich":474,"hen":475,"Ġgo":476,"ong":477,"Ġcon":478,"OR":479,"âĢĶ":480,"Ġfrom":481,"ul":482,"Ġlove":483,"ry":484,"oth":485,"ers":486,"ĠF":487,"Ġwhat":488,"ven":489,"row":490,"ic":491,"Ġbl":492,"ble":493,"Ex":494,"Ġthem":495,"Ġwas":496,"Enter":497,"Ġsw":498,"Ġknow":499,"Ġwould":500,"Ġmore":501,"AL":502,"But":503,"here":504,"OL":505,"pp":506,"Ġtheir":507,"fe":508,"ath":509,"ĠâĢĻ":510,"au":511,"ep":512,"Ġcan":513,"el":514,"Ġpr":515,"ure":516,"all":517,"Ġnow":518,"ost":519,"ol":520,"Ġthey":521,"Ġhat":522,"Ġthere":523,"ĠD":524,"Ġwor":525,"self":526,"ĠO":527,"Ġor":528,"Ġar":529,"Ġthan":530,"What":531,"Ġsir":532,"ate":533,"Ġus":534,"He":535,"ink":536,"ort":537,"Ġif":538,"ĠR":539,"Ġsay":540,"IO":541,"You":542,"are":543,"Ġlet":544,"ĠT":545,"LE":546,"Ġhere":547,"ame":548,"For":549,"um":550,"ves":551,"reat":552,"ue":553,"ak":554,"other":555,"ĠThe":556,"ook":557,"hy":558,"Ġpl":559,"TH":560,"Ġlike":561,"fore":562,"ound":563,"Ġthen":564,"ish":565,"Ġwell":566,"Ġhath":567,"ather":568,"ig":569,"od":570,"Ġone":571,"Ġsee":572,"ING":573,"EL":574,"un":575,"Ġj":576,"Ġdid":577,"Ġun":578,"Ġshould":579,"CH":580,"Ġr":581,"Ġmay":582,"Ġcome":583,"RO":584,"Ġen":585,"gain":586,"ĠK":587,"Ġmad":588,"Ġmake":589,"Ġbr":590,"ance":591,"My":592,"ist":593,"Ġqu":594,"Ġho":595,"IA":596,"As":597,"Ġupon":598,"Ġout":599,"ice":600,"Ġmust":601,"Ġsa":602,"Ġwhich":603,"very":604,"eak":605,"pe":606,"Ġwere":607,"ity":608,"ime":609,"KING":610,"Ġhad":611,"IR":612,"red":613,"Ġtoo":614,"LO":615,"Ġtru":616,"Ġpro":617,"ies":618,"ence":619,"pt":620,"ĠĠĠ":621,"Ġey":622,"Ġsuch":623,"Ġheart":624,"orn":625,"IUS":626,"Ġwhen":627,"Ġpo":628,"unt":629,"Thou":630,"Ġhand":631,"Ġhon":632,"ff":633,"This":634,"Ġ[":635,"Ġdis":636,"If":637,"Ġex":638,"Ġal":639,"ond":640,"ther":641,"ĠE":642,"Ġagain":643,"ick":644,"ness":645,"ave":646,"ass":647,"Ġyet":648,"ĠN":649,"ise":650,"âĢľ":651,"ĠJ":652,"ire":653,"wn":654,"Ġwho":655,"Ġspeak":656,"Ġoff":657,"age":658,"eet":659,"urn":660,"In":661,"Ġsome":662,"With":663,"ack":664,"ose":665,"Ġthink":666,"Ġthese":667,"Ġmine":668,"ady":669,"oy":670,"Ġfl":671,"ings":672,"own":673,"ĠKing":674,"ANT":675,"ng":676,"Ġab":677,"Ġfri":678,"Ġfo":679,"ARD":680,"AM":681,"io":682,"Ġhea":683,"Ġfather":684,"Ġhow":685,"de":686,"eunt":687,"Ġgreat":688,"Ġro":689,"ful":690,"Exeunt":691,"Ġtime":692,"Ġcha":693,"ress":694,"ince":695,"Ġgive":696,"IC":697,"ag":698,"Ġtw":699,"ust":700,"Ġgra":701,"way":702,"Ġtake":703,"ci":704,"ESS":705,"Ġwhere":706,"Ġmuch":707,"Why":708,"os":709,"Of":710,"ation":711,"entle":712,"ĠĠĠĠĠĠĠĠ":713,"Ġri":714,"âĢĿ":715,"ENE":716,"Ġday":717,"aster":718,"Ġmost":719,"Exit":720,"So":721,"No":722,"How":723,"Ġdes":724,"We":725,"Ġmar":726,"Be":727,"Ġtell":728,"Ġfriend":729,"Ġnever":730,"IL":731,"Ġbre":732,"ber":733,"Ġbet":734,"Ġle":735,"Ġhear":736,"Ġlea":737,"Ġlook":738,"ull":739,"AT":740,"ough":741,"ree":742,"Ġmen":743,"ither":744,"Ġart":745,"to":746,"ign":747,"li":748,"ite":749,"Which":750,"Ġpart":751,"Ġear":752,"Ġlife":753,"Ġblood":754,"Ġdoth":755,"Ġdeath":756,"Ġword":757,"ap":758,"not":759,"oul":760,"Ġother":761,"Ġfair":762,"Who":763,"Ġhonour":764,"ment":765,"UC":766,"ount":767,"LA":768,"ĠHe":769,"Ġwr":770,"ET":771,"igh":772,"ase":773,"Ġfear":774,"ces":775,"ace":776,"che":777,"old":778,"Ġgentle":779,"ide":780,"Ġtr":781,"ans":782,"It":783,"ove":784,"Ġple":785,"tle":786,"Ġany":787,"Ġsweet":788,"ool":789,"Ġcl":790,"Ġown":791,"SC":792,"Ġsc":793,"ward":794,"Ġser":795,"ius":796,"Ġheaven":797,"Ġper":798,"nder":799,"FF":800,"Ġnight":801,"Ġad":802,"Ġson":803,"Ġcomm":804,"ft":805,"Ġra":806,"Ġwar":807,"tis":808,"Ġmade":809,"Ġcall":810,"hing":811,"ee":812,"SE":813,"per":814,"Is":815,"Ġtrue":816,"Ġeyes":817,"Ġwh":818,"les":819,"nce":820,"rown":821,"Where":822,"By":823,"ving":824,"land":825,"Ġvery":826,"llow":827,"IRST":828,"FIRST":829,"When":830,"Ġke":831,"Ġhast":832,"AND":833,"ĠâĢľ":834,"Ġcannot":835,"orrow":836,"ĠWhat":837,"SCENE":838,"man":839,"augh":840,"ction":841,"Ġworld":842,"CA":843,"Ġstr":844,"Ġpre":845,"able":846,"Ġapp":847,"There":848,"ĠAnd":849,"ouse":850,"Ġpray":851,"Ġbeen":852,"Your":853,"PH":854,"ty":855,"Tis":856,"ss":857,"Or":858,"ock":859,"Ġaf":860,"Let":861,"Ġaway":862,"Ġwit":863,"Ġbear":864,"ĠLord":865,"IT":866,"uke":867,"Ġdone":868,"ĠBut":869,"QU":870,"Ġking":871,"we":872,"Ġway":873,"Ġcour":874,"Ġnor":875,"UR":876,"Ġim":877,"cc":878,"Ġru":879,"AC":880,"Ġla":881,"ud":882,"ia":883,"Ġstand":884,"ĠV":885,"Ġcomp":886,"Ġdown":887,"Ġname":888,"Ġhead":889,"ps":890,"Ġmight":891,"iss":892,"Ġarm":893,"Ġever":894,"Ġtwo":895,"Ġwom":896,"less":897,"ower":898,"Come":899,"Ay":900,"EM":901,"Ġcont":902,"DU":903,"ger":904,"ef":905,"Ġbrother":906,"Ġpres":907,"aint":908,"ks":909,"Ġbefore":910,"ears":911,"ENT":912,"RI":913,"Ġthought":914,"Ġsl":915,"ĠGod":916,"Ġold":917,"ife":918,"sw":919,"Ġbeg":920,"Ġleave":921,"Ġnoble":922,"ach":923,"Ġthus":924,"Ġlong":925,"Ġlady":926,"Now":927,"irst":928,"ason":929,"ian":930,"Ġcould":931,"Ġdead":932,"Ġnew":933,"Ġhar":934,"aughter":935,"ause":936,"bl":937,"me":938,"Ġfool":939,"Ġrem":940,"Ġcomes":941,"CE":942,"ED":943,"Ġpoor":944,"Ġsoul":945,"CON":946,"Ġshow":947,"ark":948,"Ġpur":949,"Ġlive":950,"ds":951,"ple":952,"Ġend":953,"ORD":954,"Ġgl":955,"be":956,"Ġbeing":957,"Ġfind":958,"ors":959,"Ġbetter":960,"atter":961,"akes":962,"ĠDuke":963,"ious":964,"ew":965,"STA":966,"Ġbest":967,"Ġstill":968,"eth":969,"IM":970,"ought":971,"come":972,"Ġma":973,"Ġkeep":974,"Ġboth":975,"eace":976,"ert":977,"IS":978,"uck":979,"Ġrep":980,"Then":981,"Ġinto":982,"Ġevery":983,"Ġmany":984,"Ġmer":985,"nto":986,"for":987,"ied":988,"the":989,"hall":990,"Ġnothing":991,"cy":992,"Ġsm":993,"cl":994,"har":995,"Ġbra":996,"Here":997,"une":998,"ier":999,"ĠPr":1000,"well":1001,"Ġhouse":1002,"Ġput":1003,"ittle":1004,"istress":1005,"BER":1006,"ĠCa":1007,"KE":1008,"Ġmaster":1009,"atch":1010,"They":1011,"She":1012,"ne":1013,"St":1014,"Ġfell":1015,"hip":1016,"mp":1017,"Ġset":1018,"ĠIf":1019,"Ġmyself":1020,"men":1021,"Ġtong":1022,"Ġpri":1023,"Ġfriends":1024,"IAN":1025,"RU":1026,"Ġeye":1027,"His":1028,"ren":1029,"ins":1030,"vil":1031,"ac":1032,"tend":1033,"Ġlittle":1034,"CHARD":1035,"rant":1036,"Ġhour":1037,"ret":1038,"ons":1039,"Ġthose":1040,"Than":1041,"COND":1042,"HAM":1043,"arry":1044,"LET":1045,"ĠEn":1046,"Ġlie":1047,"SECOND":1048,"SS":1049,"Well":1050,"Ġwife":1051,"its":1052,"Ġdaughter":1053,"Ġyoung":1054,"ield":1055,"Ġhold":1056,"Ġnat":1057,"Ġdear":1058,"Ġdie":1059,"int":1060,"Ġfirst":1061,"INE":1062,"lf":1063,"Ġfollow":1064,"EEN":1065,"rance":1066,"Ġchi":1067,"ile":1068,"Ġco":1069,"lt":1070,"ens":1071,"uty":1072,"alk":1073,"Ġsle":1074,"eds":1075,"QUEEN":1076,"Yet":1077,"Ġrest":1078,"Ġtra":1079,"Ġfe":1080,"Ġface":1081,"STAFF":1082,"Not":1083,"RY":1084,"Ġthine":1085,"Ġconf":1086,"Ġserv":1087,"Ġgu":1088,"Ġfall":1089,"Do":1090,"uth":1091,"Ġhimself":1092,"ilt":1093,"BE":1094,"esar":1095,"FAL":1096,"Ġgone":1097,"FALSTAFF":1098,".âĢĶ":1099,"Ġmind":1100,"Ġunder":1101,"Ġlords":1102,"Ġgri":1103,"Ġplace":1104,"Ġel":1105,"Ġcons":1106,"ĠRome":1107,"WN":1108,"oud":1109,"Good":1110,"UL":1111,"Thy":1112,"Ġworth":1113,"Ġpass":1114,"ĠEng":1115,"iness":1116,"ison":1117,"ĠII":1118,"ĠSir":1119,"Ġtri":1120,"MAN":1121,"Ġkind":1122,"ĠAnt":1123,"Ġagainst":1124,"ail":1125,"Nay":1126,"ab":1127,"get":1128,"Ġnone":1129,"Ġboy":1130,"Ġch":1131,"ĠYou":1132,"oun":1133,"Ġgi":1134,"Ġfort":1135,"Ġche":1136,"ows":1137,"irt":1138,"Sir":1139,"Ġtill":1140,"Ġfull":1141,"Ġstay":1142,"Ġtongue":1143,"Ġseem":1144,"esty":1145,"Ġsword":1146,"hed":1147,"ont":1148,"ROS":1149,"Ġpresent":1150,"RIN":1151,"TER":1152,"Ġmother":1153,"Ġres":1154,"BA":1155,"Ġcur":1156,"Ġplay":1157,"Ġwoman":1158,"Ġtre":1159,"ICK":1160,"ect":1161,"Ġchar":1162,"Ġwords":1163,"LUC":1164,"swer":1165,"OTH":1166,"Ġturn":1167,"Ġbring":1168,"Ġwhose":1169,"ale":1170,"Ġcourt":1171,"ID":1172,"led":1173,"ANTON":1174,"Will":1175,"DUKE":1176,"Ġelse":1177,"Ġpe":1178,"ult":1179,"race":1180,"sand":1181,"Ġforth":1182,"RESS":1183,"asure":1184,"AG":1185,"Ġpeace":1186,"Ġsaid":1187,"Ġright":1188,"OST":1189,"ition":1190,"ars":1191,"Ġthough":1192,"Shall":1193,"Ġchild":1194,"Have":1195,"Ġhus":1196,"GO":1197,"ĠAn":1198,"Ġlight":1199,"Ġthr":1200,"bt":1201,"Ġback":1202,"Ġwrong":1203,"Ġimp":1204,"Ġdra":1205,"Ġbel":1206,"Ġafter":1207,"band":1208,"Ġonce":1209,"ĠCl":1210,"Ġanswer":1211,"Ġchan":1212,"hile":1213,"Ġanother":1214,"ix":1215,"Go":1216,"Ġcount":1217,"ring":1218,"MAR":1219,"PRIN":1220,"Ġspir":1221,"Ġfal":1222,"ets":1223,"pon":1224,"Ġkill":1225,"ory":1226,"air":1227,"Ġbid":1228,"orse":1229,"Ġdre":1230,"Ġbod":1231,"ati":1232,"Ġmean":1233,"Ġunto":1234,"ĠOF":1235,"eech":1236,"Ġcrown":1237,"ceive":1238,"Ġret":1239,"Ġhope":1240,"ĠCaesar":1241,"Ġacc":1242,"Ġreason":1243,"LES":1244,"Ġearth":1245,",âĢĶ":1246,"IST":1247,"Ġhas":1248,"UN":1249,"Ġstran":1250,"Nor":1251,"ary":1252,"Ġpra":1253,"Ġsub":1254,"illain":1255,"Ġfaith":1256,"Ġmatter":1257,"ister":1258,"Ġpower":1259,"Al":1260,"ried":1261,"Ġover":1262,"Ġmeet":1263,"Ġstre":1264,"selves":1265,"ĠFrance":1266,"Ġhusband":1267,"ony":1268,"Ġhum":1269,"Ġletter":1270,"Ġdou":1271,"een":1272,"âĢĺ":1273,"Ġgrace":1274,"vy":1275,"Ġhel":1276,"ENRY":1277,"ury":1278,"ĠHENRY":1279,"Ġmo":1280,"Ġass":1281,"Ġabout":1282,"Ġbea":1283,"Ġeven":1284,"Ġhome":1285,"Ġwhom":1286,"mb":1287,"Ġhigh":1288,"Ġthousand":1289,"ph":1290,"Ġheard":1291,"Ġinde":1292,"Ġplease":1293,"From":1294,"Our":1295,"ged":1296,"ants":1297,"fect":1298,"Ġsleep":1299,"Ġfalse":1300,"Ġthing":1301,"HAMLET":1302,"Ġwind":1303,"Ġcause":1304,"Ġthree":1305,"Ġhands":1306,"Ġi":1307,"Ġshame":1308,"Ġhence":1309,"Ġbes":1310,"omet":1311,"Ġdost":1312,"All":1313,"Ġindeed":1314,"Ġgods":1315,"Ġjust":1316,"ROM":1317,"pect":1318,"Ġnature":1319,"Ġvirt":1320,"Upon":1321,"Ġmon":1322,"Ġmaid":1323,"ved":1324,"ĠQ":1325,"Ġbed":1326,"imes":1327,"ute":1328,"Ġdisc":1329,"iv":1330,"Ġtruth":1331,"IZ":1332,"any":1333,"Ġmakes":1334,"ĠCome":1335,"Ġthank":1336,"ms":1337,"Ġmis":1338,"ade":1339,"oh":1340,"Ġtherefore":1341,"Ġmadam":1342,"ardon":1343,"Ġgr":1344,"Ġwithin":1345,"Ġsure":1346,"RA":1347,"Ġsold":1348,"Ġlaw":1349,"Ġstate":1350,"Ġgold":1351,"CLO":1352,"ĠY":1353,"BO":1354,"Ġvillain":1355,"ours":1356,"ild":1357,"ĠThere":1358,"fort":1359,"vere":1360,"Ġste":1361,"ĠLet":1362,"Ġbreak":1363,"ohn":1364,"Ġbri":1365,"ray":1366,"Ġuse":1367,"Ġval":1368,"cious":1369,"ning":1370,"ouch":1371,"Ġfar":1372,"Ġthings":1373,"ousin":1374,"Ġsent":1375,"Ġstri":1376,"ĠBr":1377,"Ġill":1378,"Ġbus":1379,"Ġfight":1380,"Ġyouth":1381,"Ġadv":1382,"Ġere":1383,"ents":1384,"ĠFor":1385,"An":1386,"Ġcame":1387,"bs":1388,"Ġban":1389,"ches":1390,"ĠTo":1391,"ork":1392,"Ġbu":1393,"Ġhither":1394,"Ġkiss":1395,"ĠMar":1396,"day":1397,"Ġtears":1398,"ĠThis":1399,"Ġhapp":1400,"ctor":1401,"pen":1402,"hes":1403,"Ġlast":1404,"ESTER":1405,"Ġhelp":1406,"Ġnews":1407,"ELLO":1408,"Ġye":1409,"und":1410,"Ġbo":1411,"Ġbody":1412,"Ġshalt":1413,"Ġgrief":1414,"Ġsame":1415,"Ġwel":1416,"Ġsun":1417,"Ġfire":1418,"BETH":1419,"yal":1420,"ates":1421,"vers":1422,"Ġdoes":1423,"GAR":1424,"Ġhang":1425,"SH":1426,"Ġsec":1427,"ĠBe":1428,"gether":1429,"Ġsound":1430,"Ġcoun":1431,"Ġenough":1432,"ched":1433,"Are":1434,"ĠJohn":1435,"PER":1436,"Ġsince":1437,"ions":1438,"ĠLu":1439,"ĠMy":1440,"Ġfellow":1441,"dd":1442,"TUS":1443,"let":1444,"Ġgre":1445,".âĢĿ":1446,"RE":1447,"ieve":1448,"Ġstrong":1449,"BEL":1450,"uff":1451,"Ġcare":1452,"ween":1453,"ike":1454,"ily":1455,"Ġrather":1456,"DO":1457,"OM":1458,"Ġmistress":1459,"Ġseen":1460,"ues":1461,"use":1462,"Ġlay":1463,"Ġwithout":1464,"ĠEngland":1465,"Ġenem":1466,"Ġbreath":1467,"Ġgentleman":1468,"Ġhonest":1469,"ĠEd":1470,"PRINCE":1471,"ject":1472,"Ġland":1473,"Ġweep":1474,"Ġnear":1475,"ains":1476,"Ġfault":1477,"Ġsaw":1478,"Ġwhy":1479,"hold":1480,"Ġthrough":1481,"ĠThou":1482,"ĠAt":1483,"hard":1484,"ze":1485,"Ġcousin":1486,"Ġdevil":1487,"Ġjoy":1488,"Ġarms":1489,"Ġpurp":1490,"com":1491,"ran":1492,"ener":1493,"Ġinst":1494,"ueen":1495,"Ġqueen":1496,"BRU":1497,"ner":1498,"BRUTUS":1499,"der":1500,"Ġsorrow":1501,"Ġpati":1502,"Ġenter":1503,"Ġstrange":1504,"aw":1505,"eed":1506,"of":1507,"Ġlost":1508,"RICHARD":1509,"Ġwelcome":1510,"Hath":1511,"OB":1512,"av":1513,"pl":1514,"Ġdan":1515,"Ġpers":1516,"Ġent":1517,"els":1518,"LEON":1519,"jesty":1520,"Ġsomet":1521,"Ġoft":1522,"Ġsea":1523,"ĠHow":1524,"ĠQueen":1525,"AU":1526,"ken":1527,"IMON":1528,"op":1529,"Ġwant":1530,"Ġyourself":1531,"ROSAL":1532,"Ġbeauty":1533,"EUS":1534,"Ġca":1535,"ĠIt":1536,"ats":1537,"Ġmeans":1538,"ides":1539,"Ġcommand":1540,"OTHELLO":1541,"ned":1542,"ĠTh":1543,"Ġgrow":1544,"usic":1545,"Ġrun":1546,"tw":1547,"enry":1548,"Ġstra":1549,"IAGO":1550,"iers":1551,"Ġsend":1552,"Ġspirit":1553,"IOL":1554,"Un":1555,"Ġonly":1556,"At":1557,"gs":1558,"itt":1559,"ĠYork":1560,"OP":1561,"ised":1562,"Ġless":1563,"oe":1564,"Ġsing":1565,"Ġfoul":1566,"Ġspo":1567,"Ġremem":1568,"Ġdru":1569,"ERV":1570,"Ġbless":1571,"Ġfortune":1572,"Ġwish":1573,"Ġhorse":1574,"ĠMaster":1575,"Ġunc":1576,"Ġreturn":1577,"Even":1578,"erv":1579,"Ġprince":1580,"Ġtalk":1581,"Ġget":1582,"ĠHer":1583,"Ġswear":1584,"ISTRESS":1585,"MISTRESS":1586,"med":1587,"CASS":1588,"Did":1589,"Ġcry":1590,"cester":1591,"ĠPrince":1592,"ished":1593,"Ġyours":1594,"Ġneed":1595,"Ġleft":1596,"by":1597,"Ġtem":1598,"oney":1599,"Sh":1600,"iet":1601,"Ġsight":1602,"Ġfree":1603,"Ġprove":1604,"CLOWN":1605,"Ġdesire":1606,"Ġthoughts":1607,"ANTONY":1608,"outh":1609,"ster":1610,"alth":1611,"ift":1612,"gainst":1613,"like":1614,"ertain":1615,"ered":1616,"Ġborn":1617,"ĠAr":1618,"Ġalone":1619,"DEM":1620,"Give":1621,"mer":1622,"now":1623,"Ġtogether":1624,"ross":1625,"Ġmur":1626,"Ġpardon":1627,"Ġitself":1628,"Ġread":1629,"ENTLE":1630,"Would":1631,"peak":1632,"ĠIs":1633,"Ġhard":1634,"ures":1635,"Ġsick":1636,"Ġlies":1637,"Whose":1638,"GLO":1639,"Ġden":1640,"ĠDo":1641,"UCESTER":1642,"GLOUCESTER":1643,"Ġprom":1644,"ĠGrace":1645,"onder":1646,"DY":1647,"Her":1648,"dom":1649,"wick":1650,"Ġwilt":1651,"rest":1652,"Ġpity":1653,"ĠHenry":1654,"Ġfly":1655,"ichard":1656,"ĠTro":1657,"Ġroyal":1658,"ĠAntony":1659,"Ġbusiness":1660,"ced":1661,"rink":1662,"Ġtold":1663,"Ġsays":1664,"THER":1665,"Ġcountry":1666,"SIR":1667,"uch":1668,"ĠâĢĺ":1669,"Ġdef":1670,"Ġcomfort":1671,"Ġjud":1672,"Ġdel":1673,"Ġsupp":1674,"Ġvo":1675,"ORT":1676,"Ġdisp":1677,"Ġdoubt":1678,"On":1679,"Ġproud":1680,"Ġprison":1681,"Ġexce":1682,"arwick":1683,"COR":1684,"PE":1685,"Ġsad":1686,"Ġgave":1687,"Ġgener":1688,"Ġseek":1689,"ham":1690,"Ġfound":1691,"rench":1692,"ENTLEMAN":1693,"Re":1694,"ople":1695,"Ġhalf":1696,"ANIO":1697,"Ġvi":1698,"ĠWe":1699,"ounds":1700,"lou":1701,"Ġsil":1702,"ĠSt":1703,"ĠNow":1704,"Ġcra":1705,"Ġwat":1706,"roke":1707,"Ġcold":1708,"Ġwork":1709,"loucester":1710,"Ġlate":1711,"Ġdep":1712,"ĠRI":1713,"JUL":1714,"aff":1715,"Ġfare":1716,"ĠĠĠĠĠĠĠĠĠĠĠ":1717,"Ġsister":1718,"ithe":1719,"itor":1720,"Ġservice":1721,"most":1722,"Ġtend":1723,"Ġsk":1724,"Ġoath":1725,"Ġlooks":1726,"ĠRICHARD":1727,"LAND":1728,"UM":1729,"Ġbloody":1730,"Ġdraw":1731,"More":1732,"Till":1733,"YOR":1734,"ene":1735,"ang":1736,"oman":1737,"eter":1738,"Ġeach":1739,"Ġwear":1740,"ĠWhy":1741,"ford":1742,"ls":1743,"Ġmet":1744,"Ġinf":1745,"Ġreven":1746,"ĠCass":1747,"DER":1748,"ling":1749,"xt":1750,"Ġpal":1751,"ott":1752,"Ġhate":1753,"Ġquick":1754,"YR":1755,"Ġdare":1756,"Ġfur":1757,"Ġlose":1758,"PRO":1759,"Ġage":1760,"Ġsin":1761,"Ġwin":1762,"rew":1763,"Ġbir":1764,"ĠWarwick":1765,"AGE":1766,"DIO":1767,"bed":1768,"Ġsen":1769,"Ġmark":1770,"Some":1771,"VOL":1772,"cess":1773,"Ġattend":1774,"ĠRichard":1775,"Ġlead":1776,"Look":1777,"Was":1778,"up":1779,"Ġfield":1780,"Though":1781,"ĠHere":1782,"MEN":1783,"ial":1784,"lish":1785,"Ġsoon":1786,"ĠLORD":1787,"Ġfoot":1788,"Ġpeople":1789,"Ġpurpose":1790,"TR":1791,"with":1792,"Ġlear":1793,"Ġint":1794,"Ġsuff":1795,"Ġtimes":1796,"Ġair":1797,"Ġmusic":1798,"ĠSo":1799,"ments":1800,"MA":1801,"bour":1802,"vent":1803,"ĠAl":1804,"ĠGloucester":1805,"Ġknows":1806,"Ġpleas":1807,"ACT":1808,"Ġaw":1809,"Ġfore":1810,"Ġdam":1811,"Ġdist":1812,"Ġcar":1813,"oose":1814,"Ġask":1815,"Ġthyself":1816,"Ġdream":1817,"ithee":1818,"CLE":1819,"Like":1820,"Ġcho":1821,"OLI":1822,"Ġbetween":1823,"ĠIII":1824,"Ġbeseech":1825,"vour":1826,"TIMON":1827,"ĠThat":1828,"Ġdanger":1829,",âĢĿ":1830,"MAC":1831,"oor":1832,"Ġwa":1833,"Ġcond":1834,"Ġlives":1835,"Ġloves":1836,"ery":1837,"IND":1838,"ĠEnter":1839,"Ġcertain":1840,"Ġyield":1841,"Ġdeep":1842,"Ġknight":1843,"Ġcharge":1844,"rer":1845,"ĠFrench":1846,"ices":1847,"arewell":1848,"Tw":1849,"Ġmin":1850,"rem":1851,"Ġbrought":1852,"ATRA":1853,"Ġcommon":1854,"Ġworthy":1855,"OPATRA":1856,"DES":1857,"God":1858,"Yes":1859,"cause":1860,"Ġter":1861,"utus":1862,"INA":1863,"aking":1864,"Ġgrave":1865,"Ġdays":1866,"CLEOPATRA":1867,"ives":1868,"Ġaff":1869,"Ġwhile":1870,"INIUS":1871,"Ġcompany":1872,"Ġgeneral":1873,"HEL":1874,"aim":1875,"ĠSYR":1876,"USE":1877,"fection":1878,"ACUSE":1879,"Ġcontent":1880,"Ġfurther":1881,"ĠSYRACUSE":1882,"ek":1883,"ĠRo":1884,"ROSALIND":1885,"YORK":1886,"GER":1887,"ever":1888,"Ġsit":1889,"ĠGo":1890,"Ġtrust":1891,"Ġwise":1892,"Ġyears":1893,"thing":1894,"BAST":1895,"ĠEdward":1896,"Can":1897,"TES":1898,"Ġbar":1899,"Ġbound":1900,"Ġforg":1901,"ELIA":1902,"unes":1903,"ANTI":1904,"ILIA":1905,"gue":1906,"enty":1907,"Ġsum":1908,"ief":1909,"OLK":1910,"Ġvirtue":1911,"MESS":1912,"ible":1913,"estion":1914,"CHIO":1915,"Ġothers":1916,"ITIZ":1917,"Ġbelieve":1918,"Ġhappy":1919,"ITIZEN":1920,"PAR":1921,"Ġfit":1922,"Ġdrink":1923,"Ġpar":1924,"Ġholy":1925,"ĠNo":1926,"Were":1927,"IMO":1928,"GARET":1929,"Ġact":1930,"Ġrec":1931,"Ġpleasure":1932,"Ġwarrant":1933,"May":1934,"kes":1935,"onight":1936,"Ġcut":1937,"Ġself":1938,"Ġknown":1939,"Ġgiven":1940,"UNT":1941,"JA":1942,"LY":1943,"Ġmorn":1944,"These":1945,"ENGER":1946,"ICE":1947,"Most":1948,"no":1949,"ub":1950,"hal":1951,"Ġbat":1952,"Ġlad":1953,"Ġpay":1954,"hil":1955,"Ġblack":1956,"ĠThen":1957,"Ġmarry":1958,"Ġbrave":1959,"PET":1960,"VIA":1961,"Ġwoe":1962,"Ġcor":1963,"Ġpast":1964,"Ġbold":1965,"oward":1966,"adam":1967,"ries":1968,"aught":1969,"Ġgracious":1970,"oss":1971,"LADY":1972,"Ġground":1973,"Ġside":1974,"Ġsovere":1975,"LEAR":1976,"Ġposs":1977,"Ġserve":1978,"Ġuncle":1979,"oint":1980,"Ġsur":1981,"Ġhell":1982,"Ġpraise":1983,"Ġac":1984,"Ġsake":1985,"ANUS":1986,"Therefore":1987,"PAND":1988,"ec":1989,"Ġinc":1990,"ĠGENTLEMAN":1991,"IRD":1992,"morrow":1993,"ship":1994,"Ġmoney":1995,"orth":1996,"olk":1997,"Ġheavy":1998,"Ġrich":1999,"TA":2000,"WAR":2001,"WARD":2002,"Ġten":2003,"Ġpoint":2004,"ERVANT":2005,"ush":2006,"THIRD":2007,"Ġears":2008,"Ġwomen":2009,"WICK":2010,"Ġtonight":2011,"Ġwis":2012,"Ġhot":2013,"oof":2014,"ĠWhen":2015,"iece":2016,"Ġgoes":2017,"WARWICK":2018,"DON":2019,"Sw":2020,"cha":2021,"Ġburn":2022,"Ġdiv":2023,"Ġem":2024,"ortal":2025,"One":2026,"iant":2027,"Ġcol":2028,"ots":2029,"Ġgall":2030,"Ġvis":2031,"OLUS":2032,"aud":2033,"inks":2034,"PHOLUS":2035,"Ġtender":2036,"ANTIPHOLUS":2037,"gar":2038,"pr":2039,"lly":2040,"Ġtomorrow":2041,"ceed":2042,"essen":2043,"Ġhearts":2044,"Ġreport":2045,"Ġmercy":2046,"Ġsign":2047,"Ġmouth":2048,"Ġopen":2049,"owers":2050,"Ġbeat":2051,"ĠCITIZEN":2052,"ĠWhere":2053,"form":2054,"Ġjudge":2055,"ined":2056,"gel":2057,"Ġshort":2058,"ĠBrutus":2059,"MESSENGER":2060,"HOST":2061,"iz":2062,"Ġgar":2063,"Ġweak":2064,"ally":2065,"Ġenemy":2066,"HER":2067,"Ġmock":2068,"Ġeat":2069,"Ġlips":2070,"Ġthemselves":2071,"esh":2072,"ote":2073,"ĠShe":2074,"Ġsuit":2075,"ELL":2076,"Ġprof":2077,"Ġcourse":2078,"Ġperson":2079,"Had":2080,"Say":2081,"Ġrequ":2082,"ALL":2083,"ĠOr":2084,"Ġmerry":2085,"Ġpatience":2086,"Ġfarewell":2087,"Ġdeed":2088,"Ġdesp":2089,"EMILIA":2090,"VAL":2091,"ip":2092,"ask":2093,"ARUS":2094,"ĠWho":2095,"aste":2096,"ONA":2097,"Ġring":2098,"Ġsubject":2099,"Take":2100,"cent":2101,"Ġest":2102,"Ġbos":2103,"Ġbehold":2104,"Ġhair":2105,"Ġknew":2106,"Ġnext":2107,"Ġexp":2108,"Ġhaste":2109,"Ġconfess":2110,"sue":2111,"vo":2112,"Ġwhe":2113,"Ġwoo":2114,"Ġbase":2115,"Ġfea":2116,"Ġemb":2117,"Ġfast":2118,"ĠEnglish":2119,"Com":2120,"eal":2121,"Ġtouch":2122,"Ġfour":2123,"Ġred":2124,"ĠMa":2125,"ĠPage":2126,"Ġatt":2127,"umber":2128,"ANTONIO":2129,"Ġremember":2130,"AS":2131,"uous":2132,"Ġdro":2133,"Ġspeed":2134,"Ġplain":2135,"Ġbosom":2136,"Madam":2137,"TIT":2138,"fter":2139,"imon":2140,"alt":2141,"Ġdev":2142,"Alas":2143,"Ġstraight":2144,"DEMONA":2145,"Ġvoice":2146,"DESDEMONA":2147,"HELEN":2148,"CL":2149,"EO":2150,"ca":2151,"ires":2152,"Ġpen":2153,"vel":2154,"stand":2155,"ated":2156,"ENIUS":2157,"Ġneither":2158,"Ġtook":2159,"LAU":2160,"Ġchange":2161,"MENENIUS":2162,"az":2163,"ges":2164,"that":2165,"Ġwret":2166,"ĠIV":2167,"Ġgro":2168,"amp":2169,"ĠCh":2170,"Ġknave":2171,"Ġsave":2172,"Ġsons":2173,"ROMEO":2174,"Ġsovereign":2175,"CLAU":2176,"DROM":2177,"Ġdark":2178,"Ġdog":2179,"ĠPer":2180,"Ġworse":2181,"ĠĠĠĠĠĠĠĠĠĠĠĠĠĠĠĠĠĠĠ":2182,"Ġgentlemen":2183,"ethinks":2184,"Ġfeel":2185,"Ġentreat":2186,"DROMIO":2187,"!âĢĶ":2188,"Marry":2189,"OWN":2190,"aid":2191,"ior":2192,"ites":2193,"ities":2194,"Ġcanst":2195,"ully":2196,"ISA":2197,"SU":2198,"Ġwonder":2199,"erve":2200,"Ġcle":2201,"Ġquestion":2202,"CLAUDIO":2203,"AP":2204,"you":2205,"Ġcast":2206,"Ġthri":2207,"Ġtoward":2208,"ague":2209,"BEROWN":2210,"BEROWNE":2211,"DICK":2212,"Ġduty":2213,"Thus":2214,"Ġscorn":2215,"Ġwhite":2216,"Ġpret":2217,"RUCHIO":2218,"Ġstreng":2219,"Ġwater":2220,"PETRUCHIO":2221,"Ġord":2222,"ones":2223,"Ġcr":2224,"Ġfavour":2225,"Ġkne":2226,"ĠPal":2227,"were":2228,"Ġglad":2229,"Ġtraitor":2230,"IDA":2231,"ixt":2232,"HN":2233,"OHN":2234,"Since":2235,"gg":2236,"irm":2237,"cks":2238,"each":2239,"Ġsport":2240,"rows":2241,"Ġsoldier":2242,"Ġsomething":2243,"Should":2244,"essenger":2245,"bly":2246,"als":2247,"urs":2248,"Make":2249,"Wh":2250,"Ġwatch":2251,"ready":2252,"Ġcreat":2253,"Ġtown":2254,"Ġunt":2255,"Ġquar":2256,"Ġprop":2257,"Ġvaliant":2258,"Ha":2259,"Ġsat":2260,"Ġmove":2261,"Ġwalk":2262,"Ġcoward":2263,"Ġhur":2264,"Ġdoor":2265,"ĠHel":2266,"Ġneeds":2267,"RESSIDA":2268,"CRESSIDA":2269,"Ġta":2270,"Ġnote":2271,"ĠTOB":2272,"Ġtrump":2273,"ENTINE":2274,"Ġjustice":2275,"BELLA":2276,"PANDARUS":2277,"VALENTINE":2278,"ĠTOBY":2279,"MER":2280,"chan":2281,"hood":2282,"Ġtoday":2283,"ĠIn":2284,"rah":2285,"ĠMAR":2286,"ĠWill":2287,"Ġpluck":2288,"Ġappro":2289,"!âĢĿ":2290,"Ar":2291,"Ġwall":2292,"Ġbad":2293,"OLD":2294,"Ġappear":2295,"VOLIO":2296,"Pray":2297,"Ġpale":2298,"Ġspeech":2299,"Ġtwenty":2300,"IOLANUS":2301,"See":2302,"TEUS":2303,"vol":2304,"Ġcity":2305,"Ġlust":2306,"eness":2307,"ourish":2308,"riage":2309,"ament":2310,"ĠMistress":2311,"ĠLady":2312,"ends":2313,"Ġcoming":2314,"ainted":2315,"Ġharm":2316,"SHAL":2317,"Ġspoke":2318,"CORIOLANUS":2319,"PROTEUS":2320,"Tru":2321,"TOR":2322,"sh":2323,"Ġfra":2324,"Ġopp":2325,"lex":2326,"Ġloss":2327,"Ġprin":2328,"Ġdidst":2329,"Ġstands":2330,"Ġpresently":2331,"Ġcapt":2332,"ĠMARGARET":2333,"Against":2334,"rous":2335,"ĠĠĠĠĠĠĠ":2336,"Ġflesh":2337,"Ġcounsel":2338,"dden":2339,"MACBETH":2340,"Out":2341,"Sc":2342,"so":2343,"cept":2344,"Ġstir":2345,"feit":2346,"ured":2347,"ĠThey":2348,"Ġext":2349,"Ġroom":2350,"Ġhours":2351,"Ġrevenge":2352,"HELENA":2353,"Ġstrength":2354,"CAL":2355,"Ġaction":2356,"Ġmod":2357,"ortune":2358,"ĠHector":2359,"Ġliege":2360,"Ġmorning":2361,"KA":2362,"OUNT":2363,"bit":2364,"dge":2365,"mber":2366,"rey":2367,"Ġgrant":2368,"Ġran":2369,"cius":2370,"Ġclose":2371,"bury":2372,"oll":2373,"oly":2374,"ses":2375,"ying":2376,"Ġ1":2377,"Ġtit":2378,"Ġsigh":2379,"ines":2380,"Ġcap":2381,"Ġlack":2382,"Ġund":2383,"OLLES":2384,"KINGHAM":2385,"ĠJOHN":2386,"UCKINGHAM":2387,"Ġmajesty":2388,"Ġguard":2389,"Ġrespect":2390,"BUCKINGHAM":2391,"Farewell":2392,"NOR":2393,"Speak":2394,"pare":2395,"Ġmortal":2396,"Ġreg":2397,"ĠBy":2398,"ĠLe":2399,"Ġalmost":2400,"Ġmoon":2401,"PAROLLES":2402,"over":2403,"Ġbro":2404,"Ġforb":2405,"urse":2406,"Ġsoft":2407,"ardin":2408,"Ġslain":2409,"Ġsense":2410,"BAN":2411,"Must":2412,"PAL":2413,"UT":2414,"Ġwild":2415,"Ġlow":2416,"Ġemp":2417,"ĠPar":2418,"ESUS":2419,"ESAR":2420,"LOW":2421,"Ġalready":2422,"ĠEPH":2423,"AMON":2424,"liver":2425,"Ġtrou":2426,"Ġfeast":2427,"PALAMON":2428,"ĠEPHESUS":2429,"Ġhide":2430,"Ġpu":2431,"set":2432,"Their":2433,"Ġoffend":2434,"Ġmarried":2435,"FFOLK":2436,"CAESAR":2437,"Ġwithal":2438,"CASSIUS":2439,"Ġmurder":2440,"SUFFOLK":2441,"SHALLOW":2442,"FORD":2443,"rel":2444,"Ġbur":2445,"Ġbond":2446,"ench":2447,"Ġinter":2448,"Ġbecome":2449,"alm":2450,"Ġvile":2451,"umb":2452,"Ġwars":2453,"Ah":2454,"GR":2455,"IER":2456,"ught":2457,"Ġheir":2458,"Ġreceive":2459,"Ġsworn":2460,"Ġras":2461,"cience":2462,"Ġbreast":2463,"gry":2464,"pes":2465,"Ġmount":2466,"llent":2467,"Ġdire":2468,"Ġhaving":2469,"ution":2470,"oop":2471,"pped":2472,"Ġscar":2473,"Ġheavens":2474,"Ġsoldiers":2475,"BENE":2476,"ired":2477,"Ġty":2478,"Ġshi":2479,"Ġbook":2480,"Ġbeast":2481,"Ġready":2482,"Ġshad":2483,"ĠPED":2484,"Ġconst":2485,"ĠFl":2486,"Before":2487,"Ġgrie":2488,"Ġgives":2489,"BENEDICK":2490,"ĠPEDRO":2491,"PORT":2492,"Such":2493,"cher":2494,"cus":2495,"eem":2496,"ron":2497,"Ġid":2498,"Ġmot":2499,"ARC":2500,"Ġspeaks":2501,"Ġwrit":2502,"Ġadd":2503,"Ġrage":2504,"Ġdeny":2505,"Ġsuffer":2506,"PORTIA":2507,"SIC":2508,"TRO":2509,"night":2510,"Ġwound":2511,"etch":2512,"ird":2513,"ashi":2514,"Ġsudden":2515,"astard":2516,"empt":2517,"Ġprithee":2518,"Ġdisg":2519,"ondon":2520,"ILUS":2521,"ITE":2522,"Ġbegin":2523,"Ġdread":2524,"ĠCassio":2525,"Ġbattle":2526,"TITUS":2527,"ARCITE":2528,"TROILUS":2529,"Away":2530,"CUS":2531,"Tell":2532,"ny":2533,"rist":2534,"Ġdish":2535,"Ġind":2536,"ĠLondon":2537,"Ġjest":2538,"Ġoffice":2539,"Ġkingdom":2540,"Ġslave":2541,"Ġpriv":2542,"ĠMajesty":2543,"AD":2544,"FL":2545,"cri":2546,"hind":2547,"mand":2548,"tain":2549,"Ġba":2550,"Ġble":2551,"Ġdu":2552,"staff":2553,"ĠServ":2554,"Ġthanks":2555,"ĠTit":2556,"ĠED":2557,"Ġabove":2558,"Ġpassion":2559,"HOR":2560,"ffect":2561,"Ġmist":2562,"Ġcross":2563,"ened":2564,"ORLAND":2565,"ISABELLA":2566,"ĠEDWARD":2567,"nk":2568,"Ġve":2569,"Ġeither":2570,"Ġliving":2571,"ĠAs":2572,"osed":2573,"Ġstrike":2574,"Sweet":2575,"EW":2576,"KENT":2577,"MAL":2578,"ience":2579,"ting":2580,"Ġform":2581,"Ġrel":2582,"ENCE":2583,"Ġloving":2584,"rust":2585,"aken":2586,"Ġtruly":2587,"ĠJul":2588,"ATO":2589,"Ġinstru":2590,"Ġpretty":2591,"BUS":2592,"BUR":2593,"IET":2594,"Ġfat":2595,"Ġliber":2596,"Ġsever":2597,"ĠHis":2598,"antage":2599,"othing":2600,"Ġabs":2601,"claim":2602,"Ġservant":2603,"LUCIUS":2604,"Ġletters":2605,"hilst":2606,"Pr":2607,"Pro":2608,"POL":2609,"aith":2610,"but":2611,"Ġ(":2612,"Ġmorrow":2613,"Ġob":2614,"Ġpap":2615,"Ġstru":2616,"Ġkings":2617,"ANG":2618,"asters":2619,"ĠTimon":2620,"Ġhonourable":2621,"bey":2622,"Stand":2623,"Ġchildren":2624,"ĠClaud":2625,"undred":2626,"LEONTES":2627,"JULIET":2628,"Yea":2629,"ging":2630,"ict":2631,"oured":2632,"Ġlaugh":2633,"alstaff":2634,"resh":2635,"Ġloved":2636,"Ġchamber":2637,"Ġaffection":2638,"Ġseems":2639,"Ġresol":2640,"Ġspirits":2641,"Ġoften":2642,"Peace":2643,"Ġmal":2644,"isf":2645,"Ġforce":2646,"right":2647,"alb":2648,"ilus":2649,"artius":2650,"ĠGood":2651,"Ġanything":2652,"Ġpride":2653,"Ġconscience":2654,"ĠAttend":2655,"PIST":2656,"ler":2657,"Ġbow":2658,"Ġfam":2659,"Ġpit":2660,"Ġgot":2661,"ĠPom":2662,"umph":2663,"Ġwhole":2664,"PISTOL":2665,"GON":2666,"ION":2667,"VIOL":2668,"via":2669,"will":2670,"Ġfashi":2671,"Ġcase":2672,"enge":2673,"Ġdeeds":2674,"Ġgod":2675,"Ġwouldst":2676,"ĠRos":2677,"THES":2678,"ICLES":2679,"Ġunderstand":2680,"Ġlordship":2681,"Ġfortunes":2682,"PERICLES":2683,"VIOLA":2684,"ACH":2685,"ern":2686,"Ġlim":2687,"ancy":2688,"Ġeffect":2689,"ĠHigh":2690,"hens":2691,"Ġpoison":2692,"ations":2693,"Ġmarriage":2694,"Ġcalled":2695,"ĠRomeo":2696,"Ġsecret":2697,"LEONATO":2698,"ardinal":2699,"ORLANDO":2700,"GEN":2701,"under":2702,"Ġag":2703,"itter":2704,"ingham":2705,"Ġbehind":2706,"ĠPro":2707,"Ġsouls":2708,"Ġcheer":2709,"BOT":2710,"Ġsecond":2711,"ĠRoom":2712,"THESEUS":2713,"De":2714,"fully":2715,"Ġfing":2716,"arum":2717,"Ġhundred":2718,"Being":2719,"Ġwitness":2720,"IANA":2721,"Ġtreason":2722,"OLIVIA":2723,"IMOGEN":2724,"Ġhurt":2725,"ĠClaudio":2726,"PA":2727,"SP":2728,"SPE":2729,"bb":2730,"den":2731,"my":2732,"Ġfill":2733,"ited":2734,"Ġdied":2735,"ANS":2736,"ĠWell":2737,"iew":2738,"fere":2739,"ument":2740,"Ġoffence":2741,"Ġlabour":2742,"bled":2743,"Ġpossess":2744,"Ġacqu":2745,"SICINIUS":2746,"SPEED":2747,"more":2748,"ĠYet":2749,"Ġtale":2750,"Ġobs":2751,"Ġpain":2752,"Ġpost":2753,"Ġeas":2754,"vern":2755,"ĠCap":2756,"ieu":2757,"Ġconqu":2758,"ĠFortune":2759,"ĠTherefore":2760,"Ġenemies":2761,"PROS":2762,"YM":2763,"uri":2764,"Ġtent":2765,"Ġmir":2766,"Ġhost":2767,"Ġdeliver":2768,"arence":2769,"Ġparts":2770,"Ġheads":2771,"Ġchur":2772,"Ġchance":2773,"PERO":2774,"PROSPERO":2775,".âĢĻ":2776,"cuse":2777,"su":2778,"Ġteach":2779,"Ġwood":2780,"Ġissue":2781,"Ġreb":2782,"ELO":2783,"Ġalong":2784,"Ġoffer":2785,"Ġadm":2786,"Ġmighty":2787,"Ġshows":2788,"uffolk":2789,"ĠChrist":2790,"ANGELO":2791,"PAGE":2792,"ient":2793,"pin":2794,"Ġut":2795,"Ġsho":2796,"Ġdrown":2797,"anc":2798,"Ġgift":2799,"raw":2800,"ENOB":2801,"Ġlov":2802,"ĠSEN":2803,"ERN":2804,"ARBUS":2805,"Ġunk":2806,"Ġlonger":2807,"Ġpalace":2808,"Ġladies":2809,"ĠHelen":2810,"Ġfashion":2811,"ENOBARBUS":2812,"eks":2813,"ners":2814,"ĠYour":2815,"Ġsim":2816,"ises":2817,"Ġcru":2818,"arl":2819,"Ġhealth":2820,"Ġvow":2821,"CHAR":2822,"Ġbears":2823,"uckingham":2824,"OLDIER":2825,"Ġtitle":2826,"Con":2827,"cal":2828,"Ġer":2829,"ina":2830,"Ġfive":2831,"eding":2832,"ety":2833,"ider":2834,"Ġlion":2835,"Ġshar":2836,"ANCE":2837,"ĠCount":2838,"ĠFalstaff":2839,"ĠRoman":2840,"Ġjo":2841,"ĠNor":2842,"Ġbuy":2843,"twas":2844,"CASSIO":2845,"Ġbirth":2846,"Ġrevere":2847,"Ġseal":2848,"ĠChar":2849,"ils":2850,"aunt":2851,"Ġquoth":2852,"ages":2853,"Ġleast":2854,"ATR":2855,"ATIO":2856,"ignior":2857,"Ġsmall":2858,"LUCIO":2859,"Ġvalour":2860,"Ġpatient":2861,"Ġsatisf":2862,"HORATIO":2863,"albot":2864,"Doth":2865,"EPH":2866,"GE":2867,"eg":2868,"ual":2869,"Ġfine":2870,"ram":2871,"ural":2872,"Ġnoise":2873,"ĠPAGE":2874,"Ġourselves":2875,"pey":2876,"Ġexec":2877,"Ġperceive":2878,"peror":2879,"Ġchoose":2880,"BOY":2881,"BRO":2882,"CELIA":2883,"eep":2884,"nown":2885,"Ġtakes":2886,"Ġdin":2887,"Ġforget":2888,"ĠAd":2889,"ĠMac":2890,"ĠPl":2891,"olph":2892,"Ġworship":2893,"Ġqual":2894,"Ġmarch":2895,"Ġcommend":2896,"Ġkept":2897,"Ġcurse":2898,"Ġdelight":2899,"ĠHighness":2900,"CTOR":2901,"GU":2902,"Hear":2903,"SIL":2904,"aves":2905,"con":2906,"gl":2907,"gin":2908,"iol":2909,"king":2910,"sp":2911,"Ġign":2912,"Ġsor":2913,"Ġocc":2914,"amlet":2915,"though":2916,"rupt":2917,"ify":2918,"ĠBuckingham":2919,"elcome":2920,"Ġworst":2921,"ume":2922,"Ġsafe":2923,"Ġwrite":2924,"Ġpresence":2925,"Ġpromise":2926,"Ġexcellent":2927,"Ġdepart":2928,"JULIA":2929,"head":2930,"Ġdull":2931,"ley":2932,"illes":2933,"ĠSuffolk":2934,"Ġangry":2935,"ĠAll":2936,"Ġvain":2937,"Ġview":2938,"ardolph":2939,"Ġflatter":2940,"Because":2941,"Ġfools":2942,"BEATR":2943,"BEATRICE":2944,"Lord":2945,"cil":2946,"Ġwed":2947,"Ġdri":2948,"arch":2949,"Ġbeard":2950,"Ġsole":2951,"ĠSil":2952,"Ġsucc":2953,"Ġblow":2954,"ĠTalbot":2955,"Ġproceed":2956,"URDER":2957,"PRINC":2958,"ĠLucius":2959,"Ġfaults":2960,"Ġentertain":2961,"Ġwisdom":2962,"Ġorder":2963,"Ġpaper":2964,"URDERER":2965,"ax":2966,"twere":2967,"Ġtor":2968,"Ġap":2969,"Ġfetch":2970,"ona":2971,"ract":2972,"Ġherself":2973,"eaven":2974,"ĠSal":2975,"Ġgoing":2976,"Ġround":2977,"Ġconsent":2978,"ledge":2979,"Ġvirtuous":2980,"Ġdangerous":2981,"ealous":2982,"Scene":2983,"PRINCESS":2984,"ABETH":2985,"Call":2986,"GH":2987,"SERVANT":2988,"gare":2989,"ude":2990,"ĠEL":2991,"read":2992,"onour":2993,"Ġthrow":2994,"leep":2995,"ĠHarry":2996,"Ġarg":2997,"ĠKate":2998,"ĠEm":2999,"IZABETH":3000,"Ġbrief":3001,"Ġquickly":3002,"TRAM":3003,"Ġlearn":3004,"ĠELIZABETH":3005,"FO":3006,"HO":3007,"pher":3008,"Ġsn":3009,"Ġwent":3010,"Ġfresh":3011,"Ġyear":3012,"ingly":3013,"ature":3014,"Ġforward":3015,"ARMA":3016,"Ġblind":3017,"BERTRAM":3018,"BASS":3019,"ĠClarence":3020,"Ġbanish":3021,"ĠTroilus":3022,"Ġviol":3023,"ARMADO":3024,"LEN":3025,"POM":3026,"TSP":3027,"broke":3028,"ĠAND":3029,"Ġmid":3030,"Ġbreat":3031,"Ġcarry":3032,"omer":3033,"Ġga":3034,"asion":3035,"ĠCor":3036,"iles":3037,"ĠMURDERER":3038,"ĠLook":3039,"ĠTy":3040,"icked":3041,"ANTUS":3042,"Ġtroth":3043,"EMANTUS":3044,"Ġgolden":3045,"PEY":3046,"BASTARD":3047,"APEMANTUS":3048,"ĠPompey":3049,"HOTSP":3050,"POMPEY":3051,"HOTSPUR":3052,"COUNT":3053,"NUR":3054,"joy":3055,"have":3056,"Ġhorn":3057,"Ġpure":3058,"anch":3059,"ato":3060,"Ġstar":3061,"ames":3062,"Ġamong":3063,"Ġquiet":3064,"osition":3065,"EDGAR":3066,"Ġgreen":3067,"COUNTESS":3068,"NURSE":3069,"Under":3070,"ey":3071,"ug":3072,"Ġwon":3073,"Ġwast":3074,"Ġda":3075,"anio":3076,"ilty":3077,"ĠMessenger":3078,"ĠFord":3079,"Ġjealous":3080,"Ġchast":3081,"Ġprayers":3082,"ĠAttendants":3083,"Dis":3084,"FEW":3085,"cre":3086,"Ġmed":3087,"onio":3088,"Ġdi":3089,"att":3090,"Ġinv":3091,"Ġevil":3092,"Ġforsw":3093,"Ġstud":3094,"Ġshake":3095,"Ġneigh":3096,"ĠThese":3097,"ago":3098,"LAFEW":3099,"SEBAST":3100,"Ġpract":3101,"Ġhumour":3102,"Ġbright":3103,"Ġprinces":3104,"Ġcruel":3105,"Ġsharp":3106,"omerset":3107,"SEBASTIAN":3108,"DE":3109,"Faith":3110,"PO":3111,"SA":3112,"SAL":3113,"ULET":3114,"gers":3115,"rs":3116,"ror":3117,"sper":3118,"inius":3119,"Ġfier":3120,"chief":3121,"ters":3122,"Ġnob":3123,"ĠMartius":3124,"Ġconce":3125,"Ġsaf":3126,"ATOR":3127,"ĠLords":3128,"ĠVen":3129,"Ġfoolish":3130,"Unless":3131,"itted":3132,"ĠTroy":3133,"Ġquarrel":3134,"ĠParis":3135,"DAU":3136,"ding":3137,"Ġmatch":3138,"Ġmasters":3139,"Ġbitter":3140,"Ġfrown":3141,"Ġdest":3142,"stance":3143,"Ġgates":3144,"Ġmeasure":3145,"ĠSomerset":3146,"ĠGive":3147,"OLPH":3148,"Ġprot":3149,"ARDOLPH":3150,"bert":3151,"Ġlaid":3152,"force":3153,"Ġfeed":3154,"Ġsteal":3155,"Ġblessed":3156,"Ġtemp":3157,"Ġawhile":3158,"BIAN":3159,"born":3160,"mbl":3161,"arge":3162,"chilles":3163,"Ġstood":3164,"ease":3165,"Ġanon":3166,"ĠHamlet":3167,"icul":3168,"Ġjew":3169,"Ġprov":3170,"Ġfearful":3171,"ĠAnother":3172,"Ġdrum":3173,"Ġsummer":3174,"gelo":3175,"ĠLeon":3176,"ĠRosal":3177,"Ġsorry":3178,"garet":3179,"Hold":3180,"your":3181,"Ġtaken":3182,"Ġpiece":3183,"Ġele":3184,"Ġstor":3185,"ided":3186,"used":3187,"ility":3188,"Ġknock":3189,"ĠLove":3190,"Ġblame":3191,"Ġthence":3192,"Ġenc":3193,"Ġalive":3194,"ĠĠĠĠĠĠĠĠĠĠĠĠ":3195,"Ġcalls":3196,"Ġwhore":3197,"Ġsmo":3198,"ĠBefore":3199,"Bet":3200,"EV":3201,"mn":3202,"oes":3203,"Ġver":3204,"Ġopin":3205,"vey":3206,"Ġshape":3207,"ĠSc":3208,"icles":3209,"Ġfled":3210,"Whom":3211,"Ġshadow":3212,"BROKE":3213,"Into":3214,"Never":3215,"OS":3216,"par":3217,"Ġsch":3218,"Ġsus":3219,"hallow":3220,"Ġlend":3221,"Ġinno":3222,"amb":3223,"ĠWith":3224,"ĠBardolph":3225,"Ġours":3226,"ONIUS":3227,"emn":3228,"Ġplague":3229,"ĠJove":3230,"Ġcontin":3231,"Ġremain":3232,"Ġglory":3233,"Ġcheek":3234,"Ġcheeks":3235,"Ġforgot":3236,"CAM":3237,"cul":3238,"og":3239,"rate":3240,"ts":3241,"Ġsort":3242,"Ġsland":3243,"Ġcir":3244,"Ġins":3245,"Ġref":3246,"ĠCardinal":3247,"ilia":3248,"Ġmanner":3249,"unning":3250,"Ġgreater":3251,"RIAN":3252,"Ġglass":3253,"ĠAngelo":3254,"Ġbanished":3255,"Ġcounter":3256,"THERS":3257,"BURY":3258,"NE":3259,"RIUS":3260,"afe":3261,"can":3262,"orge":3263,"Ġobey":3264,"Ġpains":3265,"Ġstop":3266,"ĠSaint":3267,"Ġswift":3268,"Ġproof":3269,"ĠEarl":3270,"ITES":3271,"REY":3272,"comes":3273,"TRANIO":3274,"LYS":3275,"Ġseveral":3276,"THERSITES":3277,"Ca":3278,"VIUS":3279,"Ġmut":3280,"Ġlist":3281,"Ġpet":3282,"Ġequ":3283,"ales":3284,"idow":3285,"ENS":3286,"amon":3287,"ANNE":3288,"ĠCle":3289,"iled":3290,"ĠHast":3291,"Ġfaire":3292,"ĠJew":3293,"ILL":3294,"ETRIUS":3295,"CAP":3296,"Ġarmy":3297,"airs":3298,"DEMETRIUS":3299,"Ġwretched":3300,"Ġpubl":3301,"Ġscarce":3302,"ĠServant":3303,"Fl":3304,"GA":3305,"ked":3306,"sed":3307,"woman":3308,"Ġwhi":3309,"Ġwounds":3310,"itors":3311,"Ġthro":3312,"Ġgross":3313,"Ġmel":3314,"Ġwealth":3315,"ĠShall":3316,"ĠMay":3317,"ĠGree":3318,"Ġamb":3319,"Ġconcl":3320,"ĠFri":3321,"Ġunw":3322,"Ġdeser":3323,"ĠVI":3324,"ĠVal":3325,"Ġbrain":3326,"ĠAntonio":3327,"Ġboys":3328,"ĠMargaret":3329,"REW":3330,"Ġcaptain":3331,"ADRIAN":3332,"Ġdinner":3333,"POST":3334,"Ġtry":3335,"Ġtaste":3336,"heart":3337,"Ġay":3338,"Ġcred":3339,"Ġgain":3340,"Ġinj":3341,"ANO":3342,"Ġvan":3343,"Ġshore":3344,"ORA":3345,"Ġhonesty":3346,"Ġrain":3347,"Ġmonth":3348,"REG":3349,"Ġprisoner":3350,"Ġcolour":3351,"HOSTESS":3352,"MALVOLIO":3353,"Ġignor":3354,"Ġsuccess":3355,"ĠANDREW":3356,"EVANS":3357,"Ab":3358,"app":3359,"his":3360,"Ġtear":3361,"Ġbroke":3362,"Ġbastard":3363,"Ġdif":3364,"Ġcre":3365,"enter":3366,"Ġgent":3367,"Ġbeha":3368,"Ġur":3369,"Ġstain":3370,"ĠSOLDIER":3371,"ĠAp":3372,"iful":3373,"ĠFORD":3374,"Ġgrand":3375,"perate":3376,"Ġdouble":3377,"Ġdefend":3378,"POLONIUS":3379,"Ġstruck":3380,"Des":3381,"FRI":3382,"Ind":3383,"Mine":3384,"Nothing":3385,"cite":3386,"ians":3387,"ker":3388,"loy":3389,"ollow":3390,"isho":3391,"Ġdies":3392,"Ġcatch":3393,"Ġthither":3394,"Ġhun":3395,"Ġheld":3396,"Ġweary":3397,"entine":3398,"Ġdeare":3399,"Ġgovern":3400,"Ġrough":3401,"Ġproper":3402,"Ġoffic":3403,"cient":3404,"oved":3405,"Ġprepare":3406,"ENTIO":3407,"Ġinstant":3408,"Ġtrumpet":3409,"pherd":3410,"FRIAR":3411,"Am":3412,"Cont":3413,"HUM":3414,"IP":3415,"IFF":3416,"Pl":3417,"phe":3418,"ĠU":3419,"Ġwert":3420,"Ġbare":3421,"erc":3422,"Ġpowers":3423,"anus":3424,"Ġdemand":3425,"Ġspring":3426,"Ġgoodly":3427,"aked":3428,"hys":3429,"Ġfolly":3430,"SEY":3431,"Ġfellows":3432,"Ġclear":3433,"Ġmotion":3434,"ference":3435,"Both":3436,"Bel":3437,"COST":3438,"Know":3439,"MOTH":3440,"VER":3441,"bus":3442,"gy":3443,"Ġed":3444,"Ġsong":3445,"Ġbrow":3446,"Ġfaint":3447,"Ġloud":3448,"Ġheat":3449,"edy":3450,"Ġintend":3451,"irgin":3452,"ĠAchilles":3453,"ellow":3454,"ĠMont":3455,"THUM":3456,"Ġrise":3457,"Ġexcuse":3458,"Without":3459,"Ġrose":3460,"Ġleg":3461,"Ġfears":3462,"BERLAND":3463,"Ġfalls":3464,"uthor":3465,"phin":3466,"ĠAthens":3467,"Ġwanton":3468,"HERM":3469,"Ġembrace":3470,"Ġcirc":3471,"hysic":3472,"COSTARD":3473,"THUMBERLAND":3474,"Bes":3475,"CYM":3476,"ob":3477,"zen":3478,"Ġes":3479,"Ġmethinks":3480,"Ġfi":3481,"Ġfame":3482,"vell":3483,"atri":3484,"Ġbecause":3485,"ays":3486,"Ġmere":3487,"usion":3488,"Ġdece":3489,"ifford":3490,"Ġfail":3491,"ĠMoor":3492,"ĠNay":3493,"Ġflowers":3494,"ways":3495,"Ġhearing":3496,"Ġprecious":3497,"Ġbestow":3498,"Ġdrawn":3499,"BELINE":3500,"Ġdrunk":3501,"THERINA":3502,"ĠCassius":3503,"Ġcondition":3504,"Ġrequest":3505,"centio":3506,"Ġwalls":3507,"KATHERINA":3508,"Ġforbid":3509,"Ġchurch":3510,"CYMBELINE":3511,"?âĢĶ":3512,"eat":3513,"him":3514,"ich":3515,"mon":3516,"mia":3517,"vail":3518,"Ġaught":3519,"Ġmour":3520,"Ġbones":3521,"Ġdance":3522,"Ġcorn":3523,"Ġcunning":3524,"Ġpun":3525,"ash":3526,"host":3527,"oling":3528,"Ġunf":3529,"Ġuns":3530,"ission":3531,"aced":3532,"ĠAnne":3533,"Ġhighness":3534,"Ġsteel":3535,"Ġcreature":3536,"NORTHUMBERLAND":3537,"Ġliberty":3538,"ĠSENATOR":3539,"TEN":3540,"YSS":3541,"dain":3542,"ize":3543,"ĠEx":3544,"Ġwicked":3545,"Ġdwell":3546,"ane":3547,"Ġstars":3548,"ĠSERVANT":3549,"Think":3550,"Ġrob":3551,"ILLO":3552,"Ġwits":3553,"Ġways":3554,"ULYSS":3555,"Ġmonst":3556,"Ġprincely":3557,"Ġborne":3558,"Ġsilver":3559,"otten":3560,"orthy":3561,"Ġjudgement":3562,"Ġprivate":3563,"ĠTitus":3564,"Ġopinion":3565,"olingbroke":3566,"ULYSSES":3567,"CK":3568,"EX":3569,"Lest":3570,"MUN":3571,"PUC":3572,"WOL":3573,"YLO":3574,"cing":3575,"rim":3576,"ys":3577,"isbury":3578,"Ġfru":3579,"itiz":3580,"Ġthreat":3581,"Ġbend":3582,"Ġaside":3583,"ander":3584,"ĠCy":3585,"ĠMen":3586,"ĠMAC":3587,"ESCAL":3588,"ĠLA":3589,"Ġneck":3590,"Ġhadst":3591,"Ġtrans":3592,"Ġrude":3593,"EDMUN":3594,"Ġpurse":3595,"Ġholds":3596,"Ġtrib":3597,"Ġcourtes":3598,"Ġmaiden":3599,"SHYLO":3600,"Ġchoice":3601,"Ġvisit":3602,"BOYET":3603,"ADRIANA":3604,"WOLSEY":3605,"ESCALUS":3606,"EDMUND":3607,"SHYLOCK":3608,"BRA":3609,"BARDOLPH":3610,"First":3611,"OU":3612,"Ġir":3613,"Ġship":3614,"Ġsix":3615,"Ġwine":3616,"orous":3617,"ators":3618,"utation":3619,"rius":3620,"ĠSpeak":3621,"ĠHu":3622,"ĠBolingbroke":3623,"ĠGe":3624,"ĠGu":3625,"Ġshouldst":3626,"Ġlegs":3627,"Ġcompl":3628,"DUFF":3629,"ĠPray":3630,"Ġtongues":3631,"Ġguilty":3632,"Ġrememb":3633,"Ġlearned":3634,"Ġterms":3635,"ĠPalace":3636,"ancholy":3637,"HUMUS":3638,"MON":3639,"Welcome":3640,"ĠThy":3641,"Ġfig":3642,"Ġdue":3643,"Ġow":3644,"Ġowe":3645,"Ġobed":3646,"Ġhunt":3647,"Ġeld":3648,"Ġsto":3649,"ERD":3650,"Ġspend":3651,"ards":3652,"auphin":3653,"CHESS":3654,"CHIMO":3655,"Ġenjoy":3656,"IACHIMO":3657,"Ġflower":3658,"Ġfoes":3659,"Ġrogue":3660,"Ġwherefore":3661,"Ġhonours":3662,"DUCHESS":3663,"Ġbeggar":3664,"Ġsmell":3665,"Stay":3666,"Ġpriest":3667,"MARIA":3668,"CLOTEN":3669,"Ġgrows":3670,"chance":3671,"POSTHUMUS":3672,"Indeed":3673,"After":3674,"Br":3675,"Fie":3676,"HE":3677,"HORT":3678,"Ne":3679,"beth":3680,"ining":3681,"Ġdry":3682,"Ġlarge":3683,"omed":3684,"Ġstory":3685,"Ġdebt":3686,"Ġancient":3687,"Ġvent":3688,"ĠBass":3689,"ONE":3690,"icious":3691,"Ġblows":3692,"Ġknowledge":3693,"Ġdism":3694,"Ġfoe":3695,"Ġleaves":3696,"Ġperform":3697,"Ġendure":3698,"Ġsmile":3699,"Ġstreet":3700,"Ġhumble":3701,"ĠBrit":3702,"Ġgreet":3703,"Ġpersu":3704,"Ġwinter":3705,"Ġwait":3706,"chant":3707,"ancaster":3708,"HORTENS":3709,"Hark":3710,"Made":3711,"Per":3712,"Unto":3713,"fer":3714,"thi":3715,"ued":3716,"uce":3717,"Ġbount":3718,"Ġce":3719,"Ġlest":3720,"Ġthunder":3721,"ĠIago":3722,"omorrow":3723,"ria":3724,"Ġyourselves":3725,"idius":3726,"ĠCan":3727,"Those":3728,"ĠBl":3729,"ĠLancaster":3730,"Ġconj":3731,"ĠDauphin":3732,"Ġsirrah":3733,"Ġquite":3734,"Within":3735,"Ġwrath":3736,"Ġclaim":3737,"Ġrare":3738,"Ġdrop":3739,"ishop":3740,"CR":3741,"Love":3742,"TIUS":3743,"TOU":3744,"after":3745,"jax":3746,"ĠQU":3747,"Ġcamp":3748,"Ġthird":3749,"Ġpol":3750,"Ġphysic":3751,"Ġgir":3752,"tern":3753,"Ġdeal":3754,"ĠCast":3755,"Ġmanners":3756,"STONE":3757,"CHSTONE":3758,"Ġgreatness":3759,"ILLES":3760,"Ġheavenly":3761,"ocks":3762,"Ġswords":3763,"ICKLY":3764,"Ġwrongs":3765,"ĠClifford":3766,"ROSALINE":3767,"Ġdamned":3768,"Ġkneel":3769,"ĠPalamon":3770,"Ġtrouble":3771,"Ġdirect":3772,"ACHILLES":3773,"ĠSalisbury":3774,"Ġsafety":3775,"TOUCHSTONE":3776,"ĠQUICKLY":3777,"AST":3778,"BOL":3779,"VIR":3780,"min":3781,"she":3782,"take":3783,"Ġaid":3784,"Ġfond":3785,"Ġod":3786,"Ġhor":3787,"lease":3788,"Ġmem":3789,"ident":3790,"Ġdeg":3791,"ĠSignior":3792,"ĠShallow":3793,"Ġvirgin":3794,"ĠDe":3795,"INGBROKE":3796,"Ġexpect":3797,"ĠJack":3798,"Ġcourage":3799,"acle":3800,"Ġimport":3801,"ĠHero":3802,"Ġemperor":3803,"Ġtyrant":3804,"ĠChristian":3805,"BASSANIO":3806,"Ġpublic":3807,"BOLINGBROKE":3808,"Great":3809,"IE":3810,"Me":3811,"PT":3812,"kin":3813,"wise":3814,"Ġsens":3815,"Ġwench":3816,"reed":3817,"Ġweap":3818,"Ġstuff":3819,"Ġrevol":3820,"urp":3821,"this":3822,"Ġanger":3823,"Ġspent":3824,"Ġnecess":3825,"ĠGentle":3826,"Ġmayst":3827,"istol":3828,"ATCH":3829,"Ġcontr":3830,"Ġkeeps":3831,"Ġadvantage":3832,"ERVING":3833,"Ġskill":3834,"angu":3835,"Ġdamn":3836,"JAQU":3837,"umberland":3838,"Ġidle":3839,"ĠCoriol":3840,"CAMILLO":3841,"ĠHastings":3842,"Ġmelancholy":3843,"ĠValentine":3844,"REGAN":3845,"Ere":3846,"IEL":3847,"dle":3848,"mit":3849,"mund":3850,"rat":3851,"ouds":3852,"oral":3853,"Ġfood":3854,"Ġfie":3855,"Ġfee":3856,"Ġcost":3857,"Ġnay":3858,"Ġheed":3859,"Ġheels":3860,"etrius":3861,"Ġmeant":3862,"ourse":3863,"Ġformer":3864,"road":3865,"END":3866,"Ġlover":3867,"emetrius":3868,"ĠDes":3869,"Ġproclaim":3870,"Ġdesires":3871,"Ġleis":3872,"orses":3873,"ounter":3874,"Ġthrone":3875,"CLIFF":3876,"ronic":3877,"Ġoccasion":3878,"Could":3879,"Lo":3880,"LORD":3881,"fl":3882,"iance":3883,"ras":3884,"Ġauthor":3885,"Ġfury":3886,"Ġcat":3887,"Ġlament":3888,"Ġnaught":3889,"Ġstart":3890,"Ġkins":3891,"ĠSen":3892,"ĠCom":3893,"Ġnose":3894,"Ġspite":3895,"arden":3896,"ical":3897,"ALBOT":3898,"allow":3899,"ĠTower":3900,"INGS":3901,"Ġmadness":3902,"Ġwhence":3903,"lip":3904,"Ġperfect":3905,"Ġbearing":3906,"Ġimag":3907,"Ġcompan":3908,"Ġguilt":3909,"Ġsometime":3910,"Ġoaths":3911,"Ġexpress":3912,"Ġthrice":3913,"Ġmalice":3914,"Ġjoin":3915,"Ġsolemn":3916,"HORTENSIO":3917,"ĠCastle":3918,"ASTINGS":3919,"Ad":3920,"FR":3921,"HASTINGS":3922,"Poor":3923,"SO":3924,"ex":3925,"mble":3926,"son":3927,"Ġtail":3928,"Ġwond":3929,"Ġborrow":3930,"orious":3931,"Ġcust":3932,"Ġpin":3933,"cend":3934,"Ġmeat":3935,"ads":3936,"Ġdec":3937,"Ġdoom":3938,"Ġknee":3939,"Ġvows":3940,"ĠGre":3941,"Ġshepherd":3942,"ĠFRI":3943,"ppy":3944,"Ġrans":3945,"Ġsail":3946,"Ġflood":3947,"Ġdesert":3948,"Ġbetray":3949,"Ġbrothers":3950,"ianca":3951,"Ġtrain":3952,"Ġvict":3953,"oteus":3954,"ĠJuliet":3955,"ĠMacbeth":3956,"Ġprotest":3957,"ĠRosalind":3958,"itizens":3959,"ĠGeorge":3960,"ERVINGMAN":3961,"ĠFRIEND":3962,"COM":3963,"Fair":3964,"ISTA":3965,"LANCE":3966,"Master":3967,"Qu":3968,"UELL":3969,"WER":3970,"While":3971,"ald":3972,"dem":3973,"fall":3974,"jo":3975,"ta":3976,"yond":3977,"Ġtune":3978,"Ġben":3979,"Ġfought":3980,"Ġdust":3981,"Ġcure":3982,"Ġcried":3983,"aring":3984,"Ġhid":3985,"Ġtop":3986,"Ġones":3987,"Ġdeceive":3988,"ĠAlex":3989,"ified":3990,"ĠWest":3991,"elt":3992,"ffic":3993,"BAPT":3994,"awd":3995,"CORN":3996,"ointed":3997,"Ġbroken":3998,"FLUELL":3999,"Ġfinger":4000,"Ġutter":4001,"Ġschool":4002,"Ġleisure":4003,"BAPTISTA":4004,"FLUELLEN":4005,"Methinks":4006,"NIA":4007,"TOL":4008,"YCUS":4009,"folk":4010,"gle":4011,"vish":4012,"Ġwidow":4013,"Ġbas":4014,"Ġfle":4015,"Ġfew":4016,"Ġduke":4017,"Ġyea":4018,"Ġthief":4019,"Ġpot":4020,"Ġgate":4021,"Ġmend":4022,"Ġreign":4023,"ords":4024,"Ġlovers":4025,"ĠPo":4026,"ĠPri":4027,"ĠWATCH":4028,"ĠOur":4029,"ump":4030,"Ġchall":4031,"Ġtwice":4032,"ILER":4033,"Ġbreed":4034,"ATIAN":4035,"Ġclouds":4036,"Ġslow":4037,"Ġrepent":4038,"Ġmonster":4039,"Ġgriefs":4040,"AUTOL":4041,"ĠArcite":4042,"Ġmurde":4043,"Ġforest":4044,"rers":4045,"Ġcorrupt":4046,"Ġsighs":4047,"Ġemploy":4048,"GRATIAN":4049,"Ġdreadful":4050,"enedick":4051,"Ġsimple":4052,"FOOL":4053,"Ġfruit":4054,"Ġcourtesy":4055,"AUTOLYCUS":4056,"GRATIANO":4057,"IGO":4058,"eous":4059,"iving":4060,"pro":4061,"Ġwag":4062,"Ġfancy":4063,"Ġport":4064,"cked":4065,"Ġseat":4066,"Ġloath":4067,"ĠSold":4068,"INS":4069,"ĠBianca":4070,"ĠTake":4071,"Ġthinks":4072,"Ġwherein":4073,"Ġlooked":4074,"Ġparticul":4075,"Ġappare":4076,"ĠProteus":4077,"Ġfollows":4078,"Ġtreasure":4079,"Ġaffairs":4080,"Ġwhether":4081,"ĠPercy":4082,"Ġapproach":4083,"ĠSilvia":4084,"Ġargument":4085,"Caesar":4086,"Ġmonstrous":4087,"COMINIUS":4088,"Bl":4089,"VOST":4090,"WO":4091,"ault":4092,"hor":4093,"hum":4094,"oot":4095,"there":4096,"ua":4097,"ising":4098,"Ġcries":4099,"Ġled":4100,"enance":4101,"Ġstone":4102,"Ġstol":4103,"ENES":4104,"Ġseason":4105,"ĠSERVINGMAN":4106,"Ġknife":4107,"Ġamaz":4108,"ĠRe":4109,"Ġoutward":4110,"cian":4111,"Ġdesperate":4112,"Wherein":4113,"ĠCaius":4114,"ĠQu":4115,"Ġsilence":4116,"PROVOST":4117,"Twas":4118,"JAILER":4119,"Ġsubjects":4120,"GHTER":4121,"DAUGHTER":4122,"ĠLeonato":4123,"ĠFriar":4124,"gypt":4125,"Ġfiend":4126,"CUT":4127,"HOL":4128,"ITH":4129,"aces":4130,"ination":4131,"isp":4132,"Ġfain":4133,"Ġdign":4134,"Ġlen":4135,"Ġpict":4136,"Ġbell":4137,"Ġweight":4138,"rain":4139,"Ġdoing":4140,"Ġseven":4141,"UST":4142,"Ġvenge":4143,"que":4144,"Ġconc":4145,"ĠTell":4146,"Ġunless":4147,"Ġabroad":4148,"Ġbegins":4149,"MARCUS":4150,"Ġbids":4151,"Ġreasons":4152,"Ġbride":4153,"Ġminister":4154,"Ġcolours":4155,"Ġeasy":4156,"POINS":4157,"BEN":4158,"Cl":4159,"Dost":4160,"GRU":4161,"MIO":4162,"MIAN":4163,"balt":4164,"house":4165,"ib":4166,"Ġmild":4167,"Ġwings":4168,"Ġbig":4169,"Ġlangu":4170,"Ġnumber":4171,"enet":4172,"arus":4173,"Ġhorses":4174,"ances":4175,"omach":4176,"Ġease":4177,"Ġstones":4178,"ERIUS":4179,"ĠPet":4180,"ĠWould":4181,"STEPH":4182,"Ġcomb":4183,"Ġgoodness":4184,"elve":4185,"eless":4186,"Ġsac":4187,"ĠEgypt":4188,"ĠNorth":4189,"eeth":4190,"ressid":4191,"Ġwhereof":4192,"Ġtrial":4193,"MARINA":4194,"Ġweeping":4195,"opat":4196,"Ġdispatch":4197,"ottom":4198,"Ġawake":4199,"Ġprofess":4200,"CHARMIAN":4201,"Ġcircum":4202,"BENVOLIO":4203,"GRUMIO":4204,"STEPHANO":4205,"some":4206,"Ġtree":4207,"Ġteeth":4208,"Ġwide":4209,"Ġwhilst":4210,"Ġwoes":4211,"Ġline":4212,"Ġpaid":4213,"Ġtomb":4214,"omp":4215,"Ġmelt":4216,"Ġstep":4217,"urst":4218,"Ġdoors":4219,"ĠCon":4220,"ERTES":4221,"iling":4222,"ĠHouse":4223,"ĠAjax":4224,"ĠPy":4225,"ĠFarewell":4226,"ĠDemetrius":4227,"Ġchain":4228,"agger":4229,"LAERTES":4230,"Ġwarlike":4231,"ĠVol":4232,"Ġremedy":4233,"ISBURY":4234,"acher":4235,"Ġguest":4236,"LUCENTIO":4237,"Ġmiser":4238,"Ġlawful":4239,"Ġhappiness":4240,"hamber":4241,"Ġtowards":4242,"Ġknees":4243,"MERCUT":4244,"Ġbreathe":4245,"Ġforsworn":4246,"SALISBURY":4247,"opatra":4248,"MERCUTIO":4249,"MED":4250,"go":4251,"oke":4252,"where":4253,"Ġant":4254,"Ġsau":4255,"Ġwont":4256,"llo":4257,"ester":4258,"Ġhit":4259,"Ġhap":4260,"ĠSe":4261,"ĠSh":4262,"ARINE":4263,"ĠAg":4264,"ĠPol":4265,"ĠBenedick":4266,"ĠLy":4267,"ieur":4268,"Ġsheep":4269,"THARINE":4270,"Ġjoint":4271,"Ġunl":4272,"Ġeng":4273,"Ġhopes":4274,"Ġdisdain":4275,"oses":4276,"Ġdeserve":4277,"Ġearn":4278,"CADE":4279,"Stri":4280,"Ġminds":4281,"IDIUS":4282,"Ġcrowns":4283,"Ġdiscourse":4284,"ouchs":4285,"ĠEdmund":4286,"avin":4287,"DIOMED":4288,"Ġforgive":4289,"Ġempt":4290,"Ġgallant":4291,"Ġwretch":4292,"Art":4293,"KATHARINE":4294,"urious":4295,"Ġmirth":4296,"Ġexecution":4297,"ĠEmilia":4298,"Ġransom":4299,"DIOMEDES":4300,"Bring":4301,"Lea":4302,"OW":4303,"OPH":4304,"Put":4305,"Pardon":4306,"SON":4307,"Too":4308,"Whilst":4309,"iest":4310,"iomed":4311,"Ġable":4312,"Ġaud":4313,"Ġsqu":4314,"Ġfeet":4315,"itude":4316,"ences":4317,"Ġthick":4318,"omas":4319,"Ġstomach":4320,"Ġrece":4321,"Ġangel":4322,"rum":4323,"Ġfaces":4324,"ĠMars":4325,"romio":4326,"Ġwash":4327,"ĠDian":4328,"Ġalways":4329,"Ġappears":4330,"Ġaffect":4331,"Ġwomb":4332,"Ġlived":4333,"Ġtriumph":4334,"Ġkindness":4335,"IDERIUS":4336,"Ġaccount":4337,"pense":4338,"Ġtempt":4339,"Ġsupper":4340,"VOLUM":4341,"upid":4342,"Ġthrive":4343,"Ġrank":4344,"Ġobject":4345,"ĠNorfolk":4346,"Ġquality":4347,"GUIDERIUS":4348,"Ġjewel":4349,"Ġdearest":4350,"ĠMACBETH":4351,"MONT":4352,"Ġmemory":4353,"demona":4354,"FOLK":4355,"Keep":4356,"Save":4357,"TALBOT":4358,"awn":4359,"off":4360,"vours":4361,"Ġaim":4362,"iny":4363,"Ġwol":4364,"Ġwives":4365,"Ġbuck":4366,"Ġniece":4367,"Ġyonder":4368,"Ġhill":4369,"Ġpress":4370,"Ġgown":4371,"ating":4372,"idings":4373,"Ġsol":4374,"aine":4375,"roy":4376,"ĠSw":4377,"ĠCressid":4378,"thy":4379,"ĠPand":4380,"Ġunb":4381,"RODER":4382,"Ġenvy":4383,"ĠKent":4384,"Ġflies":4385,"Ġfright":4386,"Ġrid":4387,"BERT":4388,"Still":4389,"Ġnatural":4390,"Ġconsider":4391,"ULINA":4392,"Sirrah":4393,"Ġkilled":4394,"Ġburied":4395,"ĠMarcus":4396,"Ġsingle":4397,"Ġsooner":4398,"Ġpleased":4399,"MACDUFF":4400,"Ġpossible":4401,"ĠPericles":4402,"Ġtrumpets":4403,"volio":4404,"True":4405,"Ġextrem":4406,"NORFOLK":4407,"PAULINA":4408,"Ġconquer":4409,"Ġunkind":4410,"ĠCharles":4411,"Ġneighbour":4412,"Ġslander":4413,"ĠMontague":4414,"Ġremembrance":4415,"JAQUES":4416,"Ġcustom":4417,"USTICE":4418,"RODERIGO":4419,"FA":4420,"PIS":4421,"Somet":4422,"Tomorrow":4423,"act":4424,"bear":4425,"Ġsal":4426,"Ġmain":4427,"Ġmaking":4428,"Ġwaste":4429,"rent":4430,"Ġbab":4431,"Ġcuck":4432,"enant":4433,"Ġthrust":4434,"Ġhol":4435,"Ġpack":4436,"otect":4437,"omans":4438,"imer":4439,"ades":4440,"Ġasleep":4441,"Ġloyal":4442,"ĠCam":4443,"ARIUS":4444,"Ġallow":4445,"ĠHave":4446,"ĠMort":4447,"ĠDiomed":4448,"THUR":4449,"Ġhollow":4450,"IAM":4451,"ptain":4452,"Ġroot":4453,"Ġtwelve":4454,"Ġplead":4455,"Ġclot":4456,"Ġadieu":4457,"ANDER":4458,"ctions":4459,"EMIO":4460,"aintain":4461,"Ġcharity":4462,"uteous":4463,"Ġhanged":4464,"BELARIUS":4465,"Ġintent":4466,"Two":4467,"Ġundone":4468,"GREMIO":4469,"Ġconstant":4470,"Prithee":4471,"umphrey":4472,"SILVIA":4473,"Ġstudy":4474,"Ġcounterfeit":4475,"atrice":4476,"ĠNorthumberland":4477,"avinia":4478,"OPHELIA":4479,"PISANIO":4480,"AAR":4481,"POLI":4482,"Rem":4483,"WD":4484,"WALL":4485,"XENES":4486,"iam":4487,"ogue":4488,"ted":4489,"which":4490,"Ġbark":4491,"iter":4492,"Ġdet":4493,"Ġdeter":4494,"Ġcal":4495,"Ġnurse":4496,"Ġnaked":4497,"Ġhoney":4498,"Ġgrown":4499,"ridge":4500,"rand":4501,"urg":4502,"ĠSC":4503,"Ġlovely":4504,"ĠDid":4505,"ĠOn":4506,"Ġsack":4507,"Ġprosper":4508,"Ġdisple":4509,"Ġlean":4510,"Ġclo":4511,"Ġwitch":4512,"Ġcompass":4513,"Ġarmour":4514,"Ġslaughter":4515,"Ġdeadly":4516,"Ġseeming":4517,"BAWD":4518,"Ġcountenance":4519,"Ġmaids":4520,"Ġmodest":4521,"Ġtyran":4522,"Ġdishonour":4523,"Ġacquaint":4524,"Ġreverend":4525,"LENDER":4526,"Ġstorm":4527,"Ġencounter":4528,"Ġpunish":4529,"HECTOR":4530,"VOLUMNIA":4531,"AARON":4532,"POLIXENES":4533,"?âĢĿ":4534,"Either":4535,"Heaven":4536,"Le":4537,"Sp":4538,"SET":4539,"SLENDER":4540,"apt":4541,"bes":4542,"cle":4543,"col":4544,"cats":4545,"iar":4546,"ivil":4547,"nat":4548,"pass":4549,"ton":4550,"vious":4551,"wixt":4552,"Ġtable":4553,"Ġsits":4554,"Ġmessenger":4555,"Ġbred":4556,"Ġfirm":4557,"onius":4558,"Ġcher":4559,"Ġpainted":4560,"Ġincl":4561,"Ġinvent":4562,"utenant":4563,"chio":4564,"Ġeag":4565,"Ġweigh":4566,"Ġspare":4567,"ctav":4568,"ĠMal":4569,"ĠPistol":4570,"Ġshrew":4571,"ember":4572,"icy":4573,"ALBAN":4574,"ĠDromio":4575,"ody":4576,"CHIE":4577,"Ġprod":4578,"ĠJUSTICE":4579,"Ġflight":4580,"Ġwarm":4581,"thello":4582,"Ġchief":4583,"Ġcoz":4584,"Ġtraitors":4585,"Ġguess":4586,"Alarum":4587,"Ġmeeting":4588,"Ġwinds":4589,"itting":4590,"Ġspoken":4591,"Show":4592,"Ġbird":4593,"Ġdrops":4594,"Ġrascal":4595,"Ġtempest":4596,"Ġequal":4597,"Flourish":4598,"Ġgirl":4599,"ĠDesdemona":4600,"ĠSoldiers":4601,"Ġleng":4602,"ĠSCENE":4603,"ALBANY":4604,"CHIEF":4605,"AJA":4606,"Might":4607,"RENCE":4608,"WRENCE":4609,"aul":4610,"father":4611,"ws":4612,"Ġeter":4613,"Ġtidings":4614,"Ġfish":4615,"Ġdig":4616,"omin":4617,"edious":4618,"Ġstore":4619,"raid":4620,"Ġsees":4621,"ĠSay":4622,"ĠCupid":4623,"ruchio":4624,"ĠMark":4625,"ĠBel":4626,"Ġshut":4627,"STER":4628,"inds":4629,"ivered":4630,"Ġblush":4631,"Ġswell":4632,"pping":4633,"Ġusurp":4634,"ARDIN":4635,"Ġcloud":4636,"Ġprevail":4637,"Ġruin":4638,"DUMA":4639,"Ġmerit":4640,"thee":4641,"Ġboot":4642,"twixt":4643,"Ġdenied":4644,"Ġcondu":4645,"Ġdespite":4646,"Ġdespair":4647,"asket":4648,"ĠCapul":4649,"Ġinnocent":4650,"Ġcredit":4651,"ĠLAWRENCE":4652,"Ġparticular":4653,"ouchsafe":4654,"AJAX":4655,"DUMAINE":4656,"BAL":4657,"DOL":4658,"FERN":4659,"GENTLEMAN":4660,"NON":4661,"OX":4662,"OFERN":4663,"cis":4664,"ope":4665,"shall":4666,"what":4667,"Ġing":4668,"Ġtou":4669,"Ġmil":4670,"Ġwake":4671,"hand":4672,"Ġband":4673,"Ġbought":4674,"Ġbawd":4675,"ision":4676,"Ġfart":4677,"Ġdumb":4678,"Ġcivil":4679,"arm":4680,"Ġhers":4681,"Ġswore":4682,"ALD":4683,"ĠDon":4684,"Ġused":4685,"Ġplot":4686,"igence":4687,"Ġbrook":4688,"AMEM":4689,"Ġheav":4690,"Ġperil":4691,"Ġprevent":4692,"Ġimage":4693,"ney":4694,"onsieur":4695,"Ġdaughters":4696,"Ġtrick":4697,"Ġtreacher":4698,"AGAMEM":4699,"Ġmeaning":4700,"Ġstreets":4701,"Ġhumbly":4702,"Ġsounds":4703,"ĠThomas":4704,"Ġfreely":4705,"Ġvoices":4706,"Ġdivine":4707,"Ġreceived":4708,"Ġdisgu":4709,"Ġdisgrace":4710,"Ġabsence":4711,"ĠCleopatra":4712,"ronicus":4713,"Ġbenef":4714,"CORNWALL":4715,"HOLOFERN":4716,"Ġsacred":4717,"otector":4718,"AGAMEMNON":4719,"HOLOFERNES":4720,"Bid":4721,"Hast":4722,"Hel":4723,"Hang":4724,"None":4725,"SOM":4726,"Turn":4727,"sing":4728,"zard":4729,"Ġtedious":4730,"Ġapt":4731,"Ġbud":4732,"Ġfurn":4733,"arn":4734,"Ġhig":4735,"Ġbecomes":4736,"iment":4737,"rible":4738,"Ġrealm":4739,"Ġrenown":4740,"verse":4741,"Ġseas":4742,"Ġlod":4743,"Ġnobl":4744,"ĠHa":4745,"ĠHumphrey":4746,"ĠAre":4747,"ĠĠĠĠĠ":4748,"ĠMil":4749,"Ġvice":4750,"ĠPis":4751,"Ġconvey":4752,"Ġtherein":4753,"ĠOthello":4754,"ortens":4755,"Ġbrings":4756,"Myself":4757,"Ġabuse":4758,"Ġride":4759,"âĢĿ.":4760,"ETER":4761,"Ġperj":4762,"Ġcommission":4763,"Ġimper":4764,"Ġbegg":4765,"ethought":4766,"formed":4767,"Ġturns":4768,"sander":4769,"Ġstream":4770,"ĠToby":4771,"ĠLucentio":4772,"ĠHermia":4773,"Ġtemper":4774,"Ġregard":4775,"Ġburden":4776,"ĠVenice":4777,"Ġearnest":4778,"Ġetern":4779,"Each":4780,"Gentle":4781,"GBER":4782,"HU":4783,"Mark":4784,"Wilt":4785,"af":4786,"ipe":4787,"pit":4788,"rough":4789,"val":4790,"Ġsalt":4791,"Ġmiss":4792,"Ġfun":4793,"Ġfix":4794,"Ġnine":4795,"arqu":4796,"Ġpound":4797,"Ġhabit":4798,"illo":4799,"Ġreck":4800,"Ġsore":4801,"ĠSat":4802,"ĠCal":4803,"ĠBurg":4804,"ĠLa":4805,"Ġshine":4806,"ement":4807,"oths":4808,"hered":4809,"ption":4810,"Ġexam":4811,"Ġalas":4812,"ĠNurse":4813,"Ġearly":4814,"lesome":4815,"Ġprey":4816,"Ġbegu":4817,"Ġcover":4818,"Ġturned":4819,"Ġbelow":4820,"undy":4821,"DOGBER":4822,"Ġlands":4823,"Ġbirds":4824,"Ġburning":4825,"Ġestate":4826,"Ġprophe":4827,"Ġforbear":4828,"Ġrash":4829,"Ġsuddenly":4830,"Ġhorns":4831,"Ġfiery":4832,"ILLIAM":4833,"CAPULET":4834,"Besides":4835,"CLIFFORD":4836,"ĠPriam":4837,"Ġpicture":4838,"Ġvengeance":4839,"ĠMortimer":4840,"HUBERT":4841,"ĠBurgundy":4842,"DOGBERRY":4843,",]":4844,"CI":4845,"Get":4846,"Very":4847,"WILLIAM":4848,"YER":4849,"ZAL":4850,"cap":4851,"draw":4852,"mond":4853,"na":4854,"Ġtort":4855,"Ġmaintain":4856,"Ġcool":4857,"Ġloose":4858,"Ġghost":4859,"Ġbew":4860,"utes":4861,"Ġev":4862,"ERIL":4863,"ĠPost":4864,"EST":4865,"ĠWIT":4866,"ĠBer":4867,"ĠOctav":4868,"ĠRomans":4869,"Ġsaying":4870,"Ġung":4871,"ĠKather":4872,"Ġgreatest":4873,"ustice":4874,"Ġimm":4875,"Ġrule":4876,"Ġcomplex":4877,"Ġpurcha":4878,"ĠProtector":4879,"Ġchide":4880,"Ġstranger":4881,"Ġsometimes":4882,"Ġsky":4883,"Ġgroan":4884,"Ġgriev":4885,"GONZAL":4886,"GONERIL":4887,"ĠTybalt":4888,"Ġdares":4889,"Ġsuspect":4890,"Ġthroat":4891,"Believe":4892,"Ġkinsman":4893,"Ġvictory":4894,"Ġempty":4895,"FABIAN":4896,"ĠWITCH":4897,"GONZALO":4898,"ATHER":4899,"Bear":4900,"CU":4901,"IBAN":4902,"King":4903,"Makes":4904,"Set":4905,"Unt":4906,"dy":4907,"eld":4908,"eas":4909,"fidius":4910,"good":4911,"oard":4912,"shi":4913,"vi":4914,"Ġ.":4915,"Ġtaught":4916,"hest":4917,"Ġsy":4918,"Ġsnow":4919,"Ġwing":4920,"Ġwra":4921,"reak":4922,"haps":4923,"Ġfro":4924,"Ġdim":4925,"Ġdying":4926,"Ġdurst":4927,"Ġcup":4928,"Ġnumb":4929,"Ġthie":4930,"aded":4931,"Ġstab":4932,"Ġliv":4933,"roach":4934,"ĠCAP":4935,"ĠAu":4936,"Ġspe":4937,"Ġshallow":4938,"Ġshed":4939,"Ġsweat":4940,"elia":4941,"ROSS":4942,"ĠKATHER":4943,"Ġsav":4944,"IRAND":4945,"ĠEp":4946,"Ġends":4947,"Ġglorious":4948,"ertes":4949,"Ġeverything":4950,"forth":4951,"ĠPrin":4952,"Ġprize":4953,"Thanks":4954,"ails":4955,"MARTIUS":4956,"atience":4957,"Ġretire":4958,"Ġassure":4959,"Ġvirtues":4960,"Ġdischar":4961,"Ġmischief":4962,"Ġboast":4963,"DOCTOR":4964,"rancis":4965,"Ġsickness":4966,"Ġcrave":4967,"Ġwax":4968,"Ġminute":4969,"PARIS":4970,"CALIBAN":4971,"Ġmodesty":4972,"Ġducats":4973,"ĠProv":4974,"Ġsatisfied":4975,"ramus":4976,"Ġviolent":4977,"Ġchaste":4978,"LYSANDER":4979,"Ġignorant":4980,"ichmond":4981,"Ġauthority":4982,"ortensio":4983,"ĠKATHERINE":4984,"IRANDA":4985,"Acc":4986,"BLE":4987,"Follow":4988,"MIRANDA":4989,"NIN":4990,"Please":4991,"SAT":4992,"TAM":4993,"ped":4994,"uge":4995,"Ġtap":4996,"Ġsour":4997,"Ġmess":4998,"Ġbrows":4999,"Ġcock":5000,"Ġpear":5001,"Ġreward":5002,"ENCR":5003,"ĠSp":5004,"ĠSy":5005,"thur":5006,"ĠAway":5007,"antag":5008,"Ġblus":5009,"fered":5010,"ĠOffic":5011,"Ġunha":5012,"Ġprovo":5013,"ANTZ":5014,"âĢĿ,":5015,"Ġtells":5016,"CAIUS":5017,"URNIN":5018,"Ġarmed":5019,"Ġcontempt":5020,"Ġfinds":5021,"Ġconfound":5022,"ROSENCR":5023,"Ġadvice":5024,"Ġjudg":5025,"Only":5026,"ĠAlb":5027,"Ġgarments":5028,"Ġprofit":5029,"Ġesteem":5030,"ĠWilliam":5031,"ĠHelena":5032,"CHARLES":5033,"Ġofficer":5034,"Ġchallenge":5035,"Ġconduct":5036,"ĠCapulet":5037,"SATURNIN":5038,"TAMORA":5039,"ROSENCRANTZ":5040,"SATURNINUS":5041,",âĢĻ":5042,"Has":5043,"MOR":5044,"iver":5045,"net":5046,"ront":5047,"Ġsides":5048,"Ġcease":5049,"Ġnames":5050,"Ġpill":5051,"Ġpil":5052,"Ġpie":5053,"Ġpair":5054,"Ġinfect":5055,"Ġbeyond":5056,"Ġrender":5057,"Ġsearch":5058,"ĠSic":5059,"ERSET":5060,"thou":5061,"ARIEL":5062,"ĠHeaven":5063,"Ġspake":5064,"ĠBoy":5065,"ĠFare":5066,"icate":5067,"igo":5068,"oder":5069,"ista":5070,"Ġchair":5071,"ressed":5072,"Ġtwain":5073,"ĠĠĠĠĠĠĠĠĠ":5074,"lipp":5075,"ETTA":5076,"ĠAndronicus":5077,"QUIN":5078,"Ġbrains":5079,"Ġfollowers":5080,"Ġcharm":5081,"LUCETTA":5082,"MARGARET":5083,"Ġbodies":5084,"Alack":5085,"Ġassur":5086,"Ġsleeping":5087,"Ġbuild":5088,"ĠBeatrice":5089,"ĠDoctor":5090,"otted":5091,"Ġdevice":5092,"Ġframe":5093,"Ġempress":5094,"Ġgifts":5095,"Ġfairest":5096,"HERMIA":5097,"Ġobedience":5098,"Ġcontrary":5099,"ĠCoriolanus":5100,"humus":5101,"aptista":5102,"SOMERSET":5103,"COL":5104,"LOR":5105,"Tr":5106,"TOM":5107,"ZO":5108,"kind":5109,"lock":5110,"mend":5111,"then":5112,"time":5113,"hend":5114,"inite":5115,"rehend":5116,"Ġbill":5117,"Ġpat":5118,"ĠIm":5119,"ater":5120,"uring":5121,"roll":5122,"ENZO":5123,"ĠSee":5124,"ARENCE":5125,"ARVIR":5126,"ĠAy":5127,"ĠPort":5128,"ĠPeter":5129,"ĠBaptista":5130,"ĠLavinia":5131,"seless":5132,"ĠTarqu":5133,"Ġhereafter":5134,"Ġalt":5135,"ĠNot":5136,"Ġflow":5137,"Ġparty":5138,"Ġhark":5139,"Ġpursu":5140,"Ġsmiles":5141,"clock":5142,"Ġtrif":5143,"AGUS":5144,"Ġmisery":5145,"ranio":5146,"Ġsorrows":5147,"ĠItal":5148,"Ġpromised":5149,"Cannot":5150,"prise":5151,"Ġdarkness":5152,"Ġmoved":5153,"Ġlimbs":5154,"BOTTOM":5155,"Ġapart":5156,"Ġmourn":5157,"Ġiron":5158,"ĠBritain":5159,"Ġpolicy":5160,"ĠAufidius":5161,"LORENZO":5162,"ARVIRAGUS":5163,"App":5164,"FLA":5165,"Once":5166,"Rome":5167,"Sha":5168,"co":5169,"ris":5170,"hether":5171,"inct":5172,"Ġbent":5173,"orat":5174,"itol":5175,"Ġdar":5176,"Ġcitizens":5177,"anct":5178,"Ġgarden":5179,"ourt":5180,"rid":5181,"Ġliest":5182,"ording":5183,"Ġdew":5184,"hiles":5185,"amemn":5186,"iliar":5187,"ĠHal":5188,"Ġshot":5189,"iege":5190,"Ġsway":5191,"ĠTime":5192,"ELLE":5193,"Ġunse":5194,"Ġquit":5195,"Ġflatt":5196,"Ġrock":5197,"ILLE":5198,"LAIN":5199,"Ġappet":5200,"them":5201,"Ġputs":5202,"Ġundertake":5203,"Ġtread":5204,"Ġwindow":5205,"SHEPH":5206,"Ġcares":5207,"ĠTroj":5208,"Ġdreams":5209,"Ġknights":5210,"Ġbabe":5211,"moreland":5212,"ĠCapitol":5213,"Ġpractice":5214,"GAV":5215,"Ġambition":5216,"Ġbehalf":5217,"Ġedge":5218,"EXETER":5219,"PUCELLE":5220,"Ġcerem":5221,"ĠPetruchio":5222,"FLAVIUS":5223,"amemnon":5224,"SHEPHERD":5225,"BY":5226,"Dear":5227,"DIANA":5228,"Fear":5229,"FIDIUS":5230,"Lay":5231,"Long":5232,"NER":5233,"WEST":5234,"avy":5235,"do":5236,"port":5237,"ser":5238,"Ġtame":5239,"ounce":5240,"Ġbottom":5241,"Ġfits":5242,"Ġdot":5243,"Ġpier":5244,"anqu":5245,"Ġhazard":5246,"Ġweeds":5247,"ado":5248,"adies":5249,"alks":5250,"Ġstick":5251,"rac":5252,"rald":5253,"idence":5254,"ros":5255,"Ġsell":5256,"andria":5257,"ĠCLO":5258,"Ġsuper":5259,"INO":5260,"ruction":5261,"iff":5262,"ĠĠĠĠĠĠ":5263,"Ġves":5264,"ĠWales":5265,"ĠLear":5266,"ORIZ":5267,"ĠFrancis":5268,"alls":5269,"ĠDu":5270,"Ġworthi":5271,"Ġarri":5272,"ĠRichmond":5273,"Ġseeing":5274,"CHAM":5275,"ĠNature":5276,"cial":5277,"ILIP":5278,"Ġclim":5279,"Ġslight":5280,"BERLAIN":5281,"mpet":5282,"Ġfriendship":5283,"Ġdearly":5284,"Ġfeather":5285,"Ġservants":5286,"Ġadvance":5287,"AUFIDIUS":5288,"itten":5289,"ĠIsab":5290,"Ġdisposition":5291,"Ġprisoners":5292,"Ġcrack":5293,"CLARENCE":5294,"change":5295,"sooth":5296,"Ġoffended":5297,"Ġmountain":5298,"FLORIZ":5299,"Ġbleed":5300,"Ġaffections":5301,"ĠTheseus":5302,"mbling":5303,"Ġsmooth":5304,"ogen":5305,"ĠVII":5306,"hearted":5307,"ĠBassanio":5308,"Ġdegree":5309,"ĠCamillo":5310,"Ġlength":5311,"ĠPosthumus":5312,"ĠCAPULET":5313,"oderigo":5314,"oratio":5315,"ĠCLOWN":5316,"CHAMBERLAIN":5317,"FLORIZEL":5318,"AENE":5319,"Hence":5320,"HILIP":5321,"Mar":5322,"bours":5323,"gu":5324,"gged":5325,"mian":5326,"pic":5327,"wh":5328,"would":5329,"Ã©":5330,"Ġavo":5331,"Ġsought":5332,"Ġmood":5333,"Ġmag":5334,"Ġfate":5335,"Ġfelt":5336,"Ġcrow":5337,"Ġcens":5338,"Ġpick":5339,"Ġpage":5340,"omen":5341,"leans":5342,"Ġforfeit":5343,"Ġdogs":5344,"cket":5345,"Ġsuck":5346,"ĠAm":5347,"cted":5348,"Ġven":5349,"ĠPHILIP":5350,"Ġshr":5351,"Ġgodd":5352,"Ġswallow":5353,"olute":5354,"Ġflourish":5355,"ICER":5356,"Ġripe":5357,"Ġfairly":5358,"LAUN":5359,"Ġgentlewoman":5360,"overed":5361,"Ġserp":5362,"Ġperforce":5363,"CELET":5364,"Ġreputation":5365,"ĠCaptain":5366,"Ġcursed":5367,"Ġimposs":5368,"Ġmonument":5369,"Another":5370,"Ġruns":5371,"twill":5372,"Ġhateful":5373,"Ġmarket":5374,"Ġpleasures":5375,"Ġbarren":5376,"Ġaccept":5377,"Ġshortly":5378,"HERO":5379,"Ġattempt":5380,"Ġdevise":5381,"Ġoppos":5382,"Ġvex":5383,"Ġunknown":5384,"Ġreverence":5385,"crece":5386,"BIANCA":5387,"ĠScot":5388,"ĠExeter":5389,"Ġfigure":5390,"Ġodds":5391,"ĠWestmoreland":5392,"ĠPyramus":5393,"ĠLysander":5394,"Ġcomplexion":5395,"antagenet":5396,"Ġvessel":5397,"AENEAS":5398,"LAUNCELET":5399,"Amen":5400,"Hail":5401,"Rep":5402,"Su":5403,"SIM":5404,"action":5405,"law":5406,"oc":5407,"oon":5408,"wife":5409,"ĠExeunt":5410,"Ġsanct":5411,"Ġwink":5412,"Ġbade":5413,"ora":5414,"aron":5415,"Ġherald":5416,"ator":5417,"lender":5418,"Ġisland":5419,"oops":5420,"rib":5421,"Ġstroke":5422,"ored":5423,"Ġdeer":5424,"Ġseest":5425,"ANOR":5426,"ĠCOUNT":5427,"Ġknaves":5428,"Ġnegle":5429,"outs":5430,"LEANOR":5431,"unate":5432,"Ġrhy":5433,"Ġfriar":5434,"Ġgraces":5435,"Ġwrought":5436,"Ġraise":5437,"Ġprefer":5438,"Ġprayer":5439,"bling":5440,"blood":5441,"Ġnative":5442,"RYMAN":5443,"Ġconfirm":5444,"ontent":5445,"LUCIANA":5446,"ĠClown":5447,"Ġstrife":5448,"ĠThisbe":5449,"ĠLucrece":5450,"Ġgrey":5451,"ĠThus":5452,"ĠOrleans":5453,"ipho":5454,"Ġgroans":5455,"Ġcreatures":5456,"Truly":5457,"Ġshift":5458,"Ġfingers":5459,"urio":5460,"Between":5461,"Ġbounty":5462,"natural":5463,"ĠProvost":5464,"Ġgoddess":5465,"SIMP":5466,"ĠCOUNTRYMAN":5467,"CELL":5468,"Mistress":5469,"NA":5470,"Ret":5471,"SIMON":5472,"aqu":5473,"bow":5474,"iate":5475,"ivers":5476,"long":5477,"master":5478,"ov":5479,"pre":5480,"than":5481,"wd":5482,"xford":5483,"Ġtur":5484,"held":5485,"Ġmart":5486,"Ġwants":5487,"erving":5488,"Ġfin":5489,"Ġfil":5490,"Ġfif":5491,"Ġfant":5492,"itable":5493,"Ġdistress":5494,"Ġdagger":5495,"Ġcou":5496,"enius":5497,"Ġpare":5498,"oment":5499,"Ġdeb":5500,"Ġdoctor":5501,"amour":5502,"ĠSome":5503,"ĠSlender":5504,"ARCH":5505,"ĠHortensio":5506,"run":5507,"Ġvantage":5508,"ĠPho":5509,"asted":5510,"Ġpron":5511,"ĠDou":5512,"LEY":5513,"Ġspeaking":5514,"ANTIO":5515,"Ġabhor":5516,"Ġfathers":5517,"ression":5518,"Ġparted":5519,"chester":5520,"SCA":5521,"Ġwhither":5522,"lando":5523,"Ġafraid":5524,"Ġfollowing":5525,"Ġfollowed":5526,"IDES":5527,"Ġsubstance":5528,"ĠLuc":5529,"ĠThough":5530,"place":5531,"ĠArthur":5532,"Ġintell":5533,"Ġsigns":5534,"Ġbeaten":5535,"cape":5536,"ursed":5537,"Ġuntil":5538,"Ġinstrument":5539,"Ġfatal":5540,"Ġfamiliar":5541,"Conf":5542,"Ġelder":5543,"Ġrevolt":5544,"Ġclothes":5545,"Ġnumbers":5546,"ĠImogen":5547,"ĠPortia":5548,"ĠTarquin":5549,"Ġappetite":5550,"SIMONIDES":5551,"Draw":5552,"Lu":5553,"LON":5554,"PAT":5555,"Se":5556,"Sound":5557,"light":5558,"ping":5559,"pir":5560,"swe":5561,"soe":5562,"upon":5563,"Ġ2":5564,"Ġ4":5565,"Ġ8":5566,"Ġtest":5567,"Ġtide":5568,"Ġtask":5569,"Ġsink":5570,"Ġmoment":5571,"Ġbury":5572,"Ġder":5573,"Ġlamb":5574,"Ġhind":5575,"Ġpour":5576,"sequ":5577,"uted":5578,"uties":5579,"rave":5580,"Ġsooth":5581,"Three":5582,"Ġfavours":5583,"ĠMerc":5584,"Ġvar":5585,"ĠWhich":5586,"ONSO":5587,"ĠGon":5588,"quire":5589,"ALONSO":5590,"ept":5591,"Ġrotten":5592,"Ġmarks":5593,"Wherefore":5594,"Ġnorth":5595,"Ġpeers":5596,"Ġaccus":5597,"Ġbeauteous":5598,"Ġsentence":5599,"Ġboar":5600,"atesby":5601,"Ġdefence":5602,"Ġdelivered":5603,"Ġinfinite":5604,"Ġincre":5605,"Ġmouths":5606,"Whither":5607,"Ġgrieve":5608,"Ġprivile":5609,"ĠJulia":5610,"Ġconceit":5611,"Ġfairer":5612,"Ġmonths":5613,"Ġlanguage":5614,"Ġdeterm":5615,"Ġdispleasure":5616,"ĠPisanio":5617,"Ġreckon":5618,"Ġjudgment":5619,"GAVILLE":5620,"LONGAVILLE":5621,"LAN":5622,"OC":5623,"Pres":5624,"des":5625,"ded":5626,"fri":5627,"fold":5628,"pet":5629,"vest":5630,"Ġze":5631,"Ġtall":5632,"Ġsins":5633,"ino":5634,"Ġmak":5635,"Ġwither":5636,"Ġbind":5637,"Ġcave":5638,"Ġcalm":5639,"Ġlun":5640,"Ġnice":5641,"arbus":5642,"Ġhuge":5643,"Ġpaint":5644,"Ġink":5645,"Ġinher":5646,"Ġbelly":5647,"Ġeight":5648,"Ġweather":5649,"Ġwears":5650,"asy":5651,"riel":5652,"Ġstock":5653,"Ġsham":5654,"Ġlock":5655,"Ġsple":5656,"Ġspur":5657,"ĠWin":5658,"ORGE":5659,"Ġblest":5660,"Ġblunt":5661,"Ġworm":5662,"ĠRoss":5663,"ĠRoderigo":5664,"ĠTranio":5665,"Ġplaces":5666,"igious":5667,"Ġdiss":5668,"Ġalike":5669,"assad":5670,"Ġthinking":5671,"Ġchase":5672,"ENET":5673,"Ġtrade":5674,"Ġserved":5675,"Ġperish":5676,"FFICER":5677,"fty":5678,"CASCA":5679,"Ġbegan":5680,"CONSTA":5681,"IMACH":5682,"Ġrepair":5683,"Ġmerchant":5684,"Ġwronged":5685,"Although":5686,"Ġassured":5687,"Ġbesides":5688,"Ġlaws":5689,"Ġbanqu":5690,"Ġhangs":5691,"Ġstronger":5692,"Ġpurposes":5693,"Ġblessing":5694,"Ġdelay":5695,"Ġexcept":5696,"Ġaffli":5697,"ĠRobert":5698,"Ġwoeful":5699,"Ġgarland":5700,"MALCOL":5701,"ĠCharmian":5702,"GEORGE":5703,"Ġfierce":5704,"LYSIMACH":5705,"About":5706,"Ġdifference":5707,"Ġcreep":5708,"Ġweapons":5709,"Ġwondrous":5710,"Ġdeceived":5711,"WOO":5712,"Ġfarther":5713,"Help":5714,"ĠSaturn":5715,"Ġthieves":5716,"Ġspecial":5717,"ĠOfficers":5718,"CONSTABLE":5719,"MALCOLM":5720,"LYSIMACHUS":5721,"Ant":5722,"BIA":5723,"Came":5724,"Cons":5725,"DELLO":5726,"HIP":5727,"Men":5728,"TRIN":5729,"VIN":5730,"Whether":5731,"Whiles":5732,"YTA":5733,"acy":5734,"came":5735,"just":5736,"live":5737,"pul":5738,"rite":5739,"rison":5740,"Ġ&":5741,"Ġ5":5742,"Ġ6":5743,"Ġsings":5744,"Ġsaint":5745,"Ġscept":5746,"rees":5747,"Ġbite":5748,"isper":5749,"onest":5750,"Ġodd":5751,"enc":5752,"Ġpor":5753,"ank":5754,"anley":5755,"stain":5756,"Ġinward":5757,"etter":5758,"Ġfors":5759,"Ġforsooth":5760,"aled":5761,"Ġstat":5762,"Ġstaff":5763,"Ġrecom":5764,"Ġrejo":5765,"urk":5766,"Ġwilling":5767,"ams":5768,"amed":5769,"ested":5770,"gels":5771,"Ġshri":5772,"ously":5773,"Ġblown":5774,"ALCI":5775,"Ġworn":5776,"ĠOne":5777,"Ġarrest":5778,"ared":5779,"Ġenvious":5780,"Ġalthough":5781,"ĠJaqu":5782,"Ġabide":5783,"chess":5784,"ĠVer":5785,"Ġladyship":5786,"Ġcoff":5787,"Ġslew":5788,"Ġtravel":5789,"Ġbelong":5790,"Ġmov":5791,"Ġassist":5792,"Ġsleeps":5793,"Ġvillains":5794,"ĠBrook":5795,"Ġkisses":5796,"Ġcountrymen":5797,"Ġsilent":5798,"Ġcastle":5799,"Ġ10":5800,"POLYTA":5801,"IONDELLO":5802,"Ġshoot":5803,"Ġtorment":5804,"Ġmidnight":5805,"Ġjealousy":5806,"Ġnobles":5807,"Ġpetition":5808,"ĠHugh":5809,"reedom":5810,"Ġcompanion":5811,"Ġdecay":5812,"ĠAgamemnon":5813,"Ġwolf":5814,"Ġcuckold":5815,"Ġacquaintance":5816,"ĠMalvolio":5817,"Ġbenefit":5818,"Ġeternal":5819,"CULO":5820,"anquo":5821,"Ġzeal":5822,"BIADES":5823,"HIPPOLYTA":5824,"TRINCULO":5825,"ALCIBIADES":5826,"BORA":5827,"BIONDELLO":5828,"DEN":5829,"NES":5830,"OUS":5831,"WALD":5832,"cure":5833,"gn":5834,"zz":5835,"Ã¨":5836,"Ġ7":5837,"Ġ9":5838,"Ġtarry":5839,"Ġsand":5840,"Ġstern":5841,"ering":5842,"erved":5843,"Ġfret":5844,"Ġcell":5845,"Ġthorn":5846,"Ġpause":5847,"Ġgaz":5848,"irty":5849,"Ġlip":5850,"uses":5851,"ANLEY":5852,"ĠColl":5853,"ĠHoratio":5854,"ĠAb":5855,"Ġvill":5856,"Ġvol":5857,"asting":5858,"Ġshun":5859,"STANLEY":5860,"Ġthereof":5861,"ĠOxford":5862,"Young":5863,"ĠTam":5864,"Ġjour":5865,"ROCL":5866,"Ġquench":5867,"Ġheartily":5868,"Ġraven":5869,"Ġprepar":5870,"Ġharsh":5871,"Ġremains":5872,"Ġglove":5873,"Ġprick":5874,"ULT":5875,"Ġpassage":5876,"Ġchid":5877,"GOWER":5878,"Ġbelie":5879,"Ġbeloved":5880,"Ġearthly":5881,"Ġhuman":5882,"Ġfalsehood":5883,"BOULT":5884,"Ġvillainy":5885,"Ġweeps":5886,"elsh":5887,"AUMER":5888,"Ġattended":5889,"ĠHereford":5890,"Ġpleasant":5891,"Ġwishes":5892,"Ġbooks":5893,"ĠFlore":5894,"Ġwounded":5895,"ĠServants":5896,"Ġacquainted":5897,"Ġobserv":5898,"ĠPlantagenet":5899,"glas":5900,"OSWALD":5901,"cules":5902,"Contents":5903,"Ġunfold":5904,"Ġsenses":5905,"ĠGrecian":5906,"Ġconcern":5907,"ĠVols":5908,"ĠSweet":5909,"ĠPandarus":5910,"Ġshrewd":5911,"ĠLaertes":5912,"QUINCE":5913,"PATROCL":5914,"Ġbanquet":5915,"WOOER":5916,"BORACHIO":5917,"NESTOR":5918,"AUMERLE":5919,"PATROCLUS":5920,"Cry":5921,"Full":5922,"Many":5923,"Res":5924,"SUR":5925,"Signior":5926,"bast":5927,"dis":5928,"erest":5929,"ipp":5930,"love":5931,"leness":5932,"Ġ3":5933,"Ġsine":5934,"Ġmill":5935,"Ġwail":5936,"Ġfed":5937,"Ġcam":5938,"Ġnon":5939,"ency":5940,"Ġpomp":5941,"Ġheight":5942,"Ġbefall":5943,"ldom":5944,"chb":5945,"Ġisle":5946,"Ġstage":5947,"Ġstret":5948,"idus":5949,"Ġrepe":5950,"ENCH":5951,"estor":5952,"eau":5953,"think":5954,"ĠAh":5955,"ĠWelsh":5956,"ĠBanquo":5957,"Ġnephe":5958,"Ġamiss":5959,"aunce":5960,"ĠDun":5961,"Ġenforce":5962,"Ġsacri":5963,"Ġhandker":5964,"ickly":5965,"ĠNever":5966,"owne":5967,"âĢĿ?":5968,"Ġdescend":5969,"Ġmarvel":5970,"Behold":5971,"Ġbetwixt":5972,"Ġhears":5973,"Ġleague":5974,"ATES":5975,"lied":5976,"Ġcler":5977,"Ġscene":5978,"Ġperfection":5979,"Ġcommitted":5980,"Ġwhisper":5981,"URTH":5982,"Ġcontract":5983,"Ġended":5984,"Ġglo":5985,"they":5986,"Ġpassing":5987,"Ġstays":5988,"Ġresc":5989,"Ġcrowned":5990,"ĠMaria":5991,"Ġstrain":5992,"Ġsends":5993,"eneas":5994,"OLIVER":5995,"Ġrecord":5996,"Ġlusty":5997,"Ġmistake":5998,"Ġbanishment":5999,"Ġgait":6000,"Ġnobility":6001,"ĠGreek":6002,"Ġignorance":6003,"Ġbehavi":6004,"ĠHubert":6005,"FRENCH":6006,"Ġdignity":6007,"Ġcircumstance":6008,"Ġcloak":6009,"Ġtyranny":6010,"Ġtorture":6011,"Ġunhappy":6012,"Ġpieces":6013,"Ġimpossible":6014,"ĠWinchester":6015,"auncelet":6016,"AB":6017,"PIR":6018,"PID":6019,"faced":6020,"give":6021,"look":6022,"mong":6023,"new":6024,"Ġtro":6025,"Ġmass":6026,"rels":6027,"Ġbull":6028,"lle":6029,"Ġluck":6030,"aries":6031,"oten":6032,"otion":6033,"stant":6034,"oms":6035,"Ġinform":6036,"adua":6037,"Ġstamp":6038,"Ġrede":6039,"aming":6040,"earer":6041,"ĠCorn":6042,"Ġnobly":6043,"ĠHark":6044,"ĠAriel":6045,"ella":6046,"Ġvouchsafe":6047,"STANCE":6048,"ica":6049,"aug":6050,"epidus":6051,"ĠDen":6052,"ĠOli":6053,"Ġplant":6054,"ELAND":6055,"Ġunnatural":6056,"ickle":6057,"ĠNe":6058,"Ġfox":6059,"ICANUS":6060,"Ġfriendly":6061,"ILIUS":6062,"Ġotherwise":6063,"Ġserves":6064,"Ġperf":6065,"Ġrail":6066,"Ġstanding":6067,"CONSTANCE":6068,"ISH":6069,"ISSA":6070,"Ġeveryone":6071,"clus":6072,"Ġconsul":6073,"Ġkindly":6074,"Ġaccuse":6075,"Ġsubtle":6076,"Ġfaithful":6077,"Ġdiscover":6078,"Ġstrive":6079,"Ġdevils":6080,"Ġdrums":6081,"Ġtemple":6082,"iety":6083,"Ġhardly":6084,"upiter":6085,"Ġcommonwe":6086,"HELICANUS":6087,"TAIN":6088,"ĠOrlando":6089,"Ġexped":6090,"Having":6091,"Ġ11":6092,"Ġshield":6093,"Ġpitch":6094,"Ġconquest":6095,"Ġwhoreson":6096,"obarbus":6097,"Ġnecessity":6098,"Ġapparel":6099,"ITHOUS":6100,"Ġcombat":6101,"Until":6102,"ĠPrincess":6103,"MORELAND":6104,"NERISSA":6105,"WESTMORELAND":6106,"CELLUS":6107,"Ġparent":6108,"ĠPhoe":6109,"ĠDouglas":6110,"ĠTamora":6111,"chbishop":6112,"PIRITHOUS":6113,"!âĢĻ":6114,"BISH":6115,"CESTER":6116,"Lady":6117,"Sm":6118,"WOR":6119,"bar":6120,"gon":6121,"lus":6122,"roop":6123,"sar":6124,"uries":6125,"was":6126,"who":6127,"zo":6128,"ĠQUEEN":6129,"oubt":6130,"Ġmask":6131,"Ġwest":6132,"Ġwander":6133,"erle":6134,"Ġcrest":6135,"Ġoce":6136,"Ġoak":6137,"Ġyoke":6138,"Ġtoil":6139,"Ġhaunt":6140,"illy":6141,"Ġeast":6142,"Ġstoop":6143,"rab":6144,"lyss":6145,"Ġkin":6146,"Ġdecl":6147,"Ġwillingly":6148,"geon":6149,"ĠCatesby":6150,"Through":6151,"Ġanswe":6152,"ĠHost":6153,"Ġspread":6154,"ĠMess":6155,"ĠPaul":6156,"ĠLepidus":6157,"Ġmult":6158,"ĠReg":6159,"Ġpoet":6160,"Ġalso":6161,"Ġbread":6162,"Ġbreach":6163,"together":6164,"Ġfairy":6165,"Ġwrink":6166,"Ġtrim":6167,"Ġclock":6168,"Ġslaves":6169,"Ġshowed":6170,"retion":6171,"Ġslept":6172,"Does":6173,"Ġtricks":6174,"Ġplays":6175,"Ġpeas":6176,"Ġsurely":6177,"hesus":6178,"Ġhanging":6179,"Ġsecure":6180,"Ġenterprise":6181,"Ġcommanded":6182,"ĠHercules":6183,"mediate":6184,"Ġdepend":6185,"MENAS":6186,"ĠAlas":6187,"Ġterror":6188,"Ġcoron":6189,"Ġvisage":6190,"Ġhairs":6191,"Ġfeeling":6192,"bitious":6193,"Ġundo":6194,"Ġtroubled":6195,"Ġbeasts":6196,"Ġbleeding":6197,"IONE":6198,"Ġentertainment":6199,"Ġtorch":6200,"FOURTH":6201,"Ġdestroy":6202,"Ġdeserved":6203,"HERMIONE":6204,"Ġconjure":6205,"Leave":6206,"THURIO":6207,"Ġmilk":6208,"Ġhigher":6209,"ĠItaly":6210,"ĠTrojan":6211,"Ġavoid":6212,"ipholus":6213,"ARCHBISH":6214,"Ġsacrif":6215,"PIDUS":6216,"Ġredeem":6217,"ĠOlivia":6218,"WORCESTER":6219,"lysses":6220,"ARCHBISHOP":6221,"Gives":6222,"Much":6223,"Pre":6224,"ares":6225,"fellow":6226,"lse":6227,"maid":6228,"nock":6229,"tell":6230,"Ġet":6231,"Ġach":6232,"Ġsiege":6233,"reet":6234,"Ġbore":6235,"Ġfreedom":6236,"iting":6237,"Ġlent":6238,"Ġlap":6239,"Ġnim":6240,"Ġyond":6241,"atro":6242,"Ġbeheld":6243,"Ġhail":6244,"lean":6245,"uts":6246,"asca":6247,"Ġsting":6248,"urb":6249,"Ġsoci":6250,"Ġdeaf":6251,"Ġwills":6252,"ĠCall":6253,"ĠCade":6254,"Ġangels":6255,"rue":6256,"ĠAeneas":6257,"Ġknit":6258,"Ġknot":6259,"ĠMarry":6260,"ĠPhil":6261,"ĠPadua":6262,"ĠBo":6263,"Eng":6264,"ĠGaunt":6265,"emper":6266,"eline":6267,"Ġunm":6268,"Ġenfor":6269,"Ġpocket":6270,"Ġalter":6271,"ĠJupiter":6272,"Ġoffices":6273,"Ġroar":6274,"Ġdesign":6275,"Ġleap":6276,"Ġnights":6277,"Ġcommit":6278,"Ġcontro":6279,"Ġsmiling":6280,"Ġlieutenant":6281,"Ġyounger":6282,"Ġkindred":6283,"ĠAntipholus":6284,"Ġgild":6285,"Ġtremble":6286,"Ġdrew":6287,"mbeline":6288,"Ġadvent":6289,"Anon":6290,"ĠMarina":6291,"Ġwaters":6292,"Ġpalm":6293,"remio":6294,"Ġparley":6295,"prus":6296,"Ġredress":6297,"ĠFlourish":6298,"Ġadmir":6299,"Ġwedding":6300,"ĠEmperor":6301,"rsites":6302,"ĠMayor":6303,"Ġdeserves":6304,"Ġgently":6305,"ĠUlysses":6306,"ĠCyprus":6307,"Brother":6308,"Ġtailor":6309,"Ġmurderer":6310,"ĠMilan":6311,"Ġpurchase":6312,"ĠEphesus":6313,"ĠSyra":6314,"picion":6315,"Ġserpent":6316,"bastian":6317,"Ġanswered":6318,"atroclus":6319,"CARDIN":6320,"Del":6321,"Fare":6322,"NYM":6323,"Off":6324,"VIC":6325,"Wit":6326,"br":6327,"bray":6328,"ere":6329,"gues":6330,"nzo":6331,"pier":6332,"rt":6333,"Ã§":6334,"inus":6335,"Ġmile":6336,"Ġwhip":6337,"Ġwrest":6338,"Ġdow":6339,"Ġdress":6340,"Ġlines":6341,"Ġyester":6342,"Ġph":6343,"Ġtoken":6344,"owbray":6345,"Ġgid":6346,"ripp":6347,"Ġstub":6348,"orenzo":6349,"Ġsembl":6350,"eared":6351,"INCH":6352,"Ġbutcher":6353,"ello":6354,"Ġfares":6355,"Ġspurn":6356,"ĠLauncelet":6357,"Ġshown":6358,"ĠGreat":6359,"ouses":6360,"STERN":6361,"Ġambitious":6362,"emned":6363,"ĠFirst":6364,"ĠFIS":6365,"Ġcann":6366,"LEPIDUS":6367,"THA":6368,"THE":6369,"ounded":6370,"Ġshoulders":6371,"Ġsaved":6372,"LODO":6373,"Ġdisse":6374,"Ġwholesome":6375,"Ġroses":6376,"Ġcharac":6377,"Ġgraves":6378,"ILDEN":6379,"Ġwritten":6380,"Ġsweetly":6381,"Ġkey":6382,"QUO":6383,"Ġrust":6384,"Ġslay":6385,"EDWARD":6386,"Ġprice":6387,"Ġservices":6388,"Ġtrees":6389,"Ġcourtier":6390,"Ġimprison":6391,"MARCELLUS":6392,"Ġhumours":6393,"Ġdiscontent":6394,"Ġbreaks":6395,"Ġadvised":6396,"ĠMarch":6397,"Ġgrew":6398,"rank":6399,"Didst":6400,"Ġneedful":6401,"ĠArchbishop":6402,"Ġreading":6403,"ĠStanley":6404,"Ġcholer":6405,"Ġcondemn":6406,"Ġbravely":6407,"HERMAN":6408,"BANQUO":6409,"Ġduked":6410,"Ġabsent":6411,"ferent":6412,"Ġpossession":6413,"Ġdrive":6414,"Ġdaily":6415,"POET":6416,"Ġjewels":6417,"Ġinnoc":6418,"Ġpetty":6419,"PUCK":6420,"ĠMenenius":6421,"ĠGuild":6422,"Ġventure":6423,"ĠSenators":6424,"ĠCominius":6425,"Ġmiserable":6426,"Ġaudience":6427,"rumio":6428,"ĠDiana":6429,"indsor":6430,"Ġwrack":6431,"Ġmessage":6432,"Ġincrease":6433,"OCTA":6434,"ĠCollat":6435,"Ġhandkerchief":6436,"Ġocean":6437,"CARDINAL":6438,"VICO":6439,"ĠFISHERMAN":6440,"LODOVICO":6441,"ILDENSTERN":6442,"CORD":6443,"Find":6444,"IOR":6445,"Music":6446,"Up":6447,"aus":6448,"boy":6449,"dst":6450,"grim":6451,"know":6452,"mark":6453,"say":6454,"tled":6455,"zy":6456,"Ġtaking":6457,"Ġbot":6458,"Ġbag":6459,"ishes":6460,"Ġfront":6461,"ital":6462,"Ġling":6463,"Ġlam":6464,"Ġlying":6465,"Ġthrown":6466,"arrow":6467,"Ġhie":6468,"Ġpee":6469,"stable":6470,"Ġgather":6471,"Ġforces":6472,"Ġug":6473,"rief":6474,"ently":6475,"Ġlift":6476,"Ġliking":6477,"Ġasse":6478,"Ġaspect":6479,"rog":6480,"Ġdozen":6481,"Ġshade":6482,"ĠCo":6483,"Ġsuits":6484,"INTER":6485,"ilful":6486,"Ġspace":6487,"eard":6488,"ĠMake":6489,"ĠPeace":6490,"ĠWh":6491,"ĠWilt":6492,"ĠWindsor":6493,"antus":6494,"ĠGoths":6495,"ĠGremio":6496,"emantus":6497,"Ġknowing":6498,"Ġorn":6499,"umn":6500,"Ġunp":6501,"Ġunjust":6502,"Ġshoulder":6503,"Ġalarum":6504,"osing":6505,"Ġpartly":6506,"LAW":6507,"Ġtroops":6508,"Ġado":6509,"iano":6510,"ianus":6511,"Ġremorse":6512,"Ġsets":6513,"ĠEnobarbus":6514,"Ġconfusion":6515,"Ġpassed":6516,"Ġcurses":6517,"Ġcurrent":6518,"Ġpraises":6519,"Ġmonarch":6520,"Ġyouthful":6521,"Ġadvise":6522,"Ġbank":6523,"Ġjoys":6524,"Ġjoyful":6525,"aws":6526,"ĠThurio":6527,"Ġspoil":6528,"Ġpromis":6529,"Ġvictor":6530,"Ġlearning":6531,"Ġinterest":6532,"Ġrecover":6533,"Ġcorre":6534,"Ġprincess":6535,"Ġburst":6536,"Ġshadows":6537,"cription":6538,"Ġveins":6539,"Ġliberal":6540,"Ġabsolute":6541,"Ġresolved":6542,"Ġresolution":6543,"Ġrebell":6544,"Ġdrowned":6545,"ĠSENIOR":6546,"Ġsatisfaction":6547,"Ġinvis":6548,"ĠVenus":6549,"CAPTAIN":6550,"Ġunworthy":6551,"Ġprepared":6552,"ĠCymbeline":6553,"Ġweapon":6554,"ĠGentleman":6555,"Ġfleet":6556,"Ġprodig":6557,"Ġsavage":6558,"Ġprivilege":6559,"Ġspleen":6560,"Ġsceptre":6561,"Ã¨d":6562,"Ġjourney":6563,"Ã§on":6564,"THAISA":6565,"CORDELIA":6566,":âĢĶ":6567,"BOTH":6568,"Cousin":6569,"EPER":6570,"Else":6571,"FERD":6572,"MOW":6573,"bble":6574,"bles":6575,"eve":6576,"iond":6577,"rong":6578,"tles":6579,"tered":6580,"wit":6581,"Ġtut":6582,"Ġtum":6583,"reland":6584,"Ġbay":6585,"Ġcand":6586,"Ġope":6587,"Ġnation":6588,"Ġpace":6589,"Ġpawn":6590,"Ġtow":6591,"Ġgru":6592,"ative":6593,"ille":6594,"illing":6595,"Ġwept":6596,"Ġweek":6597,"ases":6598,"ased":6599,"ril":6600,"Ġreach":6601,"essica":6602,"Ġsequ":6603,"Ġload":6604,"ĠSince":6605,"ARINO":6606,"INAND":6607,"Ġspl":6608,"ĠPhi":6609,"ĠWor":6610,"ĠWas":6611,"Ġconceive":6612,"Ġconference":6613,"Ġtheme":6614,"Ġtheirs":6615,"ĠOf":6616,"ĠOut":6617,"umerle":6618,"Ġrate":6619,"ĠKING":6620,"Ġexper":6621,"ĠNap":6622,"ĠJessica":6623,"irect":6624,"Ġaboard":6625,"Ġparting":6626,"Ġscore":6627,"wards":6628,"Ġperpet":6629,"CASTER":6630,"PHIN":6631,"Ġafeard":6632,"Ġbegun":6633,"Ġremove":6634,"bered":6635,"Ġmerri":6636,"Ġcoat":6637,"Ġfever":6638,"Ġgiving":6639,"Ġlightning":6640,"Ġdiscretion":6641,"Ġcouncil":6642,"lete":6643,"Ġstrongly":6644,"Ġcommands":6645,"Ġgrowing":6646,"ĠArt":6647,"ĠWere":6648,"Ġproport":6649,"Ġgranted":6650,"ollo":6651,"Ġaddition":6652,"SALARINO":6653,"DAUPHIN":6654,"Ġwhipped":6655,"Ġinjury":6656,"ĠApemantus":6657,"BRAY":6658,"ĠBassianus":6659,"ratiano":6660,"ĠQuickly":6661,"ĠSebastian":6662,"Ġinvention":6663,"DOLL":6664,"Ġfurnish":6665,"ĠDuchess":6666,"LANCASTER":6667,"Ġnephew":6668,"Ġstubborn":6669,"Ġpeevish":6670,"Ġinvisible":6671,"FERDINAND":6672,"MOWBRAY":6673,"iondello":6674,"BANTIO":6675,"CY":6676,"CAN":6677,"Ed":6678,"GUN":6679,"Imp":6680,"Lie":6681,"Old":6682,"Run":6683,"Twere":6684,"bell":6685,"chamber":6686,"duff":6687,"fav":6688,"oft":6689,"side":6690,"war":6691,"Ġtied":6692,"hel":6693,"heard":6694,"inous":6695,"Ġming":6696,"Ġmoral":6697,"Ġward":6698,"Ġbon":6699,"Ġbasket":6700,"erity":6701,"oned":6702,"Ġcorse":6703,"Ġcaught":6704,"Ġlower":6705,"Ġnet":6706,"Ġnest":6707,"Ġnun":6708,"Ġnails":6709,"enÃ§on":6710,"arried":6711,"Ġhy":6712,"Ġhue":6713,"Ġhounds":6714,"Ġtooth":6715,"ĠIreland":6716,"sey":6717,"Ġwithdraw":6718,"Ġrend":6719,"Ġreve":6720,"Ġliqu":6721,"ordelia":6722,"urder":6723,"Ġdove":6724,"Ġshare":6725,"Ġanc":6726,"ĠHence":6727,"ĠAaron":6728,"iffe":6729,"Ġspy":6730,"ĠMowbray":6731,"Ġvass":6732,"ĠPatroclus":6733,"ĠBes":6734,"ĠBastard":6735,"ĠBishop":6736,"Ġmanhood":6737,"ĠGar":6738,"ĠFore":6739,"ĠFair":6740,"Ġblot":6741,"ĠDavy":6742,"ĠTha":6743,"ĠThersites":6744,"Ġlikely":6745,"CHIR":6746,"ĠKnow":6747,"Ġdisease":6748,"Ġexchange":6749,"ĠJustice":6750,"ĠĠĠĠĠĠĠĠĠĠĠĠĠĠĠ":6751,"Soft":6752,"Ġlooking":6753,"Ġscur":6754,"Ġscru":6755,"Ġperhaps":6756,"Ġwarri":6757,"ĠAndrew":6758,"Ġpreserve":6759,"Ġcouldst":6760,"clam":6761,"mpets":6762,"Ġtravell":6763,"Ġseemed":6764,"Ġcurst":6765,"ĠCloten":6766,"Ġhelm":6767,"Ġsteep":6768,"Ġvalue":6769,"Ġbush":6770,"Ġsounded":6771,"Ġrunning":6772,"Attend":6773,"Ġreturned":6774,"Ġcrying":6775,"Ġsupply":6776,"Ġrevenged":6777,"Ġleads":6778,"Ġfields":6779,"Ġsuffic":6780,"Ġforeign":6781,"Ġcarried":6782,"noon":6783,"ized":6784,"Comes":6785,"Ġtowns":6786,"Ġactions":6787,"UTLAW":6788,"Ġinstruct":6789,"Ġinstruments":6790,"BURGUN":6791,"Ġfamous":6792,"Ġago":6793,"ĠProsper":6794,"Death":6795,"PAINTER":6796,"Ġeasily":6797,"Ġrebels":6798,"Ġerror":6799,"Ġgaze":6800,"Ġamongst":6801,"Ġverse":6802,"Ġsuspicion":6803,"Ġwhiles":6804,"ĠGreeks":6805,"Ġconclusion":6806,"Ġtribunes":6807,"BRABANTIO":6808,"Ġcomplain":6809,"Ġpersuade":6810,"ĠPoins":6811,"Ġsaucy":6812,"Remember":6813,"Ġeagle":6814,"Ġexample":6815,"ĠBerowne":6816,"Ġdischarge":6817,"Ġpilgrim":6818,"Ġassurance":6819,"Ġcensure":6820,"Ġvenom":6821,"Ġbehaviour":6822,"Ġgiddy":6823,"ĠNaples":6824,"CHIRON":6825,"BURGUNDY":6826,"Cor":6827,"Im":6828,"Making":6829,"OBER":6830,"Send":6831,"UIS":6832,"WID":6833,"cceed":6834,"erer":6835,"foot":6836,"same":6837,"uc":6838,"upt":6839,"wall":6840,"Ġtres":6841,"hear":6842,"Ġav":6843,"Ġaged":6844,"Ġwore":6845,"hant":6846,"Ġbeds":6847,"eral":6848,"Ġdun":6849,"Ġdote":6850,"Ġnought":6851,"enster":6852,"arius":6853,"Ġhom":6854,"Ġpate":6855,"Ġpark":6856,"Ġbere":6857,"ayed":6858,"Ġnotice":6859,"illed":6860,"Ġevent":6861,"Ġforty":6862,"riff":6863,"enton":6864,"Ġstro":6865,"Ġlivery":6866,"Ġlikes":6867,"Ġseize":6868,"Ġseldom":6869,"andal":6870,"ĠChamber":6871,"ĠCasca":6872,"ĠHad":6873,"ĠMonsieur":6874,"ĠPed":6875,"ĠBiondello":6876,"ĠGower":6877,"ĠGrumio":6878,"iel":6879,"Ġconven":6880,"ORLE":6881,"ulf":6882,"venge":6883,"Ġblue":6884,"Ġswears":6885,"Ġhated":6886,"ĠDost":6887,"ĠOUTLAW":6888,"ĠTheir":6889,"Ġseeks":6890,"Ġrhe":6891,"Ġrus":6892,"Ġrouse":6893,"Ġque":6894,"LOUIS":6895,"ĠNestor":6896,"cians":6897,"ĠĠĠĠĠĠĠĠĠĠ":6898,"Ġdeserv":6899,"lia":6900,"Ġscope":6901,"Ġadvers":6902,"Ġruff":6903,"Ġnewly":6904,"Ġpursue":6905,"Ġbraw":6906,"Ġcheck":6907,"Ġplayed":6908,"Ġlights":6909,"MARIANA":6910,"Ġaccident":6911,"Ġsubd":6912,"Ġoverth":6913,"Ġstrew":6914,"Ġdoubl":6915,"Ġhenceforth":6916,"Ġjustly":6917,"Ġstrikes":6918,"ĠEdgar":6919,"ĠAthen":6920,"Ġlesser":6921,"Ġlately":6922,"Ġterm":6923,"Ġsurfeit":6924,"Ġburns":6925,"Ġbeholding":6926,"Ġbosoms":6927,"Ġpenny":6928,"Ġclean":6929,"Ġprophes":6930,"olles":6931,"Ġships":6932,"Ġstrumpet":6933,"Ġeffects":6934,"Ġobserve":6935,"Ġhostess":6936,"ĠAdam":6937,"Ġqualities":6938,"GUILDENSTERN":6939,"Ġchastity":6940,"Ġcontinue":6941,"Ġstained":6942,"Ġgovernment":6943,"Among":6944,"Ġobedient":6945,"Neither":6946,"ucelle":6947,"ĠAlexandria":6948,"Ġsteps":6949,"ĠConstable":6950,"Ġhaply":6951,"ĠPolonius":6952,"Strike":6953,"Ġfixed":6954,"Ġimmortal":6955,"Ġclimb":6956,"Ġrhyme":6957,"Ġfifty":6958,"Ġinherit":6959,"Ġrecompense":6960,"ĠGuildenster":6961,"Ġugly":6962,"OBERON":6963,"WIDOW":6964,"Ġtrespass":6965,"ORLEANS":6966,"ĠGuildenstern":6967,"CUR":6968,"CATES":6969,"Giving":6970,"MORT":6971,"NARD":6972,"PPA":6973,"Seem":6974,"Tut":6975,"ape":6976,"ips":6977,"lain":6978,"ming":6979,"pur":6980,"part":6981,"rings":6982,"ratch":6983,"sion":6984,"sire":6985,"tic":6986,"vity":6987,"hemia":6988,"Ġaunt":6989,"inate":6990,"Ġmat":6991,"Ġwre":6992,"Ġwot":6993,"Ġwet":6994,"hast":6995,"Ġbru":6996,"Ġball":6997,"isons":6998,"Ġfan":6999,"ese":7000,"Ġcro":7001,"Ġlaughter":7002,"enches":7003,"Ġyellow":7004,"ĠInd":7005,"owl":7006,"Ġgoose":7007,"atcl":7008,"sell":7009,"cellent":7010,"Ġforced":7011,"adle":7012,"ala":7013,"Ġstout":7014,"Ġstale":7015,"rase":7016,"Ġsoil":7017,"Ġdecre":7018,"amy":7019,"ione":7020,"ĠCordelia":7021,"ARNARD":7022,"Ġsup":7023,"Ġalleg":7024,"ĠHy":7025,"ĠAng":7026,"Ġvul":7027,"ĠPoor":7028,"ĠBarn":7029,"arded":7030,"Ġshook":7031,"Ġshines":7032,"ĠGratiano":7033,"Ġamend":7034,"ĠThan":7035,"umes":7036,"aker":7037,"THAS":7038,"ELBO":7039,"ung":7040,"Ġproved":7041,"ĠEven":7042,"ĠEros":7043,"ĠNy":7044,"Ġflat":7045,"Ġbreeds":7046,"Ġfearing":7047,"Ġscour":7048,"Ġserious":7049,"Ġwhit":7050,"Ġpreced":7051,"Ġappointed":7052,"Ġkingly":7053,"Ġcontri":7054,"RIPPA":7055,"Ġremoved":7056,"ailer":7057,"Ġchin":7058,"Ġcurts":7059,"OTHSA":7060,"AGRIPPA":7061,"Ġaccess":7062,"Ġmisc":7063,"Ġgrat":7064,"Ġgrass":7065,"Ġbusy":7066,"Ġstrangely":7067,"Ġdelicate":7068,"ĠStep":7069,"Ġcraft":7070,"Ġdraws":7071,"Ġinfl":7072,"Ġinfant":7073,"Ġdistance":7074,"Ġcondemned":7075,"Ġcontented":7076,"Ġwisely":7077,"Ġbarbar":7078,"Ġpoints":7079,"Ġdivor":7080,"ĠWherefore":7081,"Ġestim":7082,"Ġfeared":7083,"Commend":7084,"standing":7085,"Ġcowards":7086,"ĠParolles":7087,"Ġpitiful":7088,"Ġsecrets":7089,"Ġerr":7090,"ĠAdieu":7091,"Ġproceeding":7092,"Ġrefuse":7093,"GAUNT":7094,"Ġthroats":7095,"Ġofficers":7096,"phelia":7097,"Ġdeceit":7098,"ĠDeath":7099,"Ġimagination":7100,"SOOTHSA":7101,"Ġpinch":7102,"Something":7103,"BALTHAS":7104,"Ġdisguised":7105,"WILLIAMS":7106,"ĠOctavia":7107,"Romeo":7108,"soever":7109,"SURREY":7110,"Ġstretch":7111,"Ġnimble":7112,"CATESBY":7113,"atcliffe":7114,"ELBOW":7115,"SOOTHSAYER":7116,"BALTHASAR":7117,"),":7118,"AUS":7119,"BL":7120,"CER":7121,"Fly":7122,"Fore":7123,"GILIA":7124,"GHOST":7125,"LANT":7126,"PLANT":7127,"Right":7128,"Rather":7129,"VELL":7130,"WINCH":7131,"bin":7132,"gan":7133,"great":7134,"hus":7135,"iven":7136,"nel":7137,"nken":7138,"oan":7139,"sha":7140,"when":7141,"Ã¦":7142,"Ġte":7143,"Ġtab":7144,"Ġsilly":7145,"Ġbul":7146,"eriss":7147,"Ġfount":7148,"itic":7149,"Ġdame":7150,"enes":7151,"Ġthin":7152,"stit":7153,"stone":7154,"Ġgame":7155,"atic":7156,"see":7157,"Ġhaw":7158,"Ġhall":7159,"aying":7160,"imple":7161,"Ġec":7162,"Ġsty":7163,"raft":7164,"raced":7165,"ids":7166,"Ġshapes":7167,"nty":7168,"EROS":7169,"Ġsue":7170,"Ġsung":7171,"Ġsucceed":7172,"ĠMust":7173,"ĠBed":7174,"ĠLorenzo":7175,"ĠGet":7176,"ĠFrom":7177,"ication":7178,"eping":7179,"ostard":7180,"ĠOphelia":7181,"Ġoracle":7182,"ĠTom":7183,"hylock":7184,"Ġlikewise":7185,"ignty":7186,"Ġju":7187,"Ġens":7188,"Ġquest":7189,"imely":7190,"Ġprocess":7191,"Ġflame":7192,"ioch":7193,"osop":7194,"Noble":7195,"ILOR":7196,"Ġbreeding":7197,"Ġlevel":7198,"lips":7199,"Ġdeaths":7200,"Ġtroop":7201,"Ġperchance":7202,"Ġrapier":7203,"Ġkeen":7204,"Ġappl":7205,"Ġapprehend":7206,"Ġmightst":7207,"ertram":7208,"Ġrepose":7209,"Ġbrand":7210,"mph":7211,"ably":7212,"Ġmothers":7213,"Ġresist":7214,"AGENET":7215,"Ġthrong":7216,"Ġkills":7217,"Ġstrang":7218,"Ġmoves":7219,"Ġdrunken":7220,"Ġmurd":7221,"Ġsupposed":7222,"Ġexcell":7223,"Ġcarri":7224,"Ġterrible":7225,"hilosop":7226,"Ġcorp":7227,"should":7228,"olyta":7229,"Ġtitles":7230,"Ġguarded":7231,"Ġrasc":7232,"headed":7233,"Ġapace":7234,"ĠTyre":7235,"Ġprovided":7236,"Ġmutiny":7237,"Ġconditions":7238,"Ġtribute":7239,"Ġeldest":7240,"Ġdirectly":7241,"Ġreceiv":7242,"Ġextremity":7243,"Ġbeguile":7244,"ĠKatherina":7245,"Ġgrievous":7246,"Ġfrost":7247,"Ġpearl":7248,"Ġblushing":7249,"Ġceremony":7250,"Ġintelligence":7251,"ippolyta":7252,"Ġsinews":7253,"ĠRegan":7254,"clamation":7255,"PLANTAGENET":7256,"WINCHESTER":7257,"erissa":7258,"Break":7259,"BARNARD":7260,"Duke":7261,"Fall":7262,"IGH":7263,"JESS":7264,"RIC":7265,"Sit":7266,"SOLDIER":7267,"VERN":7268,"Worthy":7269,"acc":7270,"eves":7271,"lorn":7272,"logue":7273,"make":7274,"mouth":7275,"mione":7276,"vive":7277,"wor":7278,"yet":7279,"ĠX":7280,"Ġale":7281,"Ġsire":7282,"Ġwand":7283,"Ġwished":7284,"reg":7285,"reason":7286,"reme":7287,"Ġbrown":7288,"isher":7289,"Ġdil":7290,"Ġcouch":7291,"Ġlark":7292,"Ġnap":7293,"Ġthrew":7294,"Ġthread":7295,"Ġpull":7296,"Ġpite":7297,"Ġbeats":7298,"Ġbeams":7299,"lend":7300,"ourage":7301,"Ġforms":7302,"rian":7303,"rial":7304,"alse":7305,"racious":7306,"Ġloat":7307,"ĠCostard":7308,"ARRO":7309,"ĠHear":7310,"ĠAumerle":7311,"Ġfawn":7312,"Ġspect":7313,"ĠBertram":7314,"ĠLong":7315,"ĠLadies":7316,"Ġmanly":7317,"Ġmanage":7318,"ulate":7319,"Ġblast":7320,"Ġworks":7321,"Ġsirs":7322,"ĠTurk":7323,"ooked":7324,"Ġpled":7325,"uno":7326,"unity":7327,"Ġhole":7328,"Ġoutra":7329,"Ġdiseas":7330,"Ġalack":7331,"Ġaloud":7332,"Ġoffences":7333,"Ġflout":7334,"Ġabused":7335,"ICA":7336,"ullus":7337,"lius":7338,"aph":7339,"chel":7340,"Ġscandal":7341,"Ġcommons":7342,"Ġragged":7343,"Ġimmediate":7344,"Ġcontents":7345,"Ġbeget":7346,"Ġmerc":7347,"Ġbrace":7348,"acles":7349,"rantz":7350,"Ġcop":7351,"Ġcoin":7352,"ension":7353,"Ġguide":7354,"btain":7355,"Ġafternoon":7356,"Ġhusbands":7357,"Ġthankful":7358,"Ġbreaking":7359,"Ġboots":7360,"Ġstraw":7361,"Ġdefy":7362,"Ġcomforts":7363,"Ġmettle":7364,"Ġsenseless":7365,"Ġyielded":7366,"ĠRobin":7367,"Ġbargain":7368,"ossess":7369,"Ġweakness":7370,"voc":7371,"Ġquarter":7372,"ĠHelic":7373,"Arm":7374,"Ġcloset":7375,"Ġresolve":7376,"Ġmiracle":7377,"ĠMacduff":7378,"Ġmedic":7379,"Ġevils":7380,"Ġforswear":7381,"Ġconceal":7382,"Ġprovide":7383,"ĠRosaline":7384,"Ġsmoke":7385,"Better":7386,"OSRIC":7387,"Ġambassad":7388,"Ġconclude":7389,"Ġhungry":7390,"VERS":7391,"ĠBlunt":7392,"VIRGILIA":7393,"ĠGentlemen":7394,"ĠSenate":7395,"FRAN":7396,"Ġamazed":7397,"Ġcalf":7398,"Ġtreacherous":7399,"Ġlodging":7400,"Gentlemen":7401,"shire":7402,"Ġtrifle":7403,"Ġopposite":7404,"ĠScotland":7405,"ribunes":7406,"Ġneglect":7407,"Return":7408,"encrantz":7409,"Ġrejoice":7410,"Ġrescue":7411,"Ġcommonwealth":7412,"Ġenforced":7413,"Ġphrase":7414,"ĠWorcester":7415,"ĠForest":7416,"ĠProspero":7417,"JESSICA":7418,"VERNON":7419,"Char":7420,"DIT":7421,"Henry":7422,"OFFICER":7423,"RAT":7424,"Richard":7425,"Sure":7426,"aches":7427,"aze":7428,"bon":7429,"ead":7430,"fast":7431,"ffered":7432,"gro":7433,"ien":7434,"overy":7435,"sc":7436,"scri":7437,"vir":7438,"Ġtim":7439,"Ġtig":7440,"Ġsouth":7441,"inary":7442,"rence":7443,"isa":7444,"eril":7445,"lled":7446,"Ġfem":7447,"Ġfires":7448,"Ġdat":7449,"Ġdart":7450,"Ġobtain":7451,"Ġyes":7452,"Ġpred":7453,"Ġpush":7454,"Ġphilosop":7455,"Ġhey":7456,"anced":7457,"Ġhare":7458,"utio":7459,"iring":7460,"imo":7461,"chor":7462,"Ġnoted":7463,"Ġforlorn":7464,"asp":7465,"asing":7466,"ric":7467,"Ġliken":7468,"Ġwillow":7469,"Ġlocks":7470,"Ġann":7471,"ilence":7472,"ruly":7473,"Ġfact":7474,"Ġspark":7475,"ĠMant":7476,"Ġvoy":7477,"ĠPart":7478,"hano":7479,"ending":7480,"ĠGREY":7481,"ulous":7482,"icle":7483,"Ġcanker":7484,"olt":7485,"oler":7486,"Ġthereby":7487,"Ġorc":7488,"ĠTr":7489,"Ġjot":7490,"CHANT":7491,"Ġtrunk":7492,"Ġhonoured":7493,"Ġexile":7494,"Ġexpl":7495,"Ġaltogether":7496,"Ġflint":7497,"Ġroaring":7498,"aged":7499,"cipl":7500,"Ġriot":7501,"Ġriver":7502,"liament":7503,"ĠHec":7504,"Ġsweetest":7505,"Ġappoint":7506,"Ġafoot":7507,"Ġeverl":7508,"ewis":7509,"Ġreproach":7510,"Ġnatures":7511,"Ġcoast":7512,"Ġfeign":7513,"Ġfalling":7514,"Ġtried":7515,"Ġchang":7516,"Ġbidding":7517,"Ġmatters":7518,"Ġmoan":7519,"Ġbeside":7520,"ivity":7521,"Ġstrict":7522,"Ġhappily":7523,"Ġbox":7524,"PERDIT":7525,"Ġcareful":7526,"Ġbreathing":7527,"Ġroyalty":7528,"Ġdoubtful":7529,"ĠStand":7530,"Ġcraves":7531,"Ġskin":7532,"Ġmetal":7533,"Ġinfirm":7534,"Ġdistract":7535,"Twill":7536,"ublius":7537,"Ġsovereignty":7538,"Ġsignior":7539,"Ġsignify":7540,"Ġapprove":7541,"Ġbonds":7542,"Ġkingdoms":7543,"ĠTitinius":7544,"Ġpossessed":7545,"Ġmarching":7546,"Ġflattery":7547,"ugby":7548,"Ġelements":7549,"ĠLovell":7550,"Ġconclud":7551,"Ġurge":7552,"Ġgrandam":7553,"Desp":7554,"Pluck":7555,"Ġowes":7556,"Ġdismiss":7557,"Ġfeeble":7558,"Ġguiltless":7559,"Ġsolic":7560,"Ġbabes":7561,"Ġprosperous":7562,"Ġtreachery":7563,"Ġrenowned":7564,"Ġbeggars":7565,"Ġfuneral":7566,"ĠIsabel":7567,"SIMPLE":7568,"Ġpreparation":7569,"ĠPaulina":7570,"Ġsociety":7571,"ĠBohemia":7572,"Ġdowry":7573,"Ġsemblance":7574,"Ġdukedom":7575,"Ġinnocence":7576,"ĠCollatine":7577,"Ġrebellion":7578,"Ġproportion":7579,"Ġancest":7580,"Ġallegiance":7581,"PERDITA":7582,"BED":7583,"Ch":7584,"GN":7585,"Ho":7586,"Him":7587,"II":7588,"ILO":7589,"IGN":7590,"New":7591,"OUR":7592,"Patience":7593,"SLY":7594,"bre":7595,"curs":7596,"gentle":7597,"horse":7598,"iqu":7599,"ium":7600,"lter":7601,"late":7602,"nes":7603,"roth":7604,"rish":7605,"rity":7606,"sm":7607,"teen":7608,"worth":7609,"yard":7610,"zed":7611,"Ġax":7612,"incul":7613,"Ġmethought":7614,"Ġwipe":7615,"Ġwalks":7616,"onis":7617,"Ġdine":7618,"Ġchat":7619,"Ġhouses":7620,"ĠIras":7621,"ingu":7622,"Ġgap":7623,"eder":7624,"sec":7625,"utch":7626,"key":7627,"ourn":7628,"Ġstum":7629,"verty":7630,"Ġashes":7631,"ainty":7632,"Ġdefect":7633,"Things":7634,"Ġsugg":7635,"ĠHippolyta":7636,"ĠMine":7637,"Ġvap":7638,"Ġvault":7639,"ĠPucelle":7640,"ĠBring":7641,"ĠLaw":7642,"ĠLewis":7643,"Ġshout":7644,"Ġmanif":7645,"Ġamends":7646,"Ġamorous":7647,"Ġgoods":7648,"Ġgoss":7649,"ĠFenton":7650,"icha":7651,"Ġswain":7652,"Ġarise":7653,"Ġroof":7654,"Ġbran":7655,"LOVELL":7656,"Ġpoverty":7657,"Ġexerc":7658,"ĠJailer":7659,"ĠJoan":7660,"Ġfold":7661,"ignier":7662,"Ġfairies":7663,"Ġcompare":7664,"RIVERS":7665,"Ġbegot":7666,"Ġharbour":7667,"Ġendea":7668,"Ġyoungest":7669,"Ġcox":7670,"Ġcoll":7671,"Ġfallen":7672,"Ġtrembling":7673,"Ġrightly":7674,"Ġimped":7675,"ixenes":7676,"Ġpraised":7677,"Almost":7678,"Ġbeaut":7679,"Ġkissing":7680,"Ġcounsell":7681,"REIGN":7682,"Ġcareless":7683,"Ġtalking":7684,"Ġsights":7685,"Ġprompt":7686,"Ġsuppose":7687,"CORIN":7688,"Ġsadly":7689,"Ġworking":7690,"MASTER":7691,"ĠAlenÃ§on":7692,"Ġforehead":7693,"Ġdisturb":7694,"Ġasked":7695,"Ġlads":7696,"Ġpays":7697,"PETER":7698,"Ġrequite":7699,"Ġfourteen":7700,"MERCHANT":7701,"Ġhideous":7702,"Ġburnt":7703,"Ġbachel":7704,"ĠRosencrantz":7705,"Dead":7706,"Ġrebel":7707,"ĠCountess":7708,"Ġsatisfy":7709,"SILVIUS":7710,"Ġdestruction":7711,"Ġschol":7712,"Ġinjuries":7713,"Ġgrandsire":7714,"Ġdearer":7715,"Ġthreaten":7716,"Ġphysician":7717,"Ġexpectation":7718,"ĠCorioles":7719,"Ġpotent":7720,"Ġmiseries":7721,"MONTANO":7722,"ĠCressida":7723,"Ġloyalty":7724,"Lead":7725,"Ġcherish":7726,"Ġtouches":7727,"Ġimperial":7728,"ĠKatherine":7729,"Ġpierce":7730,"eptune":7731,"ĠJaques":7732,"Ġclerk":7733,"ĠMessala":7734,"rippa":7735,"Ġperpetual":7736,"ĠGarter":7737,"Ġscurvy":7738,"Ġdoublet":7739,"ĠAthenian":7740,"Ġvulgar":7741,"ĠBarnard":7742,"ĠNym":7743,"Ġpiteous":7744,"lendower":7745,"Ġlikeness":7746,"Ġexplo":7747,"BEDFORD":7748,"REIGNIER":7749,";âĢĶ":7750,"ABELLA":7751,"Bea":7752,"CENTIO":7753,"DION":7754,"Every":7755,"EBE":7756,"Father":7757,"GLEN":7758,"Live":7759,"Methought":7760,"OEBE":7761,"POR":7762,"Sleep":7763,"UE":7764,"Villain":7765,"ais":7766,"acious":7767,"bi":7768,"court":7769,"gins":7770,"jest":7771,"kn":7772,"mity":7773,"made":7774,"pret":7775,"ule":7776,"work":7777,"ĠÃ":7778,"Ġought":7779,"Ġvers":7780,"Ġtal":7781,"Ġtren":7782,"Ġtales":7783,"Ġslip":7784,"Ġsitting":7785,"incentio":7786,"Ġmould":7787,"Ġwenches":7788,"Ġbounds":7789,"orp":7790,"orough":7791,"llen":7792,"Ġfrank":7793,"onoured":7794,"ita":7795,"itus":7796,"itation":7797,"Ġdit":7798,"Ġdate":7799,"Ġdiet":7800,"Ġdainty":7801,"Ġcel":7802,"Ġcud":7803,"Ġlin":7804,"Ġthirty":7805,"arth":7806,"Ġped":7807,"Ġpine":7808,"hath":7809,"Ġhedge":7810,"anish":7811,"Ġgn":7812,"cet":7813,"ills":7814,"illon":7815,"alty":7816,"Ġhist":7817,"Ġlily":7818,"Ġliver":7819,"Ġlions":7820,"Ġsober":7821,"vert":7822,"cknow":7823,"Ġsex":7824,"ANIA":7825,"ANIEL":7826,"Ġlodge":7827,"ARTIUS":7828,"ARTHUR":7829,"Ġansw":7830,"ĠHold":7831,"Ġspit":7832,"Ġkna":7833,"ĠMadam":7834,"ĠPublius":7835,"ĠBeau":7836,"ĠGall":7837,"ĠGrey":7838,"Ġupright":7839,"Ġamen":7840,"Ġconverse":7841,"Ġconsequ":7842,"ĠFollow":7843,"ALEX":7844,"Ġprime":7845,"Ġworms":7846,"THANIEL":7847,"igent":7848,"Ġje":7849,"Ġrush":7850,"Ġenchant":7851,"ĠKeep":7852,"Ass":7853,"Ġprog":7854,"Ġdiscipl":7855,"Ġaloft":7856,"ĠNeptune":7857,"Ġabus":7858,"Ġrobe":7859,"Ġrocks":7860,"Ġrobb":7861,"ICIAN":7862,"Ġriches":7863,"Ġmarvell":7864,"Ġtelling":7865,"Item":7866,"Ġclam":7867,"Whereof":7868,"PHOEBE":7869,"Ġslumber":7870,"iana":7871,"Ġkeeper":7872,"Ġhousehold":7873,"Ġhourly":7874,"ULPH":7875,"Ġpasses":7876,"ĠAntioch":7877,"Ġpeer":7878,"Ġpeep":7879,"AGUE":7880,"Ġrights":7881,"Ġaccording":7882,"mbers":7883,"Ġhandsome":7884,"Ġgrim":7885,"Ġburial":7886,"DOWER":7887,"comb":7888,"ĠArm":7889,"Ġsilk":7890,"Ġsenators":7891,"Ġattending":7892,"withstanding":7893,"ĠAlarum":7894,"Ġpleasing":7895,"Twixt":7896,"Ġrecon":7897,"Ġsurvey":7898,"PANDULPH":7899,"Ġdivision":7900,"otspur":7901,"eshrew":7902,"Ġwooing":7903,"Ġembass":7904,"TITANIA":7905,"Ġtax":7906,"Ġstirring":7907,"Ġheirs":7908,"Ġsufferance":7909,"Ġreligious":7910,"Ġsafely":7911,"Ġdiam":7912,"Ġdiest":7913,"Ġfrowns":7914,"Ġprotect":7915,"Ġvanqu":7916,"Ġshores":7917,"ĠApollo":7918,"Ġhunger":7919,"Ġinstantly":7920,"Ġmourning":7921,"ĠLADY":7922,"Ġcomplaint":7923,"Ġhorrible":7924,"Ġsensible":7925,"Ġwager":7926,"Ġapparent":7927,"WOMAN":7928,"ĠPolixenes":7929,"ĠDiomedes":7930,"Ġpunishment":7931,"DOLABELLA":7932,"Ġtouched":7933,"ĠOctavius":7934,"NATHANIEL":7935,"Ġvarlet":7936,"VINCENTIO":7937,"Ġforsake":7938,"Ġconcerns":7939,"ĠVolsces":7940,"ĠCornwall":7941,"Ġexpedition":7942,"ĠPhoebe":7943,"Ġadventure":7944,"Ġbottle":7945,"Ġvassal":7946,"Ġstrokes":7947,"Ġdivorce":7948,"CERIMON":7949,"Ġvoyage":7950,"Ġorchard":7951,"inculo":7952,"GLENDOWER":7953,"PORTER":7954,"Ġanswers":7955,"Alex":7956,"Fri":7957,"Gu":7958,"GARDIN":7959,"Hal":7960,"John":7961,"Kiss":7962,"Lies":7963,"NOX":7964,"Ten":7965,"Time":7966,"Ye":7967,"bel":7968,"din":7969,"met":7970,"ns":7971,"oqu":7972,"pri":7973,"piece":7974,"roof":7975,"sen":7976,"sbury":7977,"ux":7978,"Ġtaint":7979,"Ġtired":7980,"Ġape":7981,"Ġsed":7982,"Ġwaking":7983,"hamed":7984,"Ġbatter":7985,"isc":7986,"ories":7987,"esu":7988,"Ġdial":7989,"Ġcook":7990,"Ġox":7991,"ense":7992,"Ġpi":7993,"Ġpest":7994,"Ġpul":7995,"Ġpath":7996,"vet":7997,"atched":7998,"Ġinfection":7999,"Ġmyster":8000,"iments":8001,"Ġnotes":8002,"Ġweed":8003,"alter":8004,"Ġstuck":8005,"Ġstocks":8006,"Ġrese":8007,"urity":8008,"Ġashamed":8009,"Ġdefe":8010,"ĠSn":8011,"ĠSuch":8012,"thren":8013,"Ġsuitor":8014,"Ġsustain":8015,"Ġsuffered":8016,"ĠHim":8017,"ĠHotspur":8018,"ĠPh":8019,"romwell":8020,"ĠLea":8021,"ĠLie":8022,"Ġshirt":8023,"Enough":8024,"ĠGhost":8025,"ĠGlendower":8026,"ived":8027,"Ġconvers":8028,"ALICE":8029,"pper":8030,"ĠDer":8031,"ĠDoth":8032,"orthi":8033,"ortunity":8034,"ĠRugby":8035,"arer":8036,"Ġlets":8037,"ĠTill":8038,"ĠTars":8039,"Ġplaced":8040,"Ġrat":8041,"Ġrites":8042,"Ġenri":8043,"ĠKnight":8044,"Ġpos":8045,"Ġextend":8046,"ĠEs":8047,"ĠELEANOR":8048,"ĠJud":8049,"Ġchamp":8050,"Ġdesired":8051,"Ġbetimes":8052,"Ġwrites":8053,"Ġnightly":8054,"Ġraging":8055,"Ġhasty":8056,"URSU":8057,"Ġevermore":8058,"Ġharvest":8059,"CONRA":8060,"Ġpurge":8061,"IMER":8062,"their":8063,"Ġsleeve":8064,"Ġrestra":8065,"Ġchest":8066,"Ġcheap":8067,"Ġresign":8068,"Ġbackward":8069,"orset":8070,"atient":8071,"Ġevening":8072,"Ġwindows":8073,"Ġsteed":8074,"Ġlays":8075,"Ġwanting":8076,"Ġswearing":8077,"Ġexceeding":8078,"Ġsadness":8079,"Ġwaves":8080,"Ġafford":8081,"Ġdrinking":8082,"Ġparce":8083,"Ġacts":8084,"ossom":8085,"Ġrequire":8086,"Ġwheel":8087,"Command":8088,"Ġpenit":8089,"Ġwonderful":8090,"Ġscorns":8091,"Ġuntimely":8092,"Ġbroad":8093,"Ġmountains":8094,"Ġdirection":8095,"Ġbeastly":8096,"Ġgrieves":8097,"ĠTitan":8098,"Ġmistook":8099,"Ġmistrust":8100,"Ġbowels":8101,"SILENCE":8102,"Disp":8103,"Ġeleven":8104,"Ġinsol":8105,"Ġvanity":8106,"Ġesp":8107,"Ġowl":8108,"Ġstole":8109,"Ġdismal":8110,"Ġgreeting":8111,"Perchance":8112,"Ġvirginity":8113,"Ġcompanions":8114,"Adv":8115,"Ġmurdered":8116,"Ġloathsome":8117,"queath":8118,"Ġaltar":8119,"Ġunseen":8120,"white":8121,"Ġfantast":8122,"Lucius":8123,"ĠMercutio":8124,"ĠGoneril":8125,"Ġdetermine":8126,"Ġreckoning":8127,"ĠFlorence":8128,"ĠDenmark":8129,"Ġsacrifice":8130,"Witness":8131,"Ġyesterday":8132,"ĠBesides":8133,"ĠThaisa":8134,"uptial":8135,"ĠChamberlain":8136,"Ġrheum":8137,"MORTIMER":8138,"IGHT":8139,"Ġpledge":8140,"ĠMantua":8141,"Ġaxe":8142,"ĠLawrence":8143,"ichael":8144,"Ġdiamond":8145,"GARDINER":8146,"ĠTarsus":8147,"CONRADE":8148,"CROM":8149,"Ever":8150,"ELEANOR":8151,"France":8152,"Knock":8153,"LARTIUS":8154,"Open":8155,"Saw":8156,"UG":8157,"WELL":8158,"back":8159,"bation":8160,"body":8161,"core":8162,"cock":8163,"cont":8164,"fess":8165,"honour":8166,"ias":8167,"lies":8168,"mbled":8169,"mission":8170,"pas":8171,"post":8172,"speak":8173,"vans":8174,"ymph":8175,"Ġtents":8176,"Ġslipp":8177,"Ġmas":8178,"Ġmiles":8179,"rehens":8180,"habit":8181,"erman":8182,"orus":8183,"Ġduties":8184,"Ġcardinal":8185,"Ġlan":8186,"Ġlame":8187,"Ġlaug":8188,"Ġyon":8189,"arre":8190,"Ġpow":8191,"oted":8192,"aning":8193,"inger":8194,"Ġgird":8195,"adv":8196,"advent":8197,"asions":8198,"Ġdem":8199,"Ġdeck":8200,"aments":8201,"ANMER":8202,"estial":8203,"ĠSure":8204,"ĠCin":8205,"ĠCitizens":8206,"ĠHath":8207,"ifferent":8208,"Ġfaction":8209,"Ġspot":8210,"ĠMichael":8211,"Ġvot":8212,"ĠPir":8213,"ĠLEW":8214,"Ġnegl":8215,"ĠGarden":8216,"Ġamity":8217,"empl":8218,"Ġswim":8219,"ALA":8220,"Ġprint":8221,"alled":8222,"Ġhates":8223,"Ġworser":8224,"Hector":8225,"ĠRem":8226,"ĠRatcliffe":8227,"Ġsayst":8228,"umaine":8229,"Ġplan":8230,"Ġplight":8231,"Ġrises":8232,"Ġenra":8233,"Ġenmity":8234,"Ġmadman":8235,"Ġproclamation":8236,"Ġexcus":8237,"Ġexclaim":8238,"ĠEvans":8239,"ĠNerissa":8240,"ĠJuno":8241,"cially":8242,"cibi":8243,"Ġlecher":8244,"Ġlewd":8245,"lihood":8246,"LAYER":8247,"Ġperi":8248,"Ġrav":8249,"Ġrack":8250,"Ġappeal":8251,"Ġcontain":8252,"Ġlonging":8253,"Ġreply":8254,"these":8255,"Ġbragg":8256,"ĠPrithee":8257,"ĠCawd":8258,"Ġconspir":8259,"Ġtriump":8260,"Ġfortunate":8261,"Ġplayers":8262,"Ġcharged":8263,"Ġcharms":8264,"Ġcourteous":8265,"Ġchanged":8266,"Ġretreat":8267,"Ġaccom":8268,"Ġaccord":8269,"Ġpowerful":8270,"Ġmoving":8271,"Ġassault":8272,"Ġdiscord":8273,"Ġsurety":8274,"Ġstead":8275,"ranch":8276,"Ġinstance":8277,"Ġdangers":8278,"Ġdancing":8279,"twenty":8280,"ittance":8281,"Ġremembered":8282,"Ġblessings":8283,"Ġexceed":8284,"Ġsisters":8285,"Ġinfamy":8286,"Ġdistemper":8287,"Ġcarries":8288,"Ġtrusty":8289,"Ġsumm":8290,"Ġgallows":8291,"Ġgarment":8292,"Ġmocked":8293,"Ġgroom":8294,"Ġharmony":8295,"Ġextreme":8296,"Ġranks":8297,"Ġsoftly":8298,"Ġbondage":8299,"eeming":8300,"Ġwriting":8301,"ĠAttendant":8302,"Ġagree":8303,"ĠAdonis":8304,"Ġdeparture":8305,"cilius":8306,"Ġdriven":8307,"LENNOX":8308,"Ġbreathed":8309,"Ġstarve":8310,"Ġcruelty":8311,"Ġdestiny":8312,"cannot":8313,"ĠCleon":8314,"ĠGreece":8315,"Ġhung":8316,"Ġstops":8317,"Brutus":8318,"CRANMER":8319,"Ġpolitic":8320,"ratitude":8321,"Ġdeserts":8322,"Ġstolen":8323,"Ġministers":8324,"iban":8325,"ĠAgrippa":8326,"Ġjoints":8327,"Ġunkindness":8328,"Ġswelling":8329,"Ġsymp":8330,"According":8331,"ĠAlbans":8332,"Ġsuperfl":8333,"Ġpronounce":8334,"friend":8335,"ĠRossillon":8336,"ĠVerona":8337,"Ġpeasant":8338,"Ġcoronation":8339,"Ġcontrol":8340,"ĠSyracuse":8341,"Ġcannon":8342,"Ġcharacter":8343,"Ġprodigal":8344,"Ġmerrily":8345,"favoured":8346,"Ġscruple":8347,"Ġsufficient":8348,"Ġconvenient":8349,"Ġprophesy":8350,"Ġprecedent":8351,"ĠStephano":8352,"Ġbarbarous":8353,"ĠBedford":8354,"Ġoutrage":8355,"Ġmedicine":8356,"Ġeverlasting":8357,"Ġancestors":8358,"cursions":8359,"Ġverses":8360,"Ġhistory":8361,"CROMWELL":8362,"ĠLEWIS":8363,"cibiades":8364,"ĠCawdor":8365,"Bless":8366,"Down":8367,"Five":8368,"FENT":8369,"Fetch":8370,"Gain":8371,"Gloucester":8372,"Hum":8373,"Lend":8374,"NIGHT":8375,"Over":8376,"OUN":8377,"PEM":8378,"PED":8379,"PSON":8380,"RED":8381,"SAM":8382,"TY":8383,"TIS":8384,"Toward":8385,"Wear":8386,"YOUN":8387,"Zounds":8388,"aven":8389,"ached":8390,"bridge":8391,"cons":8392,"erers":8393,"ky":8394,"kens":8395,"liness":8396,"mor":8397,"mod":8398,"nicious":8399,"pire":8400,"pens":8401,"sick":8402,"scape":8403,"too":8404,"ties":8405,"uell":8406,"ually":8407,"vied":8408,"wing":8409,"wart":8410,"water":8411,"Ġice":8412,"Ġvel":8413,"Ġtie":8414,"Ġawe":8415,"Ġmast":8416,"Ġmute":8417,"Ġwilful":8418,"Ġbene":8419,"Ġbalm":8420,"erves":8421,"itary":8422,"âĢĻ,":8423,"Ġdrows":8424,"Ġcove":8425,"Ġcurious":8426,"Ġost":8427,"Ġnearer":8428,"Ġnuptial":8429,"Ġpant":8430,"owing":8431,"athar":8432,"Ġbelike":8433,"cell":8434,"Ġhalt":8435,"ithous":8436,"Ġeats":8437,"terbury":8438,"rice":8439,"raise":8440,"races":8441,"Ġreap":8442,"Ġlief":8443,"order":8444,"urch":8445,"Ġdevour":8446,"Ġdole":8447,"amn":8448,"Ġlosing":8449,"ĠSur":8450,"ĠServing":8451,"ĠShylock":8452,"andra":8453,"ĠCromwell":8454,"ERICK":8455,"thought":8456,"Ġspee":8457,"ĠMon":8458,"ĠMore":8459,"Ġvast":8460,"Ġvig":8461,"ĠWelcome":8462,"ĠWalter":8463,"Ġmantle":8464,"Ġmankind":8465,"ĠGU":8466,"emp":8467,"ieved":8468,"ular":8469,"ĠFer":8470,"ĠFie":8471,"ĠFab":8472,"ĠFRED":8473,"icer":8474,"Ġbliss":8475,"Excellent":8476,"ĠDorset":8477,"Ġworshi":8478,"ĠTribunes":8479,"Ġherein":8480,"Ġplent":8481,"Ġplag":8482,"ighed":8483,"Ġhose":8484,"Ġmuster":8485,"Ġsails":8486,"pecially":8487,"Ġpox":8488,"Ġaloof":8489,"aved":8490,"ĠNed":8491,"Ġwhereon":8492,"Sold":8493,"Ġmarble":8494,"Ġbrethren":8495,"lict":8496,"Ġbloods":8497,"oult":8498,"Ġscape":8499,"Ġscratch":8500,"Ġpernicious":8501,"Ġadore":8502,"Ġcommod":8503,"Ġafar":8504,"ĠVincentio":8505,"Ġpresume":8506,"Ġpurple":8507,"beg":8508,"Ġeverywhere":8509,"Ġsettled":8510,"Ġcoats":8511,"Ġcozen":8512,"Ġrestore":8513,"Ġfeeds":8514,"Ġconfident":8515,"Ġconsort":8516,"Ġconsum":8517,"about":8518,"irtue":8519,"Ġcurs":8520,"Ġchanges":8521,"Ġmischance":8522,"ĠYes":8523,"Ġvillainous":8524,"Ġsteward":8525,"Ġboard":8526,"Ġhangman":8527,"Ġsoundly":8528,"aville":8529,"Uncle":8530,"Ġsinging":8531,"ĠHermione":8532,"Ġsickly":8533,"Ġdispose":8534,"Receive":8535,"Ġdeputy":8536,"Ġskull":8537,"Ġintents":8538,"Ġinteg":8539,"Ġsuffice":8540,"Ġcarriage":8541,"Ġcertainly":8542,"MESSALA":8543,"Ġladder":8544,"Ġincens":8545,"Swear":8546,"Ġdivide":8547,"essengers":8548,"Ġdespise":8549,"Ġspeedy":8550,"Ġplucked":8551,"Trumpets":8552,"Ġfrail":8553,"Ġstirs":8554,"ĠFluell":8555,"Ġindign":8556,"Ġseverally":8557,"Proceed":8558,"Ġobli":8559,"Stands":8560,"Ġtreasons":8561,"Ġpainter":8562,"Ġutmost":8563,"Ġsimpl":8564,"Ġerrand":8565,"Ġpatiently":8566,"Ġexecute":8567,"Ġdelights":8568,"Ġdrift":8569,"Ġmiddle":8570,"Ġmeddle":8571,"Ġdivers":8572,"Ġneighbours":8573,"Ġelection":8574,"Ġknocks":8575,"rateful":8576,"Ġcreate":8577,"Ġlegions":8578,"Ġescape":8579,"Ġmerely":8580,"ĠBlack":8581,"Ġprofession":8582,"Ġguests":8583,"MONTAGUE":8584,"Ġconqueror":8585,"Ġtyrann":8586,"Ġperjury":8587,"pitaph":8588,"Ġbeware":8589,"Ġpillow":8590,"Ġinfected":8591,"ĠIsabella":8592,"Ġlungs":8593,"Ġpainting":8594,"Ġshames":8595,"England":8596,"Ġgilded":8597,"Ġornament":8598,"CURTIS":8599,"Ġcurtsy":8600,"ĠHelicanus":8601,"Ġfemale":8602,"iquity":8603,"Ġbachelor":8604,"Ġscholar":8605,"FENTON":8606,"PEMBROKE":8607,"PEDANT":8608,"SAMPSON":8609,"YOUNG":8610,"atharine":8611,"Ġspeeches":8612,"ĠFabian":8613,"ĠFREDERICK":8614,"ĠFluellen":8615,"BBO":8616,"CIN":8617,"CLEON":8618,"CITIZEN":8619,"DOR":8620,"EC":8621,"Fool":8622,"Nature":8623,"OOL":8624,"SCH":8625,"Sub":8626,"Warwick":8627,"YS":8628,"YZ":8629,"Yield":8630,"burn":8631,"better":8632,"craft":8633,"fool":8634,"fac":8635,"field":8636,"faith":8637,"how":8638,"hine":8639,"jou":8640,"lam":8641,"pence":8642,"sl":8643,"sues":8644,"tr":8645,"ura":8646,"wear":8647,"wind":8648,"Ġtainted":8649,"Ġacknow":8650,"Ġwakes":8651,"Ġtheft":8652,"Ġfre":8653,"Ġfift":8654,"itate":8655,"Ġcord":8656,"Ġcab":8657,"Ġles":8658,"Ġlute":8659,"Ġnigh":8660,"Ġnarrow":8661,"Ġnymph":8662,"Ġpatter":8663,"Ġtoy":8664,"Ġheinous":8665,"another":8666,"Ġinch":8667,"iron":8668,"Ġmeed":8669,"Ġep":8670,"ention":8671,"raction":8672,"ida":8673,"Ġrein":8674,"Ġrear":8675,"Ġrelish":8676,"Ġdeli":8677,"rove":8678,"Ġseiz":8679,"Ġherd":8680,"ests":8681,"ĠSha":8682,"ĠChi":8683,"ĠCoun":8684,"ĠCamp":8685,"ĠCamb":8686,"USICIAN":8687,"ERCY":8688,"Thine":8689,"Ġsullen":8690,"rung":8691,"ĠAud":8692,"ifth":8693,"ĠMAN":8694,"ĠMusic":8695,"ĠMUSICIAN":8696,"Ġvine":8697,"Ġvous":8698,"ĠPERCY":8699,"ĠLafe":8700,"ardy":8701,"Ġourself":8702,"Ġneat":8703,"embroke":8704,"Ġsheets":8705,"Ġconv":8706,"ulation":8707,"ĠField":8708,"ĠFifth":8709,"Ġblock":8710,"Except":8711,"Ġknowest":8712,"elaus":8713,"Ġuses":8714,"uments":8715,"Ġunman":8716,"Ġunpro":8717,"Ġrot":8718,"Ġrings":8719,"Ġbrass":8720,"Ġoutlive":8721,"Ġprover":8722,"Ġprologue":8723,"Ġdispl":8724,"ĠEvery":8725,"Ġoffers":8726,"Ġflock":8727,"AMUS":8728,"Ġrogues":8729,"cip":8730,"âĢĿ;":8731,"Ġdesir":8732,"Beyond":8733,"Ġarticle":8734,"top":8735,"LAS":8736,"cheth":8737,"Ġsweeter":8738,"Ġclap":8739,"Ġraw":8740,"ANDRA":8741,"Ġapprehens":8742,"Ġprays":8743,"Ġrub":8744,"Ġruled":8745,"Ġlab":8746,"Ġcompell":8747,"Ġcompound":8748,"Ġcomplete":8749,"Ġharms":8750,"beit":8751,"Ġmale":8752,"Stab":8753,"Ġholding":8754,"Ġconfeder":8755,"Ġundert":8756,"Ġpassions":8757,"Ġstayed":8758,"Ġcurtain":8759,"Ġcharitable":8760,"arson":8761,"GOBBO":8762,"Ġbacks":8763,"Ġimpart":8764,"Ġaccomp":8765,"Ġaccursed":8766,"Ġstrangers":8767,"Ġsubscri":8768,"Ġmoons":8769,"Ġfighting":8770,"Ġbanks":8771,"Ġkissed":8772,"DOUG":8773,"comp":8774,"coming":8775,"Ġpersons":8776,"Ġentrance":8777,"Ġcryst":8778,"ĠDoll":8779,"Ġpromises":8780,"Ġcountryman":8781,"ĠStreet":8782,"Ġwearing":8783,"rewsbury":8784,"Ġleaden":8785,"ĠAlcibiades":8786,"Ġchose":8787,"Ġyielding":8788,"Ġaffright":8789,"ANTIGON":8790,"Ġsurpr":8791,"Ġmocks":8792,"Ġdespised":8793,"altha":8794,"Ġpenance":8795,"Ġgrove":8796,"Ġcrim":8797,"Ġcrime":8798,"Ġcrimes":8799,"Ġquarrels":8800,"Ġbeginning":8801,"Ġbald":8802,"Ġpitied":8803,"Ġlimb":8804,"Ġchurlish":8805,"Ġadmit":8806,"conbridge":8807,"Above":8808,"Ġdiff":8809,"Ġurg":8810,"Content":8811,"Ġdemands":8812,"Ġdeceiv":8813,"Ġbending":8814,"ĠMenelaus":8815,"ĠMACDUFF":8816,"Ġpersuasion":8817,"Ġpersuaded":8818,"Ġbounteous":8819,"ĠCanterbury":8820,"Ġhorrid":8821,"CLIFFE":8822,"Ġstarts":8823,"Ġkinsmen":8824,"ĠAlexander":8825,"ĠReignier":8826,"Ġbridegro":8827,"Ġcuckoo":8828,"Ġholp":8829,"ĠBelarius":8830,"Ġbootless":8831,"Ġprevented":8832,"Ġperjured":8833,"ĠCaliban":8834,"Ġprophet":8835,"Ġpursuit":8836,"Ġceremon":8837,"Ġpronoun":8838,"ĠLucio":8839,"ĠGonz":8840,"Ġdissol":8841,"gnant":8842,"mongst":8843,"Deliver":8844,"OCTAVIUS":8845,"Ġcorrection":8846,"Ġcandle":8847,"Edward":8848,"Ġrevels":8849,"Ġbereft":8850,"ĠPedro":8851,"Ġestimation":8852,"Ã¦sar":8853,"Ġstyle":8854,"BARNARDO":8855,"ĠLongaville":8856,"RATCLIFFE":8857,"Ġannoy":8858,"Ġexercise":8859,"Ġcoxcomb":8860,"DIONYZ":8861,"Ġconsequence":8862,"URSULA":8863,"adventure":8864,"ĠCinna":8865,"Gainst":8866,"Ġvelvet":8867,"Ġintegrity":8868,"CINNA":8869,"OOLMASTER":8870,"SCHOOLMASTER":8871,"ĠCouncil":8872,"ĠLafew":8873,"DOUGLAS":8874,"ANTIGONUS":8875,"DIONYZA":8876,"?âĢĻ":8877,"Aw":8878,"Boy":8879,"Cass":8880,"CANT":8881,"COX":8882,"Den":8883,"FE":8884,"Free":8885,"False":8886,"GES":8887,"GAD":8888,"Harry":8889,"Meet":8890,"March":8891,"NCAN":8892,"Pri":8893,"Part":8894,"Tra":8895,"TON":8896,"Takes":8897,"Talk":8898,"bea":8899,"cer":8900,"dra":8901,"del":8902,"disp":8903,"from":8904,"face":8905,"fret":8906,"iction":8907,"ique":8908,"kins":8909,"lar":8910,"mo":8911,"mas":8912,"sir":8913,"tied":8914,"vius":8915,"ye":8916,"Ãĩ":8917,"Ġafore":8918,"Ġaug":8919,"into":8920,"Ġmor":8921,"Ġmonsieur":8922,"Ġmessengers":8923,"Ġwak":8924,"Ġbone":8925,"Ġbough":8926,"Ġbail":8927,"Ġbully":8928,"eration":8929,"orter":8930,"lling":8931,"Ġfray":8932,"Ġded":8933,"Ġdower":8934,"Ġcent":8935,"Ġcrows":8936,"Ġlat":8937,"Ġlance":8938,"Ġlatter":8939,"enix":8940,"Ġthirst":8941,"Ġthrows":8942,"Ġhire":8943,"Ġoffered":8944,"anks":8945,"angs":8946,"owed":8947,"Ġgage":8948,"Ġgorge":8949,"atus":8950,"Ġbecame":8951,"Ġbethink":8952,"Ġhaught":8953,"lect":8954,"utland":8955,"imp":8956,"Ġmeas":8957,"Ġnotwithstanding":8958,"Ġepitaph":8959,"ading":8960,"Ġstake":8961,"iding":8962,"ENÃĩ":8963,"Ġlofty":8964,"geons":8965,"ERBURY":8966,"Throw":8967,"ilius":8968,"Ġbutt":8969,"ĠHol":8970,"rude":8971,"runk":8972,"ellows":8973,"ĠMost":8974,"ĠMaine":8975,"ĠBE":8976,"ĠBar":8977,"ĠBARDOLPH":8978,"Ġshining":8979,"antime":8980,"ousins":8981,"quis":8982,"Ġmuse":8983,"ulter":8984,"ulvia":8985,"Ġswoon":8986,"ALENÃĩ":8987,"Ġthereto":8988,"ĠDion":8989,"Ġarch":8990,"Whate":8991,"ĠRou":8992,"ĠRivers":8993,"ĠRutland":8994,"Ġruth":8995,"Ġenf":8996,"ĠKatharine":8997,"Ġquaint":8998,"Ġhop":8999,"Ġsap":9000,"IRAS":9001,"orns":9002,"Ġexpense":9003,"ĠNothing":9004,"Ġrope":9005,"Ġgrain":9006,"Ġdesc":9007,"Ġdescription":9008,"Ġleaf":9009,"Ġarticles":9010,"Ġearl":9011,"aply":9012,"Ġperformed":9013,"Ġravish":9014,"Ġwhist":9015,"Whereto":9016,"Ġprec":9017,"Ġcourses":9018,"Ġrum":9019,"DUNCAN":9020,"RIER":9021,"Ġsetting":9022,"rantic":9023,"Ġfeat":9024,"esario":9025,"Ġundergo":9026,"Ġworthless":9027,"Ġcurb":9028,"Ġforthwith":9029,"Ġimpatience":9030,"Ġreasonable":9031,"Ġprais":9032,"isters":9033,"Ġmoiety":9034,"Ġassail":9035,"Ġthousands":9036,"Ġshameful":9037,"ĠTopas":9038,"SHILL":9039,"ĠLucilius":9040,"Ġentered":9041,"ĠThink":9042,"ĠThose":9043,"Ready":9044,"Ġsilken":9045,"ĠStay":9046,"Ġdeposed":9047,"Ġattends":9048,"MAYOR":9049,"Ġdreamt":9050,"Ġchosen":9051,"Ġdeeply":9052,"Ġminutes":9053,"Ġterr":9054,"Ġdrinks":9055,"Ġrecre":9056,"Ġincon":9057,"Ġvision":9058,"Ġprofound":9059,"Hadst":9060,"Ġconfession":9061,"Ġwhet":9062,"Ġattain":9063,"Ġdevotion":9064,"azon":9065,"Ġprett":9066,"Ġcradle":9067,"Ġkneels":9068,"Seeing":9069,"Ġcaptains":9070,"Ġcounsels":9071,"Ġrespects":9072,"Ġpuiss":9073,"chers":9074,"Ġadded":9075,"Ġindifferent":9076,"Ġbait":9077,"Ġblem":9078,"Proud":9079,"ĠPomfret":9080,"ernon":9081,"Ġlimit":9082,"Ġcheerful":9083,"Ġfilled":9084,"ĠCounty":9085,"Ġflattering":9086,"Ġproceedings":9087,"Ġviolence":9088,"eyed":9089,"Ġwasted":9090,"Ġnobody":9091,"Ġstorms":9092,"Betwixt":9093,"Ġmutual":9094,"Ġgrossly":9095,"Ġaye":9096,"Ġgentleness":9097,"ĠApril":9098,"Ġgovernor":9099,"VERGES":9100,"Beseech":9101,"Ġcorner":9102,"Ġdwells":9103,"Ġtransport":9104,"Ġmaidenhead":9105,"Ġhunting":9106,"Ġimagine":9107,"Adieu":9108,"Ġchallen":9109,"Ġcorrupted":9110,"Ġemployment":9111,"ĠShrewsbury":9112,"Ġextremes":9113,"Sometime":9114,"Ġholid":9115,"colm":9116,"Ġingratitude":9117,"Ġdisguise":9118,"Ġnobler":9119,"Ġnoblest":9120,"ĠMilford":9121,"Ġprovoke":9122,"ĠAlbany":9123,"ĠSicinius":9124,"ĠBoyet":9125,"rolled":9126,"Ġarriv":9127,"SIMPCOX":9128,"Ġfilthy":9129,"Ġcouple":9130,"ĠSaturninus":9131,"Antony":9132,"Ġstatue":9133,"Ġsands":9134,"ĠDuncan":9135,"Ġmultitude":9136,"Ġachieve":9137,"leanor":9138,"Ġsplit":9139,"ĠPhilipp":9140,"Ġliquor":9141,"Ġpilgrimage":9142,"Ġrushes":9143,"Ġoverthrow":9144,"ĠThane":9145,"ĠBarnardine":9146,"Ġmarvellous":9147,"Half":9148,"Ġmystery":9149,"ĠDerby":9150,"Ġlaughed":9151,"Ġperiod":9152,"ĠAudrey":9153,"CANTERBURY":9154,"GADSHILL":9155,"ALENÃĩON":9156,"Ag":9157,"Best":9158,"Cle":9159,"Die":9160,"Def":9161,"EG":9162,"Emb":9163,"EGE":9164,"Int":9165,"Ple":9166,"SAND":9167,"Ty":9168,"Tro":9169,"Touch":9170,"VARRO":9171,"bet":9172,"bra":9173,"book":9174,"char":9175,"did":9176,"daughter":9177,"gard":9178,"gone":9179,"ipt":9180,"iable":9181,"jud":9182,"lion":9183,"may":9184,"mir":9185,"ops":9186,"pol":9187,"rr":9188,"sin":9189,"tong":9190,"uary":9191,"vion":9192,"word":9193,"whel":9194,"Åĵ":9195,"Ġtar":9196,"Ġtea":9197,"inent":9198,"inth":9199,"Ġmouse":9200,"Ġwid":9201,"Ġfulf":9202,"Ġfrantic":9203,"itan":9204,"itive":9205,"Ġdroop":9206,"Ġcasket":9207,"enor":9208,"ening":9209,"Ġthigh":9210,"ĠIach":9211,"Ġheal":9212,"stock":9213,"Ġgav":9214,"Ġgames":9215,"athe":9216,"aten":9217,"Ġbequeath":9218,"Ġhab":9219,"Ġhallow":9220,"imony":9221,"ching":9222,"Ġew":9223,"Ġebb":9224,"Ġstool":9225,"Ġsevent":9226,"ĠSi":9227,"ĠCelia":9228,"Ġnod":9229,"Ġnoon":9230,"Ġsums":9231,"Ġalliance":9232,"ĠAmen":9233,"Ġspar":9234,"Ġspell":9235,"Together":9236,"ĠMESS":9237,"ĠPuck":9238,"ĠPlease":9239,"ĠBid":9240,"ĠBull":9241,"ĠBaltha":9242,"ender":9243,"endom":9244,"quiet":9245,"Ġmudd":9246,"Ġblank":9247,"feits":9248,"Ġprim":9249,"Ġhatred":9250,"ĠDumaine":9251,"Ġusure":9252,"Ġsayest":9253,"ĠTw":9254,"ĠTHE":9255,"others":9256,"Ġlikelihood":9257,"igion":9258,"ELY":9259,"Ġunwill":9260,"Ġrising":9261,"Ġmadly":9262,"Ġbranch":9263,"Ġtruer":9264,"Ġdiso":9265,"Ġexcess":9266,"Ġalms":9267,"ĠEre":9268,"ĠEly":9269,"ĠEleanor":9270,"Ġfoil":9271,"Ġchap":9272,"aggers":9273,"Ġrig":9274,"Ġridd":9275,"Ġdesol":9276,"Ġdescent":9277,"Becomes":9278,"lier":9279,"Ġpartner":9280,"Ġclay":9281,"Ġclamour":9282,"Ġowner":9283,"Ġpert":9284,"Ġrace":9285,"Ġrue":9286,"ĠVernon":9287,"Ġcompact":9288,"swald":9289,"Ġharl":9290,"Ġshowers":9291,"Ġgloss":9292,"before":9293,"Ġkeeping":9294,"Ġreproof":9295,"Ġputting":9296,"Ġcoal":9297,"Ġconfine":9298,"ULL":9299,"Ġgiant":9300,"ontes":9301,"Ġplaying":9302,"ected":9303,"Ġimpatient":9304,"Ġaccent":9305,"Ġaccused":9306,"Ġsubstit":9307,"Ġhumility":9308,"Ġbeauties":9309,"Ġfights":9310,"ĠMariana":9311,"days":9312,"Ġlasting":9313,"Ġwelkin":9314,"ĠBeing":9315,"Ġgrowth":9316,"twould":9317,"ĠDover":9318,"Ġsupport":9319,"ĠStaff":9320,"Ġrevenue":9321,"Ġattendants":9322,"Ġpleases":9323,"Ġchoke":9324,"Canst":9325,"Ġbattles":9326,"Ġdivided":9327,"Ġmocking":9328,"Ġeaten":9329,"Ġsuitors":9330,"Ġprofane":9331,"Ġtouching":9332,"Ġplainly":9333,"ursday":9334,"Ġharmless":9335,"Ġcaptive":9336,"Ġempire":9337,"Ġfeasts":9338,"Ġmounted":9339,"Ġconstancy":9340,"ĠFlav":9341,"Ġdishonoured":9342,"Ġjests":9343,"Prove":9344,"Ġunderstanding":9345,"Ġobsc":9346,"Ġwoods":9347,"Ġrebuke":9348,"Ġsmallest":9349,"Ġexecuted":9350,"ĠAdrian":9351,"Ġwedded":9352,"ĠSilvius":9353,"Ġinvite":9354,"Ġfrowning":9355,"Ġscarcely":9356,"Ġcrept":9357,"Ġfellowship":9358,"Belike":9359,"Ġsongs":9360,"atricians":9361,"Ġbestowed":9362,"Ġfigures":9363,"Ġnecessary":9364,"Ġproclaimed":9365,"Ġwonders":9366,"Ġborrowed":9367,"ĠAlexas":9368,"Ġbaseness":9369,"Ġcorruption":9370,"Ġfruitful":9371,"ispers":9372,"Ġbells":9373,"Ġbigger":9374,"ĠVolumn":9375,"Strikes":9376,"Ġsquare":9377,"Ġaffected":9378,"Ġwolves":9379,"Ġhills":9380,"Ġsalute":9381,"Ġwitchcraft":9382,"ĠMalcolm":9383,"ominable":9384,"BALT":9385,"Ġhighest":9386,"Ġnobleness":9387,"Ġfunction":9388,"Ġstabbed":9389,"Ġflatterer":9390,"Ġmagic":9391,"Ġshroud":9392,"Supp":9393,"Ġhinder":9394,"ĠSaturnine":9395,"pulch":9396,"Ġbelongs":9397,"boys":9398,"withal":9399,"Ġexperience":9400,"Ġbrawl":9401,"Ġballad":9402,"ĠAngiers":9403,"Ġfountain":9404,"Ġexcellence":9405,"Ġrascals":9406,"Ġdiseases":9407,"Ġmerciful":9408,"Ġambassador":9409,"Ġtiger":9410,"ĠTrinculo":9411,"inguish":9412,"Ġexploit":9413,"Ġcelestial":9414,"Ġlinen":9415,"Ġknavery":9416,"ĠLieutenant":9417,"ĠPirithous":9418,"Ġsuperfluous":9419,"TYBALT":9420,"Ġdrowsy":9421,"Ġcovet":9422,"ĠSurrey":9423,"Soldiers":9424,"Ġoblivion":9425,"Ġfifteen":9426,"Ġbridegroom":9427,"Ġlatest":9428,"ĠRouen":9429,"EGEON":9430,"SANDYS":9431,"ĠIachimo":9432,"Add":9433,"BESS":9434,"Beshrew":9435,"EEPER":9436,"Last":9437,"Lives":9438,"LIE":9439,"Murder":9440,"Rel":9441,"SOL":9442,"Tush":9443,"Vouchsafe":9444,"again":9445,"away":9446,"aving":9447,"cover":9448,"down":9449,"fed":9450,"lers":9451,"mes":9452,"mine":9453,"miss":9454,"oat":9455,"po":9456,"rot":9457,"said":9458,"sino":9459,"tween":9460,"uate":9461,"vis":9462,"vous":9463,"villain":9464,"wed":9465,"worthy":9466,"zab":9467,"ĠUpon":9468,"Ġtun":9469,"Ġtorn":9470,"Ġtire":9471,"Ġtaunt":9472,"inch":9473,"inces":9474,"Ġmort":9475,"isement":9476,"erp":9477,"Ġfet":9478,"Ġfist":9479,"Ġfert":9480,"Ġfile":9481,"âĢĻâĢĶ":9482,"Ġdried":9483,"Ġced":9484,"Ġcull":9485,"Ġlar":9486,"Ġoil":9487,"ena":9488,"enced":9489,"envo":9490,"Ġpir":9491,"Ġpounds":9492,"Ġtoys":9493,"Ġheel":9494,"anger":9495,"aniel":9496,"stood":9497,"Ġgilt":9498,"athan":9499,"Ġham":9500,"ayer":9501,"Ġnotorious":9502,"Ġegg":9503,"Ġweal":9504,"add":9505,"Ġits":9506,"Ġrenew":9507,"uss":9508,"Ġken":9509,"Ġasunder":9510,"Ġdeem":9511,"Ġdol":9512,"ENANT":9513,"Ġshakes":9514,"Ġsepulch":9515,"earest":9516,"ĠCourt":9517,"ĠCÃ¦sar":9518,"Ġsugar":9519,"Ġbutter":9520,"ific":9521,"Ġspurs":9522,"ĠMan":9523,"ĠPembroke":9524,"ĠBen":9525,"ĠBrab":9526,"Ġshrink":9527,"antages":9528,"Ġample":9529,"ula":9530,"ĠFort":9531,"ĠFool":9532,"icity":9533,"OLER":9534,"ĠDis":9535,"ĠOber":9536,"ĠOswald":9537,"Ġarbit":9538,"ĠTrain":9539,"ĠThebes":9540,"Ġplants":9541,"ishing":9542,"unuch":9543,"ĠKEEPER":9544,"peed":9545,"Ġproves":9546,"Ġprocure":9547,"Ġeyel":9548,"Ġdislike":9549,"Ġexact":9550,"Oft":9551,"Ġribs":9552,"Ġleather":9553,"tock":9554,"lizab":9555,"Ġwring":9556,"Ġwrang":9557,"idered":9558,"Ġsweets":9559,"Ġclown":9560,"Ġscant":9561,"Ġscold":9562,"Ġscatter":9563,"Ġperd":9564,"Ġrabble":9565,"ANDIT":9566,"Ġpregnant":9567,"Ġapply":9568,"Ġappeared":9569,"Ġwithered":9570,"Ġlabours":9571,"ĠVent":9572,"Ġmightily":9573,"Ġcontend":9574,"gery":9575,"Ġslack":9576,"Ġslaught":9577,"bler":9578,"Ġpurg":9579,"plex":9580,"being":9581,"Ġbrag":9582,"neath":9583,"Ġrestored":9584,"Ġfeature":9585,"Ġconfer":9586,"Ġworthiness":9587,"Ġresort":9588,"Ġbringing":9589,"Ġchildish":9590,"ĠAnswer":9591,"ĠAnjou":9592,"Ġdram":9593,"Ġhelps":9594,"Ġmoist":9595,"mbly":9596,"mbles":9597,"Ġhighly":9598,"Any":9599,"Ġhappier":9600,"Ġsecre":9601,"compass":9602,"range":9603,"eneral":9604,"avish":9605,"avarre":9606,"two":9607,"ĠHerald":9608,"Ġflying":9609,"Ġsuppl":9610,"Read":9611,"Ġcram":9612,"Ġwatery":9613,"Ġinfer":9614,"Ġsenate":9615,"Ġfooting":9616,"TRIA":9617,"without":9618,"ĠFrenchman":9619,"ĠFrenchmen":9620,"Ġminion":9621,"Ġrecount":9622,"Ġselfsame":9623,"Ġsurm":9624,"Ġwiser":9625,"Ġreported":9626,"Ġbeating":9627,"ĠPerd":9628,"Ġcrooked":9629,"Ġwalking":9630,"Ġtavern":9631,"Seek":9632,"Ġopposed":9633,"Ġoppression":9634,"Ġcapable":9635,"Ġlacks":9636,"Ġmortality":9637,"ĠLeontes":9638,"UTENANT":9639,"Ġidol":9640,"Ġmotive":9641,"Ġaddress":9642,"Ġindirect":9643,"Ġvein":9644,"Ġrelent":9645,"Ġrelieve":9646,"ĠJulius":9647,"Ġobst":9648,"Ġobsequ":9649,"Ġpapers":9650,"Ġlaughing":9651,"Ġresolv":9652,"Ġhurts":9653,"ĠChristendom":9654,"Ġshoe":9655,"Ġshoes":9656,"ancies":9657,"Ġvowed":9658,"Ġoccasions":9659,"Ġcarrying":9660,"eys":9661,"attered":9662,"Ġpractise":9663,"iculous":9664,"ĠLeonatus":9665,"ĠĠĠĠĠĠĠĠĠĠĠĠĠ":9666,"Ġlists":9667,"Ġdeserving":9668,"Ġsuccession":9669,"Ġurged":9670,"Play":9671,"ĠExcursions":9672,"Ġrobes":9673,"Ġthreats":9674,"Ġtransg":9675,"Ġvisitation":9676,"Ġstopped":9677,"Ġdebts":9678,"Ġcele":9679,"minster":9680,"Ġhorror":9681,"Ġmeantime":9682,"Ġlamentable":9683,"ĠGreen":9684,"join":9685,"ĠWestminster":9686,"Ġemployed":9687,"enetta":9688,"Ġantic":9689,"Ġsauce":9690,"Ġbaby":9691,"Ġallowed":9692,"Ġdetermin":9693,"Ġcompassion":9694,"Ġcloudy":9695,"Ġheaviness":9696,"Ġbuds":9697,"ĠSicilia":9698,"Appear":9699,"Ġdoting":9700,"Ġworthiest":9701,"Ġfeathers":9702,"Present":9703,"Ġporter":9704,"Ġshriek":9705,"Ġthorns":9706,"ĠFlorent":9707,"Ġobservance":9708,"Ġgloves":9709,"ABBESS":9710,"Ġparentage":9711,"Ġimprisonment":9712,"Ġtutor":9713,"Ġwarriors":9714,"hearse":9715,"Ġhomage":9716,"Ġruffian":9717,"Ġscourge":9718,"AUSTRIA":9719,"Ġbulk":9720,"Ġconcluded":9721,"Ġbranches":9722,"Ġendeavour":9723,"Ġbeautiful":9724,"Ġtalents":9725,"ĠBeaufort":9726,"Alexandria":9727,"Ġdefeat":9728,"Ġbeneath":9729,"ĠMonmouth":9730,"ĠGUARD":9731,"Ġcommodity":9732,"Ġincensed":9733,"Ġcrystal":9734,"ĠMESSENGER":9735,"LIEUTENANT":9736,"SOLANIO":9737,"envoi":9738,"ĠOberon":9739,"lizabeth":9740,"Base":9741,"Cut":9742,"DA":9743,"Drum":9744,"Foul":9745,"Grace":9746,"GREG":9747,"HY":9748,"Ill":9749,"ILE":9750,"IWARD":9751,"Just":9752,"Kind":9753,"LL":9754,"Mer":9755,"Mad":9756,"Po":9757,"Par":9758,"Pet":9759,"Ro":9760,"Sl":9761,"Saint":9762,"Troy":9763,"Write":9764,"aur":9765,"abl":9766,"bless":9767,"cies":9768,"cold":9769,"done":9770,"fit":9771,"gled":9772,"might":9773,"mind":9774,"mont":9775,"maker":9776,"name":9777,"nothing":9778,"oin":9779,"oons":9780,"pres":9781,"ples":9782,"purse":9783,"picious":9784,"poc":9785,"scap":9786,"women":9787,"Ġtrow":9788,"heres":9789,"Ġaut":9790,"ouis":9791,"Ġmap":9792,"Ġbide":9793,"Ġfut":9794,"Ġfence":9795,"Ġfurious":9796,"Ġfickle":9797,"âĢĻ?":9798,"Ġdaring":9799,"Ġcities":9800,"Ġlime":9801,"Ġnam":9802,"Ġnurs":9803,"ario":9804,"Ġhides":9805,"Ġpud":9806,"Ġpipe":9807,"Ġpangs":9808,"Ġtoss":9809,"anied":9810,"Ġgust":9811,"Ġgains":9812,"ednes":9813,"Ġinhabit":9814,"seth":9815,"ceeds":9816,"cho":9817,"Ġeunuch":9818,"keep":9819,"Ġwea":9820,"adem":9821,"asci":9822,"alo":9823,"aling":9824,"hern":9825,"Ġstink":9826,"Ġstates":9827,"Ġrent":9828,"Ġreek":9829,"Ġrevel":9830,"urous":9831,"ushy":9832,"Ġkern":9833,"hire":9834,"ENAS":9835,"Ġshamed":9836,"Ġsepar":9837,"ĠSer":9838,"ĠSix":9839,"ĠCer":9840,"ERIA":9841,"Thrice":9842,"ARRIER":9843,"Ġanointed":9844,"ifies":9845,"Ġfac":9846,"Ġfaster":9847,"Ġspies":9848,"ĠMoth":9849,"Ġvest":9850,"ĠWol":9851,"artered":9852,"ĠBottom":9853,"ĠLion":9854,"ĠLod":9855,"ĠLartius":9856,"Ġmansion":9857,"ĠGerman":9858,"Ġamain":9859,"Ġmuff":9860,"indeed":9861,"Ġconsec":9862,"ORY":9863,"ersu":9864,"ĠFle":9865,"ico":9866,"Ġwashed":9867,"Ġswine":9868,"Ġsweep":9869,"Ġcanop":9870,"Ġprate":9871,"ola":9872,"olab":9873,"Ġhatch":9874,"ĠOld":9875,"ĠOliver":9876,"ĠOFFICER":9877,"Ġarray":9878,"Ġarras":9879,"arers":9880,"Ġplenty":9881,"iggard":9882,"Ġjade":9883,"Ġjump":9884,"Ġunlike":9885,"Ġunruly":9886,"Ġensue":9887,"Ġquake":9888,"pered":9889,"Ġtruce":9890,"Ġpoll":9891,"Ġexit":9892,"ĠEast":9893,"ĠElizabeth":9894,"ĠJesu":9895,"wny":9896,"Ġsomewhat":9897,"Ġflames":9898,"Ġabund":9899,"Ġabbey":9900,"Ġheap":9901,"Ġhowl":9902,"Ġrod":9903,"Ġroad":9904,"agon":9905,"Ġgravity":9906,"âĢĿâĢĶ":9907,"Been":9908,"liest":9909,"Ġparties":9910,"LAVIN":9911,"Ġscars":9912,"Ġcommends":9913,"Ġrags":9914,"Ġraised":9915,"Ġwhir":9916,"Ġkeys":9917,"Ġworldly":9918,"Ġwayward":9919,"Ġlac":9920,"Ġcompar":9921,"Ġcomposition":9922,"Ġarmies":9923,"Ġcontag":9924,"Ġcontempl":9925,"DULL":9926,"swear":9927,"Ġnobleman":9928,"Ġlively":9929,"iously":9930,"Ġmajest":9931,"Ġsmother":9932,"KEEPER":9933,"IANUS":9934,"acity":9935,"Ġtrag":9936,"Ġtraged":9937,"Ġconfidence":9938,"Ġunderneath":9939,"Ġeloqu":9940,"Sirs":9941,"Ġpresents":9942,"Ġcharg":9943,"Ġturning":9944,"Ġhush":9945,"Ġimpud":9946,"Ġbelov":9947,"Ġkilling":9948,"Ġmeanest":9949,"Ġhusbandry":9950,"Ġhomely":9951,"Ġfalsely":9952,"Ġdiscovery":9953,"fortune":9954,"Ġbreakfast":9955,"Ġbuilt":9956,"Ġbuzz":9957,"Ġboat":9958,"letter":9959,"Ġlanded":9960,"Ġentra":9961,"Ġentire":9962,"Ġcauses":9963,"ĠThird":9964,"ĠThursday":9965,"Ġreturns":9966,"Ġtalked":9967,"Ġreadiness":9968,"Wouldst":9969,"Ġdispos":9970,"Ġdoubts":9971,"Ġcoldly":9972,"angled":9973,"Ġleading":9974,"MAEC":9975,"Ġyields":9976,"Ġdeeper":9977,"Ġaffords":9978,"uba":9979,"Ġpayment":9980,"Ġpastime":9981,"Ġboldly":9982,"Ġreports":9983,"Ġpersonal":9984,"VALERIA":9985,"Ġwhel":9986,"ĠChiron":9987,"Ġthrift":9988,"Ġgladly":9989,"Ġsports":9990,"Ġcowardly":9991,"Ġcowardice":9992,"Ġapproaches":9993,"Arcite":9994,"Trust":9995,"Ġoppose":9996,"Ġopportunity":9997,"Ġ12":9998,"Ġcaps":9999,"Ġcapital":10000,"Ġregion":10001,"Ġtroubles":10002,"Ġmurderous":10003,"Ġconstra":10004,"Ġgrieved":10005,"Ġidly":10006,"Ġreligion":10007,"Proclaim":10008,"Ġagreed":10009,"SPIR":10010,"myself":10011,"Ġconquered":10012,"suing":10013,"calf":10014,"calus":10015,"GUE":10016,"Lords":10017,"Ġdrives":10018,"ĠSilence":10019,"Ġstudied":10020,"Ġtemples":10021,"borne":10022,"ĠScroop":10023,"ĠWithin":10024,"Ġsorts":10025,"Ġvanish":10026,"Ġgentry":10027,"Ġproperty":10028,"Knowing":10029,"Ġescap":10030,"month":10031,"riment":10032,"Ġpriests":10033,"Ġdegrees":10034,"Meantime":10035,"Ġdignities":10036,"Ġantique":10037,"Ġstomachs":10038,"Ġobjects":10039,"Ġfrighted":10040,"Ġdetested":10041,"colour":10042,"Ġeager":10043,"Ġchiefest":10044,"ĠBelmont":10045,"Ġsyll":10046,"Ġwinged":10047,"Ġblushes":10048,"Ġbills":10049,"Ġmoody":10050,"Ġsanctuary":10051,"Ġfantasy":10052,"Ġdistressed":10053,"Ġdebate":10054,"Ġdetermined":10055,"ĠJaquenetta":10056,"Ġcoffin":10057,"Ġgazing":10058,"Ġrepeat":10059,"Ġparents":10060,"Ġwrinkled":10061,"Ġmingled":10062,"Ġhypoc":10063,"Ġmiscarry":10064,"Ġecst":10065,"Ġmurders":10066,"Ġnapkin":10067,"Ġloathed":10068,"ĠHecuba":10069,"Ġinfirmity":10070,"Ġdistracted":10071,"Ġimpediment":10072,"ALEXAS":10073,"Ġdiscipline":10074,"ĠArmado":10075,"dinand":10076,"ĠLeave":10077,"ĠJudas":10078,"Ġchampion":10079,"ĠTitania":10080,"Ġnegligence":10081,"Ġtriumphant":10082,"Ġsympath":10083,"ĠFerdinand":10084,"Ġpattern":10085,"Ġlaboured":10086,"Ġsurprised":10087,"Ġcrimson":10088,"ĠGonzalo":10089,"ĠPhilippi":10090,"Troilus":10091,"ĠBalthasar":10092,"ĠStafford":10093,"ĠFlavius":10094,"ĠBrabant":10095,"Ġeyelids":10096,"ĠVentidius":10097,"Ġsecrecy":10098,"ĠPerdita":10099,"GREGORY":10100,"ednesday":10101,"ascivious":10102,"olabella":10103,"LAVINIA":10104,"MAECENAS":10105,"Bu":10106,"Bardolph":10107,"Brave":10108,"CIS":10109,"Courage":10110,"Dep":10111,"Dist":10112,"Div":10113,"Doubt":10114,"Direct":10115,"End":10116,"Fit":10117,"Fellow":10118,"Gra":10119,"High":10120,"JOHN":10121,"La":10122,"Name":10123,"PANT":10124,"Point":10125,"Teach":10126,"Titus":10127,"Virtue":10128,"Wr":10129,"bras":10130,"board":10131,"cor":10132,"cast":10133,"drink":10134,"ez":10135,"even":10136,"ext":10137,"god":10138,"lings":10139,"large":10140,"mans":10141,"much":10142,"pray":10143,"uced":10144,"vile":10145,"why":10146,"za":10147,"zes":10148,"ĠUn":10149,"Ġtreat":10150,"Ġtak":10151,"Ġtick":10152,"Ġtack":10153,"Ġast":10154,"Ġache":10155,"Ġages":10156,"inish":10157,"inence":10158,"inbras":10159,"Ġmus":10160,"Ġwi":10161,"Ġwave":10162,"Ġwip":10163,"rep":10164,"Ġber":10165,"llies":10166,"Ġfath":10167,"Ġfren":10168,"Ġfowl":10169,"once":10170,"itiff":10171,"âĢĻ;":10172,"Ġdash":10173,"Ġcu":10174,"Ġcong":10175,"Ġcords":10176,"Ġlull":10177,"Ġlends":10178,"Ġomit":10179,"Ġniggard":10180,"Ġhook":10181,"Ġpa":10182,"Ġpent":10183,"Ġpup":10184,"Ġtoe":10185,"Ġtoad":10186,"Ġtokens":10187,"otent":10188,"ann":10189,"stances":10190,"Ġgun":10191,"atage":10192,"attle":10193,"seed":10194,"Ġeg":10195,"Ġeff":10196,"alms":10197,"Ġstiff":10198,"rav":10199,"idents":10200,"Ġrehearse":10201,"urde":10202,"ushi":10203,"Ġash":10204,"rose":10205,"Ġdoves":10206,"Ġseated":10207,"ĠSin":10208,"ĠSet":10209,"ĠSimon":10210,"ĠSimple":10211,"ĠCARRIER":10212,"Throws":10213,"ARIO":10214,"Ġallay":10215,"ilogue":10216,"ifter":10217,"Ġsprings":10218,"Ġspacious":10219,"Today":10220,"hoenix":10221,"ĠMer":10222,"ĠMet":10223,"Ġvouch":10224,"ĠWhile":10225,"ĠWidow":10226,"ĠBra":10227,"ĠBona":10228,"ĠLo":10229,"ĠLike":10230,"antity":10231,"qual":10232,"quess":10233,"indarus":10234,"emand":10235,"Ġshelter":10236,"Ġgoest":10237,"ersed":10238,"roward":10239,"Ġblossom":10240,"eling":10241,"Ġarrant":10242,"Health":10243,"Forgive":10244,"Ġplum":10245,"igation":10246,"ELIUS":10247,"unction":10248,"Ġunre":10249,"Ġunfe":10250,"Ġunivers":10251,"CHMON":10252,"Ġrated":10253,"Ġencl":10254,"Ġbrim":10255,"ists":10256,"Ġtruant":10257,"Ġproject":10258,"Ġabst":10259,"Ġchari":10260,"Ġrivers":10261,"Ġrider":10262,"Ġricher":10263,"ILARIO":10264,"Ġarts":10265,"chest":10266,"Ġcloth":10267,"Ġcloy":10268,"Ġscale":10269,"Ġscroll":10270,"Ġpermit":10271,"Ġnighting":10272,"Ġadder":10273,"Ġadulter":10274,"Ġrais":10275,"Ġrages":10276,"Ġwarning":10277,"Ġcalling":10278,"Whereon":10279,"CAPH":10280,"Ġstratage":10281,"PHILO":10282,"PHILARIO":10283,"ĠVar":10284,"Ġcompet":10285,"RICHMON":10286,"achio":10287,"Ġfoolery":10288,"Ġending":10289,"Thank":10290,"Ġnativity":10291,"Ġchival":10292,"Ġfeats":10293,"Ġfeeding":10294,"Ġunderstood":10295,"Thyself":10296,"ĠAntenor":10297,"aby":10298,"Ġcurt":10299,"Ġtreble":10300,"LUCY":10301,"LUCILIUS":10302,"Ġrightful":10303,"Ġdrag":10304,"Ġbelief":10305,"Ġafterwards":10306,"Ġchances":10307,"ixed":10308,"Ġfalcon":10309,"Ġmeaner":10310,"Ġaccidents":10311,"Ġsuborn":10312,"âĢĺâĢľ":10313,"Ġassay":10314,"ourscore":10315,"fortunate":10316,"Ġsteals":10317,"Ġadvis":10318,"Answer":10319,"Ġsecurity":10320,"ĠBehold":10321,"Ġinstinct":10322,"ĠThree":10323,"Ġdenial":10324,"Ġdisposed":10325,"PEIUS":10326,"Ġseeking":10327,"Ġleader":10328,"Ġwaist":10329,"Ġknighthood":10330,"rempt":10331,"Ġforgiven":10332,"Ġsummon":10333,"Ġparliament":10334,"Ġrecovered":10335,"Ġboldness":10336,"Ġincense":10337,"Ġrichly":10338,"Ġgalled":10339,"Ġvisor":10340,"Ġweaker":10341,"Ġfasting":10342,"Comm":10343,"Coming":10344,"Ġdevised":10345,"Ġentreats":10346,"Ġcrush":10347,"Ġcreated":10348,"ĠHelp":10349,"Ġapprobation":10350,"Arise":10351,"Ġbadge":10352,"Ġfrag":10353,"Ġlosses":10354,"Ġprincip":10355,"Ġmodel":10356,"Ġ13":10357,"Ġlowly":10358,"Ġinterrupt":10359,"Ġinterpret":10360,"Ġvilely":10361,"Ġbreasts":10362,"Ġidleness":10363,"Ġcrosses":10364,"Ġinstruction":10365,"Prince":10366,"Prov":10367,"Ġresolute":10368,"Ġmalicious":10369,"Ġbowl":10370,"Ġadmired":10371,"Ġsealed":10372,"BROTHER":10373,"Ġsuccour":10374,"Ġentertained":10375,"Ġtorches":10376,"Ġbriefly":10377,"Ġsnatch":10378,"BASSIANUS":10379,"Ġbreathes":10380,"ĠTyr":10381,"rsula":10382,"Ġsafer":10383,"Ġencount":10384,"CAMPEIUS":10385,"Ġslanders":10386,"Ġinsult":10387,"Ġproofs":10388,"GAOLER":10389,"Ġbastards":10390,"Ġgrandfather":10391,"Ġintends":10392,"Ġintended":10393,"Ġcircle":10394,"Ġfiends":10395,"monst":10396,"Ġcornets":10397,"Ġstopp":10398,"Ġwaiting":10399,"Ġgirls":10400,"Ġdamnation":10401,"Ġbetrayed":10402,"CORNELIUS":10403,"Ġbasest":10404,"ĠRevenge":10405,"ĠPeto":10406,"Ġmelted":10407,"Ġreceives":10408,"Ġreceipt":10409,"Ġtempted":10410,"Ġridiculous":10411,"Ġdetest":10412,"ĠOnly":10413,"Ġprosperity":10414,"Alarums":10415,"Ġdigest":10416,"Ġusurping":10417,"Ġprevailed":10418,"OXFORD":10419,"Ġbands":10420,"Ġheavier":10421,"Ġevents":10422,"ĠPrinces":10423,"Ġdischarged":10424,"Ġtaper":10425,"Ġpearls":10426,"Trans":10427,"Ġpatron":10428,"Ġtrifles":10429,"Ġworthier":10430,"ĠVIII":10431,"Ġshrill":10432,"ocate":10433,"Ġneglected":10434,"ĠMercury":10435,"Ġlunatic":10436,"Ġaffliction":10437,"Ġassistance":10438,"Ġmillion":10439,"Ġnonny":10440,"ĠDunsin":10441,"Ġtrod":10442,"ĠHostess":10443,"Ġwrinkles":10444,"Prepare":10445,"ĠPhilome":10446,"Ġdiscontented":10447,"OCTAVIA":10448,"Ġlambs":10449,"Ġassembly":10450,"Ġtower":10451,"Ġwarrior":10452,"Ġwreck":10453,"Ġinflu":10454,"BLUNT":10455,"Ġtables":10456,"Ġcopy":10457,"FRANCIS":10458,"Ġphilosophy":10459,"chorida":10460,"Ġgossip":10461,"Ġcounsellor":10462,"Beauty":10463,"Ġcudgel":10464,"Ġembassy":10465,"ĠEscalus":10466,"Ġrestraint":10467,"Ġpenitent":10468,"Ġinsolence":10469,"ĠRemember":10470,"Ġaccompl":10471,"Ġsimplicity":10472,"Ġtyrannous":10473,"CITIZENS":10474,"Ġacknowledge":10475,"Ġcabin":10476,"Ġproverb":10477,"Ġapprehension":10478,"Ġhaughty":10479,"ĠBEAU":10480,"ĠBarb":10481,"Ġenfranch":10482,"Ġprecise":10483,"Ġrecreant":10484,"Ġholiday":10485,"Ġfertile":10486,"Ġcedar":10487,"ĠBenvolio":10488,"ĠFortinbras":10489,"Ġfuture":10490,"ĠWolsey":10491,"PANTINO":10492,"CAPHIS":10493,"RICHMOND":10494,"ĠDunsinane":10495,"Ac":10496,"Again":10497,"AILOR":10498,"Corn":10499,"Cond":10500,"Four":10501,"Fortune":10502,"Falstaff":10503,"Gave":10504,"GRI":10505,"GENTLE":10506,"Hard":10507,"Honest":10508,"Haply":10509,"Light":10510,"MAM":10511,"MOP":10512,"NAL":10513,"Past":10514,"Post":10515,"PLAYER":10516,"Ren":10517,"RAG":10518,"Sn":10519,"Serv":10520,"Sblood":10521,"Took":10522,"Use":10523,"VY":10524,"Val":10525,"Walk":10526,"Woe":10527,"YE":10528,"York":10529,"apped":10530,"break":10531,"balls":10532,"cat":10533,"ele":10534,"ech":10535,"fle":10536,"fits":10537,"ibly":10538,"je":10539,"lord":10540,"mother":10541,"oving":10542,"press":10543,"round":10544,"rates":10545,"sold":10546,"tri":10547,"til":10548,"ugg":10549,"ythee":10550,"yza":10551,"Ġtha":10552,"Ġtalks":10553,"Ġtickle":10554,"Ġtardy":10555,"Ġah":10556,"Ġactor":10557,"ouble":10558,"Ġsly":10559,"reb":10560,"Ġbol":10561,"Ġbate":10562,"Ġbars":10563,"ism":10564,"orate":10565,"Ġfol":10566,"Ġfancies":10567,"Ġfroward":10568,"itch":10569,"âĢĻ.":10570,"Ġding":10571,"Ġduck":10572,"Ġdaggers":10573,"Ġcue":10574,"Ġcrew":10575,"Ġcushi":10576,"Ġlur":10577,"Ġobl":10578,"Ġnort":10579,"Ġnail":10580,"Ġnamed":10581,"Ġthumb":10582,"Ġthorough":10583,"Ġhound":10584,"Ġpoo":10585,"Ġpel":10586,"Ġpatch":10587,"Ġphoenix":10588,"Ġtops":10589,"ĠIrish":10590,"Ġheave":10591,"othe":10592,"aned":10593,"anche":10594,"stri":10595,"owland":10596,"omy":10597,"Ġgull":10598,"Ġguts":10599,"Ġinsp":10600,"Ġbeck":10601,"utius":10602,"imate":10603,"imber":10604,"Ġmeets":10605,"Ġmeek":10606,"chool":10607,"adise":10608,"Ġhiss":10609,"rall":10610,"rack":10611,"verted":10612,"Ġasham":10613,"Ġascend":10614,"ained":10615,"ĠSm":10616,"ĠSAILOR":10617,"anda":10618,"ĠCons":10619,"ĠCesario":10620,"three":10621,"Ġnoses":10622,"ĠHo":10623,"ĠHall":10624,"ĠHang":10625,"ifer":10626,"ellus":10627,"Ġvices":10628,"ĠPLE":10629,"ĠWatch":10630,"ĠBell":10631,"ĠBless":10632,"ĠBushy":10633,"ĠLouis":10634,"Ġmangled":10635,"ĠGeneral":10636,"quer":10637,"Ġgover":10638,"ORUS":10639,"ĠFear":10640,"Ġwhatsoever":10641,"icing":10642,"Ġswan":10643,"Ġmoreover":10644,"Ġprote":10645,"ĠDown":10646,"ĠDaughter":10647,"ĠDraw":10648,"Ġorator":10649,"Ġarrows":10650,"Ġusage":10651,"ĠTru":10652,"ĠTouch":10653,"Forbear":10654,"Ġplough":10655,"Ġplains":10656,"Ġplots":10657,"ode":10658,"Ġjades":10659,"Ġrad":10660,"Ġrout":10661,"Ġbrine":10662,"Ġquantity":10663,"Ġhoar":10664,"Ġtruest":10665,"pton":10666,"Ġeyne":10667,"Ġpole":10668,"Ġpopul":10669,"Ġdiscl":10670,"ĠEl":10671,"ĠEgl":10672,"ĠEarth":10673,"ĠNell":10674,"ĠNavarre":10675,"Ġabject":10676,"Ġabominable":10677,"Ġfollies":10678,"Ġhowling":10679,"devil":10680,"Ġrode":10681,"Ġroots":10682,"ager":10683,"agus":10684,"berry":10685,"Ġlevy":10686,"Ġleek":10687,"Ġleaving":10688,"igned":10689,"Ġsweetness":10690,"Ġserving":10691,"Ġapple":10692,"Yourself":10693,"Ġwitty":10694,"Ġimitate":10695,"Ġrul":10696,"Ġrumin":10697,"Ġlazy":10698,"ĠViol":10699,"Ġcompul":10700,"Ġdownright":10701,"Ġbegged":10702,"Ġlongs":10703,"Ġendured":10704,"Ġglow":10705,"Ġglance":10706,"ertrude":10707,"Ġbrazen":10708,"never":10709,"Stood":10710,"IANS":10711,"vilion":10712,"Ġdearth":10713,"Ġcoil":10714,"Ġrests":10715,"Ġtravail":10716,"BEIANS":10717,"Ġelbow":10718,"ĠSirrah":10719,"Ġchim":10720,"Ġcheese":10721,"Ġfully":10722,"Ġperempt":10723,"Ġimpeach":10724,"Ġdraught":10725,"Ġfaithfully":10726,"Ġmole":10727,"Ġdiscovered":10728,"Ġsteeds":10729,"ĠBritt":10730,"Ġbuff":10731,"ĠMarquess":10732,"ĠLucet":10733,"Ġgreets":10734,"ranmer":10735,"enerate":10736,"Ġinstead":10737,"nerly":10738,"Ġenters":10739,"Ġcaitiff":10740,"Ġcommandment":10741,"Ġstrait":10742,"CASSANDRA":10743,"ĠArvir":10744,"Ġreads":10745,"Ġcomfortable":10746,"Ġproudest":10747,"ĠStri":10748,"Ġcrab":10749,"Ġmete":10750,"Ġrevenges":10751,"Ġsinful":10752,"ventry":10753,"Ġdistraction":10754,"Twould":10755,"Ġforgotten":10756,"Ġpasture":10757,"Ġsurgeon":10758,"Ġwisest":10759,"Ġgallants":10760,"ĠWhose":10761,"Ġwooed":10762,"Ġattach":10763,"Ġwretches":10764,"ĠChurch":10765,"young":10766,"Ġplucks":10767,"Ġapproved":10768,"Ġspeechless":10769,"Ġlustre":10770,"Ġ14":10771,"Ġoffender":10772,"Ġoffenders":10773,"Ġinterim":10774,"Ġscarf":10775,"Ġconstable":10776,"HORSON":10777,"Ġrelief":10778,"BUSHY":10779,"Ġpoisonous":10780,"ĠProc":10781,"bbles":10782,"Ġobscure":10783,"Ġposterity":10784,"Ġadmitted":10785,"Ġshop":10786,"iderius":10787,"Ġjoined":10788,"ĠNorway":10789,"Ġcommendations":10790,"conce":10791,"Ġigno":10792,"Ġoccup":10793,"Ġmidst":10794,"Ġdiadem":10795,"Ġpractices":10796,"SAYE":10797,"Ġstealing":10798,"Ġknocking":10799,"Ġopinions":10800,"Ġinsin":10801,"REYNAL":10802,"Captain":10803,"ILLIUS":10804,"ĠUrsula":10805,"Ġdrunkard":10806,"Ġrobbed":10807,"Ġtransform":10808,"Ġtribune":10809,"Ġsixth":10810,"ĠGuard":10811,"Perhaps":10812,"ĠBlanche":10813,"Ġwrathful":10814,"Ġdirected":10815,"JAQUENET":10816,"Ġnaughty":10817,"Quick":10818,"Ġschoolmaster":10819,"Ġbaser":10820,"ĠWATCHMAN":10821,"ĠRead":10822,"ĠQuince":10823,"Clarence":10824,"ĠPyrr":10825,"Leaving":10826,"Ġsquire":10827,"ĠMarshal":10828,"ĠSwear":10829,"Ġsalve":10830,"Ġtwelvemonth":10831,"ĠDido":10832,"Ġinclination":10833,"Ġproduce":10834,"Ġfarthest":10835,"Ġstreams":10836,"othsayer":10837,"Ġprophecy":10838,"Ġtapster":10839,"Ġflattered":10840,"ĠDukes":10841,"Marcus":10842,"Ġmagn":10843,"Ġswallowed":10844,"Ġgreyh":10845,"Ġabhorred":10846,"Ġaccusation":10847,"Ġstockings":10848,"Ġafflict":10849,"Consider":10850,"ABHORSON":10851,"Ġtrop":10852,"ĠSyracus":10853,"ĠCoventry":10854,"Ġtowers":10855,"Ġmingle":10856,"Ġnuncle":10857,"Coriol":10858,"Ġinheritance":10859,"ĠHymen":10860,"Ġerrors":10861,"Ġquestions":10862,"Ġapplaud":10863,"Ġcorpse":10864,"Ġimmediately":10865,"ĠParthi":10866,"Himself":10867,"ĠGallia":10868,"Ġprogress":10869,"ĠAntiochus":10870,"Ġreconcil":10871,"Ġpestilence":10872,"orthies":10873,"Ġparcel":10874,"Ġlantern":10875,"Ġbraggart":10876,"ĠServingman":10877,"Ġplagues":10878,"Ġsubscribe":10879,"Awake":10880,"Ġcentre":10881,"quisite":10882,"Ġdisobed":10883,"Ġharlot":10884,"athaniel":10885,"ĠFlorentine":10886,"DAVY":10887,"Ġecstasy":10888,"Ġfrenzy":10889,"Ġashore":10890,"ĠSimonides":10891,"Ġchivalry":10892,"ĠPhilomel":10893,"MAMILLIUS":10894,"MOPSA":10895,"tilene":10896,"ĠPLEBEIANS":10897,"Ġprotection":10898,"ĠEglamour":10899,"ĠBrittany":10900,"ĠLucetta":10901,"ĠArviragus":10902,"REYNALDO":10903,"JAQUENETTA":10904,"ĠPyrrhus":10905,"AIN":10906,"Achilles":10907,"Ajax":10908,"Brief":10909,"Che":10910,"CIUS":10911,"Count":10912,"Cold":10913,"COUR":10914,"Dare":10915,"DREY":10916,"Far":10917,"Gl":10918,"GREY":10919,"IENS":10920,"JO":10921,"Jack":10922,"Jud":10923,"Kne":10924,"Mis":10925,"Man":10926,"Masters":10927,"Other":10928,"PR":10929,"Pur":10930,"Pass":10931,"PYR":10932,"Persu":10933,"Rich":10934,"SW":10935,"Sad":10936,"Sent":10937,"SMAN":10938,"VE":10939,"Win":10940,"Yonder":10941,"ae":10942,"ait":10943,"ache":10944,"bo":10945,"bing":10946,"bid":10947,"brain":10948,"braid":10949,"car":10950,"count":10951,"dro":10952,"ece":10953,"fend":10954,"found":10955,"fire":10956,"follow":10957,"fellows":10958,"got":10959,"grown":10960,"iard":10961,"iber":10962,"journ":10963,"lph":10964,"mad":10965,"must":10966,"nows":10967,"put":10968,"ply":10969,"phan":10970,"rade":10971,"sy":10972,"sur":10973,"skin":10974,"try":10975,"tish":10976,"turn":10977,"ubs":10978,"Ġz":10979,"Ġtink":10980,"Ġague":10981,"Ġapes":10982,"Ġsow":10983,"Ġsith":10984,"Ġsess":10985,"inity":10986,"inies":10987,"inty":10988,"Ġmate":10989,"Ġmates":10990,"Ġwo":10991,"Ġwins":10992,"ream":10993,"had":10994,"hale":10995,"Ġbath":10996,"Ġbows":10997,"erick":10998,"erkin":10999,"orachio":11000,"Ġfest":11001,"Ġfitted":11002,"onesty":11003,"Ġdr":11004,"Ġdally":11005,"Ġduteous":11006,"Ġdressed":11007,"Ġcow":11008,"Ġcas":11009,"Ġcured":11010,"Ġcousins":11011,"Ġnourish":11012,"Ġnearest":11013,"enas":11014,"enno":11015,"Ġthund":11016,"Ġthwart":11017,"arce":11018,"arms":11019,"Ġhood":11020,"Ġpicked":11021,"Ġpatricians":11022,"Ġgy":11023,"Ġgay":11024,"Ġgets":11025,"atin":11026,"atory":11027,"Ġinquire":11028,"sever":11029,"seem":11030,"leave":11031,"uto":11032,"utton":11033,"child":11034,"Ġforged":11035,"Ġweb":11036,"Thee":11037,"ashes":11038,"ribly":11039,"raight":11040,"Ġrev":11041,"Ġreform":11042,"Ġrevive":11043,"Ġlik":11044,"Ġliar":11045,"usions":11046,"vertis":11047,"Ġdemonst":11048,"Ġdoct":11049,"ckets":11050,"Ġshaft":11051,"Ġlocked":11052,"eable":11053,"ĠSol":11054,"ĠSec":11055,"ands":11056,"geant":11057,"ĠCato":11058,"Ġsulph":11059,"ĠHar":11060,"Ġspr":11061,"Ġknell":11062,"ĠMethinks":11063,"ĠMurde":11064,"ĠParson":11065,"ĠWood":11066,"ĠWednesday":11067,"ĠBear":11068,"ĠBANDIT":11069,"ĠLUC":11070,"ĠLenno":11071,"Ġnecks":11072,"anting":11073,"ĠGertrude":11074,"oused":11075,"Ġuphold":11076,"Ġcomment":11077,"iev":11078,"Ġsheet":11079,"Ġgoodman":11080,"ĠFour":11081,"ĠFather":11082,"ĠFred":11083,"ĠFaul":11084,"ĠFroth":11085,"ĠFulvia":11086,"Ġwhate":11087,"Ġblade":11088,"Exceed":11089,"pple":11090,"aun":11091,"auld":11092,"ĠDull":11093,"ĠDolabella":11094,"Ġusur":11095,"ĠRep":11096,"ĠRowland":11097,"umps":11098,"THID":11099,"ounding":11100,"unct":11101,"uneration":11102,"Ġjar":11103,"Ġjack":11104,"Ġunhallow":11105,"Ġunfortunate":11106,"CHUS":11107,"ROMAN":11108,"ROOP":11109,"Ġenlarge":11110,"ĠKNIGHT":11111,"IAS":11112,"Ask":11113,"Ġoutside":11114,"Ġsavour":11115,"untary":11116,"Thought":11117,"Ġdisloy":11118,"Ġexquisite":11119,"ĠJer":11120,"Ġabuses":11121,"AMIENS":11122,"Ġgreatly":11123,"Ġroll":11124,"fulness":11125,"Ġchains":11126,"agot":11127,"Ġgraced":11128,"Ġriv":11129,"Ġdaylight":11130,"Become":11131,"bery":11132,"Ġlevied":11133,"ATSW":11134,"igne":11135,"Whoever":11136,"cheap":11137,"Ġclos":11138,"SCO":11139,"SCARUS":11140,"Ġscra":11141,"Ġscald":11142,"Ġscattered":11143,"FFITH":11144,"Ġadverse":11145,"Ġrape":11146,"Ġrapt":11147,"Ġstray":11148,"Ġstrings":11149,"Ġimages":11150,"Ġrud":11151,"udes":11152,"Ġcompos":11153,"Ġcontains":11154,"sweet":11155,"Ġharder":11156,"Ġpurity":11157,"Ġglories":11158,"Ġmerits":11159,"Ġmerriment":11160,"Ġsmart":11161,"Ġbrake":11162,"Steal":11163,"vilius":11164,"Ġcope":11165,"Ġconfounds":11166,"Ġconflict":11167,"abour":11168,"Ġchronic":11169,"Ġpresented":11170,"Ġcharges":11171,"Ġpeaceful":11172,"Ġlightly":11173,"Ġimpress":11174,"Ġimpression":11175,"Ġdragon":11176,"Ġchanging":11177,"Ġchannel":11178,"Ġhumorous":11179,"Ġmoe":11180,"Ġpleaseth":11181,"Ġbeseem":11182,"Ġbedfellow":11183,"Ġlawy":11184,"ĠYea":11185,"BOATSW":11186,"Ġadvanced":11187,"Ġboon":11188,"ĠMytilene":11189,"Ġthroughly":11190,"Ġdevilish":11191,"LEONINE":11192,"AUDREY":11193,"Ġcommander":11194,"Ġsingular":11195,"Ġspoils":11196,"Ġuncon":11197,"mercy":11198,"Ġmurm":11199,"Ġdenies":11200,"Ġvoid":11201,"Ġdispersed":11202,"Ġgenerous":11203,"Ġgeneration":11204,"Revenge":11205,"Ġcrafty":11206,"Ġskies":11207,"xton":11208,"Ġsuffers":11209,"Ġairy":11210,"ĠSoft":11211,"Ġdistinguish":11212,"Ġasking":11213,"Ġwaits":11214,"Ġbarge":11215,"Ġparle":11216,"Ġsurvive":11217,"ecenas":11218,"Ġincest":11219,"TAILOR":11220,"chas":11221,"Ġtenderness":11222,"ĠWherein":11223,"HERALD":11224,"ĠShepherd":11225,"Ġwheres":11226,"ĠEnglishman":11227,"Ġfourth":11228,"ĠMaecenas":11229,"Ġattire":11230,"Ġspeedily":11231,"Ġpenalty":11232,"Ġstrengthen":11233,"Ġcrutch":11234,"ixteen":11235,"Ġcreation":11236,"Ġunth":11237,"Happy":11238,"ĠInn":11239,"show":11240,"Ġoppress":11241,"ception":11242,"Ġranc":11243,"Ġregent":11244,"Ġpupp":11245,"Ġburd":11246,"Ġscarlet":11247,"Ġidi":11248,"Ġmotions":11249,"Ġsuffering":11250,"Ġdisgraced":11251,"Ġindust":11252,"Ġfamish":11253,"Ġsecretly":11254,"Ġlabouring":11255,"Ġmirror":11256,"Conce":11257,"Ġperceived":11258,"Heart":11259,"Ġvainly":11260,"Ġwedlock":11261,"Ġbeards":11262,"pherds":11263,"Ġmidwife":11264,"Ġstudies":11265,"DECIUS":11266,"ĠVenet":11267,"Ġcontinent":11268,"Ġcontinues":11269,"Ġcontinual":11270,"Ġwealthy":11271,"Ġdifferent":11272,"Ġedict":11273,"Ġrequests":11274,"Ġchurchyard":11275,"Ġdwelling":11276,"Ġmonsters":11277,"ĠGuiderius":11278,"Ġsmells":11279,"Brought":11280,"Ġperformance":11281,"Ġconjur":11282,"Ġrarely":11283,"Ġnecessities":11284,"Ġcontrad":11285,"Ġsolemnity":11286,"Ġdecree":11287,"Quite":11288,"Ġmended":11289,"ĠPole":11290,"Blood":11291,"Ġseasons":11292,"Ġamazement":11293,"Ġweighty":11294,"Ġlanguish":11295,"ĠEgyptian":11296,"Ġwonted":11297,"ĠLychorida":11298,"Ġunluck":11299,"Ġaffects":11300,"Ġtriumphs":11301,"ĠPandar":11302,"Sometimes":11303,"coloured":11304,"Ġlodg":11305,"ĠPisa":11306,"Ġimperious":11307,"Ġbeggary":11308,"ĠCalais":11309,"Ġbeguiled":11310,"ĠSpain":11311,"Ġpilot":11312,"Ġaltered":11313,"ĠItalian":11314,"Approach":11315,"Shake":11316,"Ġworthily":11317,"Ġfinish":11318,"Ġfifth":11319,"ANTIOCHUS":11320,"Ġtestament":11321,"Ġtestimony":11322,"Ġderived":11323,"Ġsaints":11324,"stained":11325,"Ġchiding":11326,"eaux":11327,"Ġperfume":11328,"ĠPhoebus":11329,"Small":11330,"Ġmasked":11331,"Ġadmirable":11332,"Ġcharacters":11333,"ĠCole":11334,"ĠWhither":11335,"Ġornaments":11336,"Ġvictorious":11337,"Ġtumult":11338,"ĠPhilip":11339,"Ġtraveller":11340,"Ġavouch":11341,"Ġsubdued":11342,"Ġwreath":11343,"Ġdecrees":11344,"husband":11345,"Ġtext":11346,"Ġapplause":11347,"Ġstrangeness":11348,"Ġcarrion":11349,"Ġcorporal":11350,"FRANCI":11351,"Charles":11352,"Ġsolicit":11353,"gentleman":11354,"smith":11355,"Ġmanifest":11356,"knave":11357,"Ġtrencher":11358,"Ġclamorous":11359,"Friend":11360,"Ġbattery":11361,"Ġenrich":11362,"Ġfantastical":11363,"Ġenraged":11364,"Ġravished":11365,"cellus":11366,"Ġplenteous":11367,"ĠCambridge":11368,"ĠMusicians":11369,"Ġaccompanied":11370,"Ġboughs":11371,"ĠDionyza":11372,"Ġwhistle":11373,"Ġrumour":11374,"Tybalt":11375,"Ġhabits":11376,"Ġmuddy":11377,"Ġunwilling":11378,"ULLUS":11379,"Ġcovetous":11380,"Paris":11381,"Ġeloquence":11382,"Ġsyllable":11383,"Ġsympathy":11384,"Ġwiped":11385,"Ġpupil":11386,"ĠMetellus":11387,"Ġuniversal":11388,"Ġnightingale":11389,"Ġprincipal":11390,"Ġinfluence":11391,"ĠBarbary":11392,"GRIFFITH":11393,"GENTLEWOMAN":11394,"rebonius":11395,"Ġfolks":11396,"ĠTouchstone":11397,"ĠViola":11398,"Ġperemptory":11399,"PYRAMUS":11400,"ĠLennox":11401,"ĠFrederick":11402,"ĠFaulconbridge":11403,"THIDIAS":11404,"BOATSWAIN":11405,"Aff":11406,"Amb":11407,"Aaron":11408,"Born":11409,"Burn":11410,"BUN":11411,"Certain":11412,"Cries":11413,"During":11414,"Em":11415,"Ent":11416,"Found":11417,"Hie":11418,"Hamlet":11419,"Honour":11420,"Iago":11421,"IFE":11422,"Justice":11423,"Kill":11424,"KEN":11425,"Ly":11426,"Led":11427,"Lavinia":11428,"Mac":11429,"Near":11430,"Oh":11431,"Opp":11432,"Pal":11433,"Phi":11434,"Prom":11435,"Ros":11436,"SN":11437,"Sing":11438,"Sorrow":11439,"Silence":11440,"SIWARD":11441,"Tear":11442,"Taking":11443,"Ur":11444,"Worse":11445,"Words":11446,"against":11447,"bu":11448,"bol":11449,"bod":11450,"bag":11451,"bable":11452,"bby":11453,"cur":11454,"could":11455,"cod":11456,"door":11457,"eches":11458,"fly":11459,"five":11460,"fair":11461,"hors":11462,"hrew":11463,"mid":11464,"nance":11465,"pled":11466,"pardon":11467,"sho":11468,"serv":11469,"such":11470,"sub":11471,"tor":11472,"tter":11473,"tree":11474,"vaunt":11475,"wood":11476,"worn":11477,"zing":11478,"Ġire":11479,"ourer":11480,"Ġsall":11481,"Ġsize":11482,"Ġsixteen":11483,"Ġmire":11484,"Ġwages":11485,"reen":11486,"reep":11487,"Ġbaw":11488,"Ġbites":11489,"Ġballs":11490,"Ġbolt":11491,"Ġbias":11492,"oriz":11493,"Ġfen":11494,"Ġfres":11495,"Ġfishes":11496,"Ġfourscore":11497,"onish":11498,"Ġdon":11499,"Ġdom":11500,"Ġdul":11501,"Ġdall":11502,"Ġdirt":11503,"Ġdomin":11504,"Ġcri":11505,"Ġcod":11506,"Ġcures":11507,"Ġlass":11508,"Ġlamp":11509,"Ġlux":11510,"Ġnour":11511,"Ġnick":11512,"Ġyare":11513,"Ġhits":11514,"Ġpy":11515,"Ġpious":11516,"Ġpuff":11517,"ĠIlly":11518,"ano":11519,"sters":11520,"strong":11521,"Ġgore":11522,"Ġgest":11523,"Ġgaunt":11524,"Ġgulf":11525,"Ġinches":11526,"Ġbeam":11527,"Ġbeest":11528,"Ġbeef":11529,"Ġbeads":11530,"Ġhay":11531,"iranda":11532,"Ġmeal":11533,"Ġnotable":11534,"keley":11535,"keeping":11536,"Ġforc":11537,"Ġforfend":11538,"rive":11539,"alance":11540,"Ġstare":11541,"Ġstark":11542,"Ġstew":11543,"idel":11544,"Ġrevell":11545,"ordeaux":11546,"urance":11547,"usale":11548,"Ġdeformed":11549,"Ġdoe":11550,"amity":11551,"aminius":11552,"Ġsear":11553,"Ġsevere":11554,"Ġloins":11555,"ĠSing":11556,"ĠSomet":11557,"ĠSouth":11558,"ĠSpeed":11559,"ĠCe":11560,"ĠCur":11561,"ĠCimber":11562,"thorn":11563,"Ġanch":11564,"Ġanchor":11565,"ĠHoly":11566,"ĠHonour":11567,"ĠATH":11568,"Ġspin":11569,"Ġspear":11570,"Ġspots":11571,"Ġspotted":11572,"Ġspheres":11573,"Ġknives":11574,"ĠMe":11575,"ĠMel":11576,"ĠMuse":11577,"ĠMurder":11578,"Ġvac":11579,"ĠPut":11580,"ĠPent":11581,"ĠWorthies":11582,"ĠBack":11583,"ĠBoult":11584,"ĠBagot":11585,"ĠBordeaux":11586,"ĠLatin":11587,"ardian":11588,"Ġshower":11589,"Ġshouts":11590,"ĠGriff":11591,"Ġupward":11592,"ively":11593,"Ġconvert":11594,"ics":11595,"Ġblasted":11596,"Ġblazon":11597,"Ġswagger":11598,"ppily":11599,"Ġprating":11600,"olve":11601,"olas":11602,"ĠOther":11603,"Ġorphan":11604,"ĠRet":11605,"ĠRuss":11606,"ĠTri":11607,"ĠTears":11608,"ĠTomorrow":11609,"ĠTALBOT":11610,"THIS":11611,"odious":11612,"ELAUS":11613,"uned":11614,"uncle":11615,"Ġjig":11616,"Ġjaws":11617,"Ġrats":11618,"Ġenge":11619,"Ġbrood":11620,"Ġquill":11621,"Ġsale":11622,"Ġtrun":11623,"unto":11624,"Ġhandle":11625,"ffer":11626,"Ġdisper":11627,"Ġdishes":11628,"Ġdisorder":11629,"ĠEr":11630,"ĠEur":11631,"ĠEthi":11632,"ĠNich":11633,"Inst":11634,"oyal":11635,"Ġflinty":11636,"owned":11637,"Ġchambers":11638,"cile":11639,"civil":11640,"Ġwhereto":11641,"Ġwhereupon":11642,"ĠĠĠĠĠĠĠĠĠĠĠĠĠĠĠĠ":11643,"Beat":11644,"Ġleagues":11645,"told":11646,"Ġtrash":11647,"Ġplea":11648,"Ġsweetheart":11649,"SCROOP":11650,"Ġperadventure":11651,"Ġadvertis":11652,"Ġsonnet":11653,"Ġwary":11654,"Whence":11655,"CAS":11656,"Ġpretend":11657,"Ġprecept":11658,"ITION":11659,"Ġpreserv":11660,"RIBUN":11661,"Ġbegging":11662,"blind":11663,"Ġremed":11664,"Ġpurses":11665,"beians":11666,"orship":11667,"Ġbetters":11668,"Ġmaim":11669,"Ġrepro":11670,"Ġsmil":11671,"Ġsmack":11672,"atching":11673,"Ġprivy":11674,"Ġpricks":11675,"onso":11676,"Ġfollower":11677,"Ġslender":11678,"Ġtrace":11679,"Ġtraffic":11680,"Ġconfir":11681,"Ġguides":11682,"Ġconsidered":11683,"Ġkindle":11684,"Ġchides":11685,"Ġreserv":11686,"Ġtreas":11687,"ulties":11688,"Ġlighted":11689,"Ġretires":11690,"Ġsubmit":11691,"Ġovercome":11692,"Ġbeshrew":11693,"Ġjustify":11694,"pected":11695,"anymed":11696,"Ġmisfortune":11697,"Ġgrin":11698,"Ġgoldsmith":11699,"Ġstealth":11700,"Ġbrid":11701,"ĠBrother":11702,"Ġadvantages":11703,"Ġhappen":11704,"penny":11705,"Ġboister":11706,"Ġsuns":11707,"versy":11708,"PERCY":11709,"ĠLucian":11710,"Ġlaying":11711,"Ġbreathless":11712,"Ġpurpos":11713,"Ġpurposed":11714,"awful":11715,"Ġdances":11716,"Ġhorsemen":11717,"Ġuncertain":11718,"Ġneedle":11719,"Ġneedless":11720,"Ġtemperate":11721,"Ġdefiance":11722,"Ġproudly":11723,"Ġgenerally":11724,"hampton":11725,"Ġwatched":11726,"itories":11727,"Ġinfants":11728,"Ġinfancy":11729,"Ġreveng":11730,"Ġpalate":11731,"Ġpaltry":11732,"Ġwinters":11733,"Ġmarked":11734,"Looks":11735,"Looking":11736,"MENELAUS":11737,"Ġmusician":11738,"Ġmusicians":11739,"ĠAlack":11740,"ĠGloucestershire":11741,"Ġwaft":11742,"Ġminst":11743,"Ġcontention":11744,"Ġtrusted":11745,"TESAN":11746,"Ġparish":11747,"Ġparadise":11748,"Ġactors":11749,"ossed":11750,"Ġunclean":11751,"Ġsurly":11752,"Ġsurge":11753,"Ġemulation":11754,"Ġmockery":11755,"Ġrequires":11756,"Ġbasely":11757,"Ġattorn":11758,"Ġdropp":11759,"Ġplainness":11760,"ĠChorus":11761,"Ġentreaty":11762,"Ġentreated":11763,"Ġentreaties":11764,"Ġordin":11765,"Ġordinary":11766,"gging":11767,"Ġwatchful":11768,"!âĢĿ]":11769,"Ġappearance":11770,"shine":11771,"Ġfram":11772,"olla":11773,"Ġcapacity":11774,"Ġundes":11775,"Ġrespected":11776,"Ġregal":11777,"Ġbroils":11778,"Ġwildly":11779,"ĠParliament":11780,"nights":11781,"cript":11782,"cribe":11783,"Ġveil":11784,"Ġformal":11785,"Ġmalady":11786,"Ġmalign":11787,"Dev":11788,"Ġposts":11789,"Ġuttered":11790,"Ġjolly":11791,"Ġchooseth":11792,"ĠPlace":11793,"Ġcommended":11794,"Hearing":11795,"glass":11796,"spur":11797,"Ġtorments":11798,"Ġarguments":11799,"Ġsnake":11800,"Ġgaol":11801,"Ġgape":11802,"Ġstarved":11803,"Ġmedit":11804,"Ġbitterness":11805,"Ġelement":11806,"ĠĠĠĠĠĠĠĠĠĠĠĠĠĠ":11807,"Ġremainder":11808,"Ġequally":11809,"Ġpublish":11810,"Ġhunter":11811,"Ġeduc":11812,"Ġfaints":11813,"Ġfaintly":11814,"Ġespecially":11815,"ĠMenas":11816,"BRAKEN":11817,"ĠGuards":11818,"Ġcompliment":11819,"Ġhunts":11820,"Ġdebtor":11821,"Ġdismay":11822,"Ġdegenerate":11823,"Ġtyrants":11824,"Ġrevolted":11825,"Ġlamentation":11826,"Ġexpressly":11827,"Ġdooms":11828,"Ġfloods":11829,"Ġhidden":11830,"Ġreigns":11831,"Ġmurderers":11832,"Ġports":11833,"Ġparticulars":11834,"therefore":11835,"Ġcircumstances":11836,"Ġmelting":11837,"ĠConstance":11838,"Ġengine":11839,"Ġexecutioner":11840,"MONTJO":11841,"Ġpressed":11842,"Heavens":11843,"Spoke":11844,"Ġcherub":11845,"Ġinclined":11846,"Ġeagles":11847,"Ġcozened":11848,"Ġingen":11849,"Ġbawdy":11850,"Ġheavily":11851,"Ġperilous":11852,"Turning":11853,"Ġfurnished":11854,"ĠHaven":11855,"Ġperjur":11856,"Ġeternity":11857,"ĠCalchas":11858,"Ġghosts":11859,"Ġevidence":11860,"ĠBerkeley":11861,"Ġungentle":11862,"Bearing":11863,"Ġfrozen":11864,"Shame":11865,"Ġflatterers":11866,"portion":11867,"Ġpiercing":11868,"Ġsticks":11869,"Ġarrived":11870,"Ġmarketplace":11871,"Ġmarty":11872,"Confess":11873,"Draws":11874,"Ġarrested":11875,"Ġcoffers":11876,"Ġvillany":11877,"Ġvolume":11878,"Ġvoluntary":11879,"disc":11880,"Ġdescended":11881,"Ġcontracted":11882,"Ġglobe":11883,"stantial":11884,"Ġperfum":11885,"Ġdesigns":11886,"Ġcontroversy":11887,"Ġadmiration":11888,"Ġyesternight":11889,"Ġdissemble":11890,"Ġrusty":11891,"Ġlinger":11892,"Ġadopt":11893,"Ġbankrupt":11894,"Ġcorrect":11895,"Ġdungh":11896,"Ġqueens":11897,"Ġadversaries":11898,"Ġoverthrown":11899,"Seems":11900,"haste":11901,"Ġcrop":11902,"Ġjugg":11903,"Ġdiligence":11904,"Ġspectacle":11905,"ienna":11906,"Ġappointment":11907,"Ġvapour":11908,"ĠÃł":11909,"Ġgnaw":11910,"Ġclamours":11911,"ĠAlarums":11912,"Ġvanquished":11913,"Ġpigeons":11914,"ĠPhÅĵ":11915,"ĠKnights":11916,"poster":11917,"Towards":11918,"Ġostent":11919,"Ġvigour":11920,"icero":11921,"DORCAS":11922,"burning":11923,"urable":11924,"Ġunmannerly":11925,"Ġruthless":11926,"Ġterritories":11927,"Ġblemish":11928,"Ġewes":11929,"ĠSiward":11930,"Ġusurer":11931,"ĠTwo":11932,"Ġriddle":11933,"Ġdesolation":11934,"Ġsepulchre":11935,"Ġslaughtered":11936,"ĠServilius":11937,"ĠSixth":11938,"ĠCerimon":11939,"ĠFleance":11940,"Ġcontemplation":11941,"Ġpavilion":11942,"Ġencountered":11943,"Ġnorthern":11944,"Ġgoverned":11945,"ĠElbow":11946,"Coriolanus":11947,"COURTESAN":11948,"ĠLUCIUS":11949,"ĠJerusale":11950,"ĠColevile":11951,"Philip":11952,"ĠGriffith":11953,"THISBE":11954,"Ġdisperse":11955,"ĠNicholas":11956,"anymede":11957,"ĠLuciana":11958,"BRAKENBURY":11959,"MONTJOY":11960,"ĠJerusalem":11961,"00":11962,"16":11963,"20":11964,"52":11965,"56":11966,"72":11967,";]":11968,"AED":11969,"BRI":11970,"Chi":11971,"Cast":11972,"COB":11973,"Dest":11974,"DGE":11975,"Fell":11976,"Gall":11977,"Jove":11978,"List":11979,"Mal":11980,"Mist":11981,"Pity":11982,"Possess":11983,"PILO":11984,"REL":11985,"Rise":11986,"RAM":11987,"Son":11988,"Sen":11989,"Sus":11990,"Shar":11991,"Sits":11992,"Suff":11993,"Stop":11994,"TU":11995,"Tarry":11996,"TYR":11997,"Tonight":11998,"Wert":11999,"Women":12000,"bee":12001,"cas":12002,"crown":12003,"doubt":12004,"every":12005,"eze":12006,"fish":12007,"fig":12008,"gown":12009,"honest":12010,"kers":12011,"lest":12012,"lves":12013,"lets":12014,"mers":12015,"mistress":12016,"married":12017,"nis":12018,"nam":12019,"nod":12020,"pers":12021,"poor":12022,"poral":12023,"sk":12024,"song":12025,"true":12026,"uing":12027,"wer":12028,"wine":12029,"while":12030,"witted":12031,"Ġtough":12032,"Ġtunes":12033,"Ġster":12034,"Ġsans":12035,"Ġslips":12036,"inal":12037,"inction":12038,"Ġwight":12039,"Ġwren":12040,"rely":12041,"reth":12042,"requ":12043,"has":12044,"happy":12045,"Ġbit":12046,"Ġbau":12047,"Ġbench":12048,"Ġbalance":12049,"erth":12050,"erate":12051,"erness":12052,"erfl":12053,"orm":12054,"Ġfer":12055,"Ġful":12056,"Ġfates":12057,"onus":12058,"onna":12059,"itc":12060,"itimate":12061,"esy":12062,"estern":12063,"Ġdice":12064,"Ġdaff":12065,"Ġcy":12066,"Ġcoy":12067,"Ġcale":12068,"Ġcran":12069,"Ġclip":12070,"Ġcases":12071,"Ġlink":12072,"Ġlane":12073,"Ġlurk":12074,"Ġoper":12075,"Ġomin":12076,"Ġnut":12077,"Ġnavy":12078,"Ġyo":12079,"Ġthrall":12080,"arition":12081,"arino":12082,"Ġhip":12083,"Ġpith":12084,"Ġpru":12085,"Ġpard":12086,"Ġpip":12087,"ĠIX":12088,"Ġhem":12089,"anim":12090,"inged":12091,"Ġge":12092,"Ġgat":12093,"Ġgear":12094,"Ġgem":12095,"Ġgaud":12096,"Ġiniquity":12097,"Ġbeet":12098,"Ġbellow":12099,"Ġbefits":12100,"Ġhavoc":12101,"etition":12102,"utboys":12103,"irgins":12104,"irnam":12105,"imach":12106,"Ġmember":12107,"Ġmembers":12108,"Ġissues":12109,"illings":12110,"Ġeb":12111,"keys":12112,"Ġwithhold":12113,"rift":12114,"Ġstings":12115,"raign":12116,"racing":12117,"idd":12118,"Ġlic":12119,"Ġlick":12120,"Ġlivers":12121,"urt":12122,"urther":12123,"using":12124,"Ġkites":12125,"ouldy":12126,"Ġdeme":12127,"robe":12128,"hips":12129,"ENIAN":12130,"amps":12131,"Ġseed":12132,"Ġseized":12133,"Ġherb":12134,"Ġherbs":12135,"Ġlog":12136,"Ġloses":12137,"east":12138,"ĠSund":12139,"ĠSleep":12140,"ĠCr":12141,"ĠChat":12142,"ĠCould":12143,"ĠCON":12144,"ĠCob":12145,"ĠCranmer":12146,"thumberland":12147,"Ġsund":12148,"Ġsunder":12149,"Ġanew":12150,"ĠHume":12151,"ruck":12152,"ĠAed":12153,"ifully":12154,"Ġspright":12155,"Ġspider":12156,"Ġsprite":12157,"Ġsprung":12158,"hod":12159,"ĠMin":12160,"ĠMis":12161,"ĠMor":12162,"ĠMart":12163,"ĠMuch":12164,"Ġvail":12165,"ĠPha":12166,"ĠPardon":12167,"ĠPoly":12168,"ĠPindarus":12169,"artar":12170,"ĠBawd":12171,"ĠBetter":12172,"ĠBorachio":12173,"ĠBirnam":12174,"ĠLance":12175,"Ġshru":12176,"ĠGardin":12177,"ĠGanymede":12178,"quit":12179,"Ġupbraid":12180,"Ġamount":12181,"Ġamaze":12182,"Ġmum":12183,"Ġcomedy":12184,"outhed":12185,"inding":12186,"emb":12187,"ements":12188,"Ġsheriff":12189,"Ġconge":12190,"iced":12191,"Ġblaze":12192,"Ġwasp":12193,"Ġswifter":12194,"Ġcanon":12195,"Ġpranks":12196,"allel":12197,"ĠDor":12198,"ĠOver":12199,"Ġorb":12200,"Ġarrow":12201,"Ġarrog":12202,"Youth":12203,"ĠTH":12204,"ĠTra":12205,"ĠTur":12206,"ĠTrebonius":12207,"LEIUS":12208,"Forget":12209,"umption":12210,"igonus":12211,"Ġunrest":12212,"Ġunsp":12213,"Ġunborn":12214,"Ġunpre":12215,"Ġunquiet":12216,"CHE":12217,"Ġenact":12218,"Ġensuing":12219,"Ġmadonna":12220,"Ġsaith":12221,"people":12222,"Ġpros":12223,"Ġprobable":12224,"Ġproffer":12225,"ptuous":12226,"Ġdispense":12227,"Ġexhi":12228,"ĠEve":12229,"ĠNan":12230,"ĠNathaniel":12231,"urnia":12232,"Ġflag":12233,"Ġaband":12234,"AMINIUS":12235,"death":12236,"Ġchant":12237,"Ġchaff":12238,"ustom":12239,"Ġgraft":12240,"Ġrive":12241,"âĢĿ!":12242,"Ġmars":12243,"Begin":12244,"Ġhearken":12245,"igns":12246,"Ġfearfully":12247,"cheon":12248,"idele":12249,"Ġtrot":12250,"Ġanyone":12251,"Ġclapp":12252,"Ġclapped":12253,"Ġscap":12254,"Ġperuse":12255,"Ġperplex":12256,"Ġcommence":12257,"Ġrarest":12258,"Ġwarn":12259,"Ġwhispers":12260,"Whereat":12261,"Ġcompounded":12262,"Ġheadstrong":12263,"black":12264,"blown":12265,"bleness":12266,"Ġfooling":12267,"Ġremote":12268,"EDY":12269,"Ġendless":12270,"Ġfinding":12271,"Ġrepute":12272,"Ġrepetition":12273,"Ġmermaid":12274,"forward":12275,"Ġbraver":12276,"Ġcoals":12277,"Ġfeels":12278,"Ġconfines":12279,"Ġservile":12280,"Ġgripe":12281,"Ġconsume":12282,"Ġtribut":12283,"ĠAntigonus":12284,"Ġchoo":12285,"ĠYoung":12286,"ounsel":12287,"Ġseemeth":12288,"Ġresp":12289,"Ġtreads":12290,"Ġcourtiers":12291,"Ġelsewhere":12292,"Ġimportune":12293,"Goes":12294,"MARSHAL":12295,"Ġretired":12296,"Ġhopeful":12297,"Northumberland":12298,"Ġsubmission":12299,"Albeit":12300,"Ġhumbled":12301,"phurnia":12302,"Ġsleepy":12303,"Ġbesiege":12304,"Ġdiscom":12305,"Ġdiscern":12306,"Ġmisled":12307,"Ġgrate":12308,"Ġgrounds":12309,"Ġills":12310,"ĠMarcellus":12311,"SHER":12312,"comfort":12313,"play":12314,"Ġenth":12315,"Ġcaused":12316,"Ġcommanding":12317,"Ġsending":12318,"Ġdrugs":12319,"Ġgetting":12320,"ĠHerne":12321,"Shows":12322,"Ġdelays":12323,"ĠSte":12324,"ĠStill":12325,"ĠState":12326,"Ġdepends":12327,"PROCU":12328,"within":12329,"Ġdames":12330,"Ġcarve":12331,"Ġdreaming":12332,"Ġchop":12333,"Ġaffair":12334,"Ġbarber":12335,"Ġparagon":12336,"Ġrecovery":12337,"Ġcuts":12338,"noble":12339,"ubal":12340,"ubber":12341,"PANDAR":12342,"Ġincur":12343,"Ġincont":12344,"Ġincorp":12345,"Ġtenour":12346,"proud":12347,"Ġsignal":12348,"ĠOrsino":12349,"Ġestabl":12350,"Ġconfessed":12351,"Comfort":12352,"Ġredempt":12353,"Ġattaint":12354,"TITINIUS":12355,"Ġscornful":12356,"Ġpretence":12357,"Ġwatching":12358,"Ġhurl":12359,"Ġtawny":12360,"Ġharmful":12361,"Ġframed":12362,"Ġfraught":12363,"Ġfrailty":12364,"Ġoppressed":12365,"Ġmodern":12366,"Ġsighing":12367,"Ġcapon":12368,"Ġwildness":12369,"Ġfeasting":12370,"Ġbondman":12371,"GREEN":12372,"Ġmotley":12373,"Ġdishonest":12374,"Ġindent":12375,"ADAM":12376,"FLAMINIUS":12377,"Ġmistaking":12378,"Ġcrossed":12379,"Ġvehe":12380,"ĠAsk":12381,"albain":12382,"ĠProceed":12383,"Ġcheerfully":12384,"bbing":12385,"Ġfills":12386,"Ġacquit":12387,"Ġpainful":12388,"Ġadmire":12389,"ĠCountry":12390,"ĠPlay":12391,"spring":12392,"Ġdeparted":12393,"Ġproceeded":12394,"ĠSalic":12395,"ĠSalarino":12396,"Ġargues":12397,"Ġsnail":12398,"ĠCorin":12399,"Ġquietly":12400,"Ġjealousies":12401,"attling":12402,"Ġinvest":12403,"Ġforswore":12404,"Ġpractis":12405,"Holds":12406,"Ġverd":12407,"Ġverity":12408,"Ġpettic":12409,"Ġwretchedness":12410,"ĠFriends":12411,"ĠValer":12412,"Ġcredulous":12413,"Ġinjurious":12414,"Ġinjustice":12415,"Ġgentler":12416,"Desire":12417,"Descend":12418,"ishops":12419,"Ġcatching":12420,"Ġdemanded":12421,"Ġlouder":12422,"monster":12423,"Ġpunished":12424,"ashful":12425,"Ġwickedness":12426,"ysimach":12427,"itizen":12428,"Ġcourtesies":12429,"Ġsixpence":12430,"Next":12431,"ĠBritish":12432,"ĠBritons":12433,"ĠCanst":12434,"Ġdealing":12435,"Ġodious":12436,"Ġmemor":12437,"ĠDecius":12438,"Ġimports":12439,"Ġpublicly":12440,"Ġcostly":12441,"LORDS":12442,"Ġimagin":12443,"exec":12444,"Ġsailors":12445,"Ġutterance":12446,"ĠPope":12447,"ĠSoldier":12448,"Black":12449,"HOLLAND":12450,"Ġpictures":12451,"Ġconcord":12452,"Ġunlawful":12453,"Ġaudit":12454,"Ġbuckle":12455,"thyself":12456,"beard":12457,"Ġpacket":12458,"Ġallowance":12459,"Ġcalamity":12460,"Left":12461,"Ġcherry":12462,"Ġincline":12463,"Showing":12464,"Ġswells":12465,"Ġingrateful":12466,"Helen":12467,"Turns":12468,"Ġconveyed":12469,"Ġcovert":12470,"Ġrashness":12471,"Ġgroaning":12472,"Ġstabs":12473,"Ġwaxen":12474,"Ġrewards":12475,"Ġprovoked":12476,"Ġconfounded":12477,"ĠHeavens":12478,"QUINTUS":12479,"Ġbuilding":12480,"ĠTrojans":12481,"doing":12482,"Ġdotage":12483,"Ġslightly":12484,"Ġpageant":12485,"Ġacceptance":12486,"Ġvexation":12487,"Ġwinking":12488,"Ġrhymes":12489,"Ġmartial":12490,"ĠLucullus":12491,"Ġdissension":12492,"Ġmerchants":12493,"Ġcreeping":12494,"Antonio":12495,"Ġforsook":12496,"Ġcoffer":12497,"Ġbeliev":12498,"Ġhumanity":12499,"Ġobservation":12500,"Ġshrewdly":12501,"aughan":12502,"Ġcommonweal":12503,"whose":12504,"oubted":12505,"Ġpoetry":12506,"Ġetc":12507,"Ġdissembling":12508,"Ġcholeric":12509,"Ġassembled":12510,"Ġgrudge":12511,"Ġsequent":12512,"Ġsequel":12513,"CANIDIUS":12514,"Edmund":12515,"Ġhymn":12516,"ĠFairies":12517,"Ġgratis":12518,"Ġtabor":12519,"Ġhawk":12520,"world":12521,"Ġtimorous":12522,"Ġdarts":12523,"Ġpredomin":12524,"Ġphilosopher":12525,"Ġfactious":12526,"ĠHecate":12527,"Despite":12528,"Ġsuggestion":12529,"Ġcollected":12530,"uleius":12531,"Ġfrankly":12532,"Ġreconcile":12533,"Kisses":12534,"Kissing":12535,"Ġpulse":12536,"Ġconversation":12537,"Ġfantastic":12538,"Ġpowder":12539,"Ġgirdle":12540,"Ġdemi":12541,"Ġplanet":12542,"Ġlechery":12543,"ĠChief":12544,"Stabs":12545,"company":12546,"Ġceremonies":12547,"Deny":12548,"Ġmorsel":12549,"Ġmeasures":12550,"Ġinconstant":12551,"Ġprettiest":12552,"Ġtransported":12553,"Touching":12554,"Ġwidows":12555,"Ġdrooping":12556,"Ġsparks":12557,"Ġsubstitute":12558,"Ġcelebr":12559,"Mercy":12560,"minded":12561,"Ġcanopy":12562,"Ġabundance":12563,"Ġwhirl":12564,"Ġtragedy":12565,"Ġentrails":12566,"SPIRATOR":12567,"ĠBrabantio":12568,"Ġfathom":12569,"ĠSinon":12570,"Ġchariot":12571,"Cornets":12572,"Renowned":12573,"Ġcompulsion":12574,"Ġchimney":12575,"ĠStrike":12576,"Ġoccupation":12577,"Ġthunders":12578,"auldron":12579,"Ġdisloyal":12580,"FRANCISCO":12581,"Palamon":12582,"orizel":12583,"ĠIllyria":12584,"ĠATHENIAN":12585,"Ġboisterous":12586,"Ġminstrels":12587,"Ġeducation":12588,"Ġdoomsday":12589,"Ġingenious":12590,"ĠPhÅĵbus":12591,"BRIDGE":12592,"PILOGUE":12593,"TYRREL":12594,"Ġcalend":12595,"Ġominous":12596,"ĠCONSPIRATOR":12597,"ĠGardiner":12598,"PROCULEIUS":12599,"Ġredemption":12600,"ysimachus":12601,"!)":12602,"04":12603,"08":12604,"28":12605,"36":12606,"44":12607,"60":12608,"64":12609,"68":12610,"80":12611,"84":12612,"88":12613,"92":12614,"96":12615,";âĢĿ":12616,"Ap":12617,"Bre":12618,"Ban":12619,"Bold":12620,"BLAN":12621,"Co":12622,"Chan":12623,"Crown":12624,"Chor":12625,"Drink":12626,"Demetrius":12627,"Fe":12628,"Fine":12629,"Feed":12630,"Falls":12631,"GBY":12632,"Gracious":12633,"Holla":12634,"Kent":12635,"Ladies":12636,"Mars":12637,"MORLAND":12638,"Martius":12639,"Od":12640,"Obs":12641,"Pret":12642,"Pale":12643,"Rest":12644,"Royal":12645,"Sat":12646,"Sal":12647,"Safe":12648,"Tears":12649,"War":12650,"ba":12651,"best":12652,"both":12653,"call":12654,"city":12655,"cass":12656,"cund":12657,"certain":12658,"counter":12659,"don":12660,"dow":12661,"dur":12662,"gent":12663,"gage":12664,"gives":12665,"giving":12666,"home":12667,"jor":12668,"lin":12669,"lic":12670,"little":12671,"mar":12672,"meet":12673,"matter":12674,"nut":12675,"oves":12676,"occ":12677,"overs":12678,"pend":12679,"pie":12680,"rons":12681,"rated":12682,"rato":12683,"taking":12684,"uit":12685,"uance":12686,"vice":12687,"vation":12688,"virt":12689,"vial":12690,"ythe":12691,"yster":12692,"yally":12693,"Ġess":12694,"Ġtu":12695,"Ġtilt":12696,"Ġtasted":12697,"heet":12698,"heth":12699,"Ġaust":12700,"Ġapr":12701,"Ġaright":12702,"ouches":12703,"oubled":12704,"iners":12705,"Ġmare":12706,"Ġwhale":12707,"Ġwestern":12708,"rection":12709,"Ġbower":12710,"Ġbier":12711,"Ġbiting":12712,"iseth":12713,"erlook":12714,"erwhel":12715,"orch":12716,"lla":12717,"Ġfel":12718,"Ġfost":12719,"Ġfust":12720,"Ġfiles":12721,"Ġfisher":12722,"Ġdaint":12723,"Ġdrench":12724,"Ġdined":12725,"Ġdaunt":12726,"Ġcovered":12727,"Ġcauldron":12728,"Ġlot":12729,"Ġlau":12730,"Ġlascivious":12731,"Ġopens":12732,"Ġnations":12733,"enough":12734,"Ġyawn":12735,"Ġthrees":12736,"Ġhilt":12737,"Ġhild":12738,"Ġpry":12739,"Ġpig":12740,"Ġpag":12741,"Ġpile":12742,"Ġpens":12743,"Ġtoads":12744,"Ġhearers":12745,"othered":12746,"othel":12747,"vered":12748,"vels":12749,"owls":12750,"Ġgor":12751,"Ġgout":12752,"Ġgeld":12753,"Ġglean":12754,"Ġinn":12755,"Ġbee":12756,"Ġbees":12757,"Ġhal":12758,"Ġmellow":12759,"illion":12760,"Ġecho":12761,"adel":12762,"asphe":12763,"rif":12764,"rious":12765,"ripe":12766,"ride":12767,"Ġstalk":12768,"Ġstony":12769,"Ġstains":12770,"Ġstaves":12771,"rament":12772,"raught":12773,"idity":12774,"lying":12775,"lymp":12776,"ushes":12777,"Ġsores":12778,"Ġkitc":12779,"Ġaspir":12780,"aining":12781,"Ġdeity":12782,"Ġdeject":12783,"rop":12784,"Ġshaking":12785,"Ġsect":12786,"Ġseeds":12787,"Ġseals":12788,"Ġsexton":12789,"ĠSon":12790,"ĠSend":12791,"ĠCent":12792,"ĠCicero":12793,"Thither":12794,"ART":12795,"Ġsupre":12796,"Ġanat":12797,"Ġanim":12798,"Ġangle":12799,"ilis":12800,"ilities":12801,"ĠHie":12802,"ĠApp":12803,"ĠAmb":12804,"ĠAfter":12805,"ĠArab":12806,"elled":12807,"Ġsped":12808,"Ġsphere":12809,"Ġspied":12810,"Ġspec":12811,"Ġknots":12812,"holesome":12813,"ĠMary":12814,"ĠMany":12815,"ĠMutius":12816,"ĠMiranda":12817,"ĠMardian":12818,"Ġva":12819,"Ġvale":12820,"Ġvicious":12821,"ĠPant":12822,"ĠWall":12823,"ĠBour":12824,"ĠBig":12825,"ĠLive":12826,"ended":12827,"Ġatone":12828,"ĠGad":12829,"Ġupper":12830,"Ġmud":12831,"Ġshepherds":12832,"Ġgobl":12833,"ongue":12834,"Ġconception":12835,"venged":12836,"elius":12837,"ols":12838,"Ġtherewithal":12839,"ĠDel":12840,"ĠDick":12841,"ĠDane":12842,"ĠOnce":12843,"Ġoration":12844,"ĠRather":12845,"ĠRaven":12846,"ĠTrust":12847,"ĠTullus":12848,"ĠTRAG":12849,"ĠTiber":12850,"ĠTubal":12851,"Ġheretic":12852,"uming":12853,"reation":12854,"akers":12855,"Ġplun":12856,"Ġplac":12857,"igarius":12858,"unis":12859,"Ġjet":12860,"Ġjerkin":12861,"Ġunst":12862,"Ġunset":12863,"Ġunarm":12864,"CHORUS":12865,"Ġrite":12866,"Ġencompass":12867,"Ġmadame":12868,"Ġmadmen":12869,"Ġbrat":12870,"Ġbrist":12871,"Ġbrothel":12872,"isted":12873,"Ġoutrun":12874,"Ġproceeds":12875,"Ġhearty":12876,"Ġpoise":12877,"unting":12878,"Ġexeunt":12879,"Ġexits":12880,"Ġextern":12881,"Ġspeaker":12882,"Ġoffends":12883,"Withdraw":12884,"Ġflour":12885,"Ġflaw":12886,"Ġabate":12887,"Ġabode":12888,"Ġfoils":12889,"dealing":12890,"resses":12891,"agge":12892,"Ġtwin":12893,"ustria":12894,"cible":12895,"Ġripen":12896,"Ġriding":12897,"Soon":12898,"However":12899,"Weep":12900,"Weigh":12901,"Ġmarr":12902,"Beg":12903,"berries":12904,"Ġbetake":12905,"Ġlect":12906,"Ġlease":12907,"ATE":12908,"Ġpartial":12909,"Ġtrad":12910,"Ġclout":12911,"Ġclub":12912,"SCE":12913,"Ġscab":12914,"Ġscythe":12915,"Ġadorn":12916,"Ġram":12917,"eeble":12918,"pery":12919,"Ġprelate":12920,"Ġpreposter":12921,"Therein":12922,"Yours":12923,"ITUS":12924,"weigh":12925,"ĠVillain":12926,"ĠVARRO":12927,"ĠVienna":12928,"Ġmightier":12929,"Ġslut":12930,"Ġshowing":12931,"Ġrepl":12932,"Ġreprehend":12933,"Ġreputed":12934,"Ġreplied":12935,"Ġreplete":12936,"Ġsmiled":12937,"Ġsmothered":12938,"cled":12939,"cloth":12940,"neither":12941,"necess":12942,"Step":12943,"Strange":12944,"RUGBY":12945,"Ġeyeballs":12946,"acqu":12947,"Ġrestrain":12948,"Ġtract":12949,"Ġconspire":12950,"Ġpassages":12951,"Ġtrip":12952,"Ġtribe":12953,"Ġkinds":12954,"ĠAntium":12955,"ables":12956,"Ġchrist":12957,"ontory":12958,"Ġresidence":12959,"Ġtrembles":12960,"Ġcharmed":12961,"Ġcourts":12962,"IDEN":12963,"Ġpeck":12964,"Ġpecul":12965,"Ġimposition":12966,"Ġafterward":12967,"Ġcounted":12968,"ceived":12969,"Ġovercame":12970,"Ġoverlook":12971,"Ġoverheard":12972,"Ġmoans":12973,"Ġassume":12974,"Ġdiscont":12975,"Ġthanked":12976,"Ġmisdoubt":12977,"Ġstately":12978,"Ġvalued":12979,"Ġfarm":12980,"Ġsentine":12981,"Ġstrives":12982,"Ġadvocate":12983,"ĠForces":12984,"Ġbanners":12985,"Ġhitherto":12986,"Ġboil":12987,"Ġgreasy":12988,"Ġstrongest":12989,"compar":12990,"kenbury":12991,"opled":12992,"Ġcaves":12993,"Ġfreeze":12994,"ĠArden":12995,"Ġhardy":12996,"Ġjudged":12997,"Ġsuppos":12998,"Ġsuppli":12999,"Ġdispatched":13000,"Ġdoubted":13001,"Ġexceeds":13002,"Rebell":13003,"Ġcracked":13004,"ottage":13005,"VOLSCE":13006,"ĠSoothsayer":13007,"ĠAlonso":13008,"Ġdistinct":13009,"Ġcarcass":13010,"remember":13011,"Ġbarr":13012,"Ġboundless":13013,"Ġparch":13014,"Ġbatt":13015,"Ġsurprise":13016,"Ġtenor":13017,"proof":13018,"Ġopening":13019,"askets":13020,"Ġwheels":13021,"Ġwooer":13022,"Ġembraced":13023,"Commit":13024,"Ġattent":13025,"Ġattention":13026,"Ġdevout":13027,"Ġpenet":13028,"azz":13029,"azing":13030,"Ġcleave":13031,"Ġtraitorous":13032,"Ġpropose":13033,"Ġwalked":13034,"shot":13035,"Ġopposition":13036,"Ġexten":13037,"Ġextemp":13038,"Ġmoderate":13039,"Ġlacked":13040,"Ġguards":13041,"Ġregions":13042,"Ġintercept":13043,"Ġinterpre":13044,"Ġdireful":13045,"Ġsoldiership":13046,"Ġconstruction":13047,"Ġbleeds":13048,"Ġdukes":13049,"Ġpassionate":13050,"Ġmistaken":13051,"Ġrelate":13052,"Ġrelation":13053,"Prod":13054,"Ġlaughs":13055,"Ġbowed":13056,"Ġlimits":13057,"Ġeffected":13058,"Ġagent":13059,"Ġcheerly":13060,"Ġwitnesses":13061,"bbo":13062,"Ġobserved":13063,"Ġeasier":13064,"Ġtenth":13065,"Ġdeliverance":13066,"sued":13067,"Ġteaching":13068,"ĠChristians":13069,"Ġsimply":13070,"Ġhealthful":13071,"Ġjocund":13072,"Ġbuys":13073,"Ġreverent":13074,"Ġfinely":13075,"ĠPlain":13076,"Ġcommendation":13077,"Ġcommendable":13078,"Heard":13079,"spir":13080,"Ġsolely":13081,"Ġblowing":13082,"Ġroundly":13083,"Ġthrowing":13084,"Ġviolet":13085,"Ġgaoler":13086,"ĠCorporal":13087,"Ġdawn":13088,"Ġconcealed":13089,"Ġbitterly":13090,"ĠLeonine":13091,"Ġstories":13092,"Ġwhores":13093,"Ġglasses":13094,"Ġobeyed":13095,"Ġmutton":13096,"Ġlisten":13097,"Ġequiv":13098,"Ġwhipping":13099,"Ġmelody":13100,"Ġambush":13101,"Ġunwholesome":13102,"appear":13103,"Ġbastardy":13104,"Ġurging":13105,"ĠApart":13106,"Desires":13107,"Contin":13108,"Beside":13109,"himself":13110,"Ġcorners":13111,"Ġrobbery":13112,"ĠGeoff":13113,"ĠBriton":13114,"Ġgreetings":13115,"Ġconjunction":13116,"Ġclaims":13117,"Ġfondly":13118,"Ġexpected":13119,"Ġimportant":13120,"Ġstuffed":13121,"urpose":13122,"Ġdamnable":13123,"Ġlamenting":13124,"Ġcompanies":13125,"Ġguiltiness":13126,"Ġexpressed":13127,"Ġvictors":13128,"human":13129,"Ġengross":13130,"Ġengaged":13131,"SONG":13132,"Ġbuckram":13133,"Ġsolace":13134,"Ġextremest":13135,"Ġwasteful":13136,"Ġrooted":13137,"Ġpleading":13138,"Ġdetain":13139,"Leon":13140,"Ġfirmly":13141,"Ġchiefly":13142,"ĠBelieve":13143,"ĠDonalbain":13144,"Ġaptly":13145,"Ġbudge":13146,"Ġearnestly":13147,"Ġexamine":13148,"Ġbeguil":13149,"Ġprophecies":13150,"Ġbewray":13151,"Ġpurchased":13152,"Ġsweating":13153,"ĠOfficer":13154,"Ġprovok":13155,"Ġesteemed":13156,"ĠSeek":13157,"Ġpursued":13158,"Ġunseason":13159,"WESTMORLAND":13160,"Ġdotes":13161,"Ġclimate":13162,"Ġadvancement":13163,"guard":13164,"whore":13165,"Ġmagist":13166,"omenes":13167,"ovico":13168,"Ġturtle":13169,"Ġfilth":13170,"friends":13171,"Ġnicely":13172,"Ġgarlands":13173,"Ġporridge":13174,"Ġstatutes":13175,"ĠVerges":13176,"Ġfrets":13177,"SURVE":13178,"Ġrepeal":13179,"Ġperfections":13180,"ĠGreekish":13181,"Ġstamped":13182,"Ġplanted":13183,"whole":13184,"Ġwandering":13185,"Ġhaunts":13186,"ĠMessina":13187,"Ġmultit":13188,"Ġbreadth":13189,"Ġcoronet":13190,"English":13191,"Ġalteration":13192,"Ġwrestle":13193,"Ġbags":13194,"Ġbonnet":13195,"Ġliquid":13196,"Corrupt":13197,"Immediate":13198,"ĠPedant":13199,"Ġadversary":13200,"Ġdecreed":13201,"Ġcontrive":13202,"Ġmiscarried":13203,"Ġgratify":13204,"Ġsucceeding":13205,"Ġrascally":13206,"Ġfrosty":13207,"Ġalehouse":13208,"Ġblasts":13209,"Ġambassadors":13210,"olerable":13211,"Ġriotous":13212,"Ġfeigned":13213,"Ġgaping":13214,"Ġstumble":13215,"Ġsuggest":13216,"Ġvapours":13217,"Ġpedant":13218,"Ġprogen":13219,"Ġcomplaints":13220,"Ġpikes":13221,"Ġresemble":13222,"ĠPhry":13223,"Ġenriched":13224,"Dispatch":13225,"Knocking":13226,"Ġmasqu":13227,"Ġspotless":13228,"Ġvotre":13229,"Ġaccordingly":13230,"Ġsummons":13231,"beggar":13232,"Ġindignation":13233,"Subd":13234,"Ġcordial":13235,"Ġnymphs":13236,"Ġdelivers":13237,"Ġunprov":13238,"Ġconfederates":13239,"Ġmoonshine":13240,"Ġpronounced":13241,"Cassio":13242,"drawn":13243,"Ġaugment":13244,"Ġdedicate":13245,"Ġgorgeous":13246,"Ġpuissant":13247,"Ġpuissance":13248,"between":13249,"Ġchapel":13250,"Ġrigour":13251,"ĠAdriana":13252,"ĠVolumnius":13253,"Ġhammer":13254,"Ġperdition":13255,"Ġtransgression":13256,"Petruchio":13257,"mighty":13258,"oonshine":13259,"Ġautumn":13260,"keeper":13261,"Ġstinking":13262,"ĠLodovico":13263,"Ġmuffled":13264,"Ġconsecrate":13265,"Ġcontagious":13266,"Ġtragic":13267,"Ġcups":13268,"Ġeggs":13269,"Ġstratagem":13270,"ĠTyrrel":13271,"fleur":13272,"ĠBellario":13273,"ĠTrumpets":13274,"ĠProculeius":13275,"Ġignoble":13276,"Kneel":13277,"Ġtinker":13278,"ĠHarfleur":13279,"Ġsprites":13280,"ĠMurderers":13281,"ĠFourth":13282,"Ġusurper":13283,"Ġunhallowed":13284,"igneur":13285,"Ġidiot":13286,"Ġindustry":13287,"ĠVenetian":13288,"Lysander":13289,"Rosal":13290,"ĠTearsheet":13291,"ĠEurope":13292,"Ġprecepts":13293,"Ġattorney":13294,"Ġordinance":13295,"spurgh":13296,"Ġdunghill":13297,"AEDILE":13298,"Ġgaudy":13299,"ĠPolyd":13300,"SHERIFF":13301,"Ġincorporate":13302,"Ġcalendar":13303,"BLANCHE":13304,"Chorus":13305,"durate":13306,"Ġsupreme":13307,"ĠAmbassad":13308,"ĠRavenspurgh":13309,"ĠTRAGEDY":13310,"Ġpeculiar":13311,"ĠGeoffrey":13312,"SURVEYOR":13313,"12":13314,"24":13315,"48":13316,"76":13317,"Af":13318,"Back":13319,"CT":13320,"Cried":13321,"Dar":13322,"Dra":13323,"Eight":13324,"Eros":13325,"EPILOGUE":13326,"Fight":13327,"FRO":13328,"Gone":13329,"Grant":13330,"Given":13331,"Hu":13332,"Hot":13333,"Hea":13334,"HIT":13335,"Hop":13336,"Hortensio":13337,"IV":13338,"ICH":13339,"IARD":13340,"JEW":13341,"Join":13342,"Kather":13343,"Killing":13344,"KNIGHT":13345,"Knows":13346,"Less":13347,"LAM":13348,"Laid":13349,"MO":13350,"Met":13351,"Mount":13352,"Mock":13353,"Mont":13354,"MITH":13355,"NY":13356,"Nurse":13357,"Pe":13358,"Py":13359,"Pom":13360,"Ra":13361,"Sur":13362,"Sear":13363,"Sister":13364,"SERV":13365,"Spare":13366,"Suffolk":13367,"SMITH":13368,"UGH":13369,"Ver":13370,"VIS":13371,"WILLO":13372,"WHIT":13373,"YSIC":13374,"bur":13375,"bate":13376,"bition":13377,"basket":13378,"blesome":13379,"bearer":13380,"cary":13381,"cides":13382,"dame":13383,"div":13384,"eb":13385,"ev":13386,"fear":13387,"find":13388,"full":13389,"gor":13390,"gold":13391,"gover":13392,"grand":13393,"grave":13394,"ii":13395,"ially":13396,"ipping":13397,"iency":13398,"kill":13399,"lady":13400,"lust":13401,"ma":13402,"mitted":13403,"opp":13404,"oken":13405,"pter":13406,"point":13407,"pipe":13408,"ration":13409,"sad":13410,"six":13411,"sleep":13412,"simple":13413,"sium":13414,"tha":13415,"tail":13416,"uation":13417,"vory":13418,"view":13419,"wr":13420,"wen":13421,"wink":13422,"ware":13423,"wark":13424,"xter":13425,"zards":13426,"Ġil":13427,"ĠExit":13428,"Ġtam":13429,"Ġtesty":13430,"hem":13431,"heath":13432,"Ġaus":13433,"Ġauth":13434,"oug":13435,"ouched":13436,"Ġsurn":13437,"Ġsched":13438,"Ġsighed":13439,"inf":13440,"iner":13441,"inher":13442,"Ġmater":13443,"Ġwage":13444,"Ġwreak":13445,"rement":13446,"Ġbale":13447,"Ġbened":13448,"Ġbourn":13449,"isle":13450,"isome":13451,"erning":13452,"oring":13453,"Ġfard":13454,"Ġfry":13455,"Ġfitt":13456,"Ġfitting":13457,"onours":13458,"âĢĻ!":13459,"Ġdastard":13460,"Ġdirty":13461,"Ġdwar":13462,"Ġcard":13463,"Ġcert":13464,"Ġcuff":13465,"Ġloo":13466,"Ġlaud":13467,"Ġlitter":13468,"Ġlances":13469,"Ġoo":13470,"Ġoyster":13471,"Ġnerves":13472,"Ġthres":13473,"arve":13474,"arity":13475,"Ġhive":13476,"Ġhint":13477,"Ġhug":13478,"Ġpence":13479,"Ġpins":13480,"ĠIlion":13481,"Ġhew":13482,"Ġheres":13483,"Ġheath":13484,"ange":13485,"stool":13486,"Ġgamb":13487,"Ġgasp":13488,"Ġginger":13489,"Ġinve":13490,"Ġinvoc":13491,"Ġbelied":13492,"Ġbefriend":13493,"cel":13494,"Ġhag":13495,"Ġhale":13496,"Ġhaven":13497,"utoly":13498,"irg":13499,"Ġmew":13500,"Ġmead":13501,"Ġmechan":13502,"chion":13503,"Ġeel":13504,"riv":13505,"rier":13506,"alus":13507,"entious":13508,"entimes":13509,"Ġstag":13510,"Ġstint":13511,"raised":13512,"Ġliable":13513,"urbs":13514,"urbed":13515,"Ġsojourn":13516,"vering":13517,"Ġdoit":13518,"ckles":13519,"Ġhermit":13520,"ANGER":13521,"estic":13522,"ĠSly":13523,"ĠSem":13524,"ĠSave":13525,"ĠSTR":13526,"ĠSisters":13527,"geus":13528,"ĠChe":13529,"ĠCar":13530,"ĠCad":13531,"ĠCurio":13532,"Thrust":13533,"Thunder":13534,"thus":13535,"those":13536,"ARL":13537,"Ġsubt":13538,"ilent":13539,"ĠHorns":13540,"rums":13541,"ĠAct":13542,"ĠAbb":13543,"ĠAquit":13544,"ĠAustria":13545,"ĠACT":13546,"ĠAutoly":13547,"elly":13548,"Ġfails":13549,"Ġspan":13550,"Ġspill":13551,"Ġspade":13552,"Ġspices":13553,"Ġsparrow":13554,"Told":13555,"hos":13556,"hole":13557,"ĠMoon":13558,"ĠMouldy":13559,"ĠMoonshine":13560,"Ġvall":13561,"Ġvult":13562,"Ġvary":13563,"Ġvaunt":13564,"Ġvirgins":13565,"ĠPLAYER":13566,"romise":13567,"ĠWart":13568,"ĠLend":13569,"ĠLysimachus":13570,"ĠLigarius":13571,"Ġshin":13572,"Ġshrunk":13573,"Ġshillings":13574,"ĠGot":13575,"ousy":13576,"question":13577,"Ġamber":13578,"emilius":13579,"Ġsheath":13580,"Ġgoats":13581,"Ġconject":13582,"ĠFA":13583,"ĠFast":13584,"ĠFife":13585,"ĠFeeble":13586,"icial":13587,"Ġblust":13588,"Ġblots":13589,"Ġblasphe":13590,"Exp":13591,"Expect":13592,"Ġsways":13593,"Ġswinged":13594,"ALIARD":13595,"feren":13596,"Ġprattle":13597,"olf":13598,"olis":13599,"Ġhatches":13600,"Ġthereupon":13601,"ĠDame":13602,"ĠDieu":13603,"ĠOlymp":13604,"ately":13605,"orts":13606,"arest":13607,"ĠTew":13608,"ĠTartar":13609,"ĠTunis":13610,"ĠThee":13611,"Ġplat":13612,"Ġplate":13613,"Ġplaint":13614,"Ġplume":13615,"Ġplotted":13616,"THALIARD":13617,"igs":13618,"odest":13619,"Ġjars":13620,"Ġunity":13621,"Ġunacc":13622,"Ġunadv":13623,"Ġuncivil":13624,"Ġcomely":13625,"Ġenjoin":13626,"Ġbroo":13627,"Ġhogs":13628,"Ġmusty":13629,"Ġmustard":13630,"Ġsage":13631,"Ġsable":13632,"Ġsavours":13633,"peius":13634,"Ġproc":13635,"Ġprolong":13636,"ptains":13637,"Ġpope":13638,"Ġdissu":13639,"Ġexempt":13640,"ĠEver":13641,"ĠNight":13642,"ĠJac":13643,"urnish":13644,"Inf":13645,"Inv":13646,"Infect":13647,"acks":13648,"Ġthinkest":13649,"Ġflows":13650,"Ġflaming":13651,"Ġabb":13652,"Ġabed":13653,"Ġability":13654,"Ġroared":13655,"Ġroyally":13656,"Ġchaf":13657,"Ġchased":13658,"Ġchafed":13659,"agn":13660,"agre":13661,"agine":13662,"agate":13663,"Ġtwink":13664,"Ġgrapes":13665,"ciences":13666,"Ġwherewith":13667,"osity":13668,"Ġrichest":13669,"Ġmarrow":13670,"Beats":13671,"Ġbrew":13672,"Ġbetide":13673,"Ġbetrot":13674,"reech":13675,"liard":13676,"liction":13677,"liena":13678,"Ġearls":13679,"Ġbloodless":13680,"Ġwrote":13681,"answer":13682,"Ġplebeians":13683,"Ġclime":13684,"Ġperce":13685,"Ġperils":13686,"Ġraiment":13687,"Ġhasten":13688,"Ġhastily":13689,"Ġprayed":13690,"PHYSIC":13691,"Ġimmin":13692,"ccess":13693,"Ġrules":13694,"Ġruined":13695,"ĠVaughan":13696,"Ġcompel":13697,"issing":13698,"Ġcontending":13699,"Ġpresage":13700,"Ġpreserved":13701,"Ġsloth":13702,"swain":13703,"Ġhart":13704,"Ġharness":13705,"blest":13706,"Ġpoorly":13707,"Ġpursues":13708,"pleasing":13709,"Ġendow":13710,"Ġglutton":13711,"ertake":13712,"ucket":13713,"Ġreplies":13714,"Ġmercha":13715,"Ġmercil":13716,"Ġsmock":13717,"clasp":13718,"Ġbravery":13719,"ĠCaptains":13720,"Stud":13721,"Stoop":13722,"acon":13723,"retched":13724,"Ġlieu":13725,"Ġcog":13726,"Ġconfin":13727,"Ġconfined":13728,"Doing":13729,"BEVIS":13730,"Ġminded":13731,"Ġconsist":13732,"ĠAntonius":13733,"ailing":13734,"ailed":13735,"ailors":13736,"abs":13737,"ability":13738,"Ġchough":13739,"Ġchuck":13740,"Ġgiv":13741,"Ġfortnight":13742,"Ġchecks":13743,"Ġreserved":13744,"Ġcharter":13745,"ĠAnon":13746,"Ġlightness":13747,"Ġwrongfully":13748,"Ġimpl":13749,"Ġimpious":13750,"Ġdrab":13751,"Ġanswering":13752,"Ġfalchion":13753,"Ġretain":13754,"Ġaccents":13755,"Ġearthqu":13756,"Ġpraising":13757,"Ġsuburbs":13758,"Ġovert":13759,"Ġwindy":13760,"Ġthreefold":13761,"Ġivory":13762,"Ġmonuments":13763,"Ġdiscreet":13764,"Ġthankfully":13765,"Ġmispr":13766,"Ġlawless":13767,"ĠYor":13768,"BOUR":13769,"Ġbriers":13770,"Ġbridge":13771,"Ġstriving":13772,"Ġillust":13773,"Ġbubble":13774,"Ġyeoman":13775,"Ġwelcomes":13776,"Ġsunshine":13777,"ĠBecause":13778,"OMENES":13779,"uesday":13780,"Ġbreaths":13781,"command":13782,"plain":13783,"Ġentice":13784,"Ġoftentimes":13785,"Ġwanted":13786,"ĠThrough":13787,"Ġstrains":13788,"Ġspiritual":13789,"Ġlesson":13790,"Ġfouler":13791,"Ġdrudge":13792,"Ġuncles":13793,"ĠIsis":13794,"Ġsicken":13795,"Ġdispraise":13796,"Ġdoubtless":13797,"Ġviands":13798,"ĠStrato":13799,"Ġdepth":13800,"Ġdepose":13801,"Ġskip":13802,"Ġinfring":13803,"ĠCassandra":13804,"otting":13805,"Ġattendance":13806,"Ġintolerable":13807,"Ġmusical":13808,"Ġawak":13809,"Ġawful":13810,"Ġdamask":13811,"Ġdistinction":13812,"CLEOMENES":13813,"Ġcertainty":13814,"Twenty":13815,"Ġmines":13816,"Ġforgo":13817,"Ġfitter":13818,"Ġfitness":13819,"Ġparl":13820,"ĠNoble":13821,"Ġactive":13822,"Ġrecreation":13823,"UNTSMAN":13824,"Ġmarrying":13825,"PETO":13826,"Ġhellish":13827,"Ġhotly":13828,"ĠWhence":13829,"Ġdivinity":13830,"Ġvisited":13831,"Ġopenly":13832,"Ġjudgements":13833,"Ġeating":13834,"ELLER":13835,"Ġprofits":13836,"ipotent":13837,"Ġestates":13838,"Ġwheat":13839,"Ġembark":13840,"Ġdropped":13841,"Ġstraightway":13842,"CLITUS":13843,"Ġchangeling":13844,"azed":13845,"Ġgrooms":13846,"amples":13847,"Ġdarkly":13848,"Ġcleft":13849,"Ġcastles":13850,"Ġscorned":13851,"Trumpet":13852,"Ġcaptives":13853,"Ġcaptivity":13854,"Scorn":13855,"Ġrevengeful":13856,"Ġrange":13857,"Ġclosely":13858,"Ġregiment":13859,"Ġmoonlight":13860,"Ġbroached":13861,"Ġsoften":13862,"UTIUS":13863,"Ġwilderness":13864,"Ġlowest":13865,"Ġtroublesome":13866,"Ġintercess":13867,"Ġinterchange":13868,"umbers":13869,"Ġshipped":13870,"Ġconstrain":13871,"ĠFlorizel":13872,"chery":13873,"Ġwounding":13874,"Ġbattlements":13875,"ADOR":13876,"Ġduly":13877,"Princes":13878,"Ġobdurate":13879,"Ġfamine":13880,"Ġfamily":13881,"Ġfashions":13882,"Ġcasement":13883,"Ġlimed":13884,"Ġpoisoned":13885,"Deep":13886,"Ġchurl":13887,"supp":13888,"Ġwooden":13889,"Ġadmittance":13890,"Ġdrowning":13891,"arlisle":13892,"Convey":13893,"Ġbirths":13894,"Ġexecut":13895,"ĠPlains":13896,"ĠPluto":13897,"Ġqualify":13898,"Ġwisdoms":13899,"Ġorderly":13900,"Ġconsented":13901,"Calls":13902,"Ġargos":13903,"Ġsnuff":13904,"BASSADOR":13905,"Ġviolets":13906,"eyes":13907,"Ġchastisement":13908,"Disgu":13909,"Ġmeditation":13910,"Ġinvited":13911,"Ġpractised":13912,"Ġconceited":13913,"Ġtemporal":13914,"Ġprovision":13915,"Ġverge":13916,"ĠScots":13917,"Ġcontinuance":13918,"Ġrefus":13919,"Ġcounterpo":13920,"Caius":13921,"Ġmutinous":13922,"ĠCleomenes":13923,"Ġvanished":13924,"appare":13925,"appointed":13926,"Ġdifferen":13927,"Ġstrucken":13928,"Ġfainting":13929,"ĠMontjoy":13930,"uthority":13931,"Ġwantonness":13932,"Ġembracements":13933,"ĠSERVANTS":13934,"Ġtransformed":13935,"Ġtranslate":13936,"Ġrudely":13937,"Ġirons":13938,"Ġshipw":13939,"Ġbeggarly":13940,"Perform":13941,"Ġphysicians":13942,"Ġodours":13943,"ĠDeipho":13944,"Ġcourageous":13945,"Ġimportun":13946,"Ġformerly":13947,"ĠDesp":13948,"ĠCommend":13949,"Ġprotestation":13950,"Question":13951,"aldo":13952,"Ġhiding":13953,"Ġutterly":13954,"Ġuttermost":13955,"Ġbasilis":13956,"Ġfleece":13957,"Ġwaggon":13958,"Ġportion":13959,"Blow":13960,"Ġlenity":13961,"Clifford":13962,"ibel":13963,"ibility":13964,"Ġmildness":13965,"Ġsacrament":13966,"Ġlineal":13967,"Ġante":13968,"Ġsauc":13969,"ĠShould":13970,"Ġengag":13971,"Ġdisdainful":13972,"Ġrides":13973,"Ġholes":13974,"Ġpacking":13975,"Ġclothe":13976,"Ġdetect":13977,"Ġweighs":13978,"Ġlengthen":13979,"ĠSaye":13980,"Ġmilitary":13981,"arnish":13982,"Ġtemperance":13983,"Ġmischiefs":13984,"Ġtapers":13985,"MORE":13986,"Troth":13987,"Ġmournful":13988,"themselves":13989,"ĠLearn":13990,"Henceforth":13991,"Ġavoided":13992,"Ġforfeiture":13993,"Ġswallowing":13994,"laws":13995,"Ġpreferment":13996,"Ġshifts":13997,"Ġcouched":13998,"Seven":13999,"Ġafflicted":14000,"Consent":14001,"Ġshrift":14002,"zzled":14003,"Ġgazed":14004,"ĠAbout":14005,"Ġravens":14006,"Ġravenous":14007,"Ġbelieved":14008,"Ġsinew":14009,"Ġmillions":14010,"Ġclergy":14011,"Ġrescued":14012,"monger":14013,"Ġmassac":14014,"ĠNeither":14015,"Ġexpedient":14016,"Ġpeasants":14017,"Ġdepending":14018,"Ġachieved":14019,"Ġwrestling":14020,"Ġdukedoms":14021,"ĠCollatinus":14022,"Ġbaggage":14023,"Ġlamps":14024,"Ġlaments":14025,"rogative":14026,"Ġunjustly":14027,"Ġtumble":14028,"favour":14029,"warrant":14030,"Ġbonny":14031,"footed":14032,"Ġdungeon":14033,"Ġadversity":14034,"Amongst":14035,"hastly":14036,"ĠIndian":14037,"Ġcurtsies":14038,"Ġjuice":14039,"Ġapprehended":14040,"Ġbrands":14041,"ĠXII":14042,"Ġspectacles":14043,"ĠTurkish":14044,"Ġtimeless":14045,"Ġtigers":14046,"Ġsparkling":14047,"Ġconcludes":14048,"News":14049,"Ġmanifold":14050,"Ġendeavours":14051,"Ġimpediments":14052,"Ġtrenches":14053,"Ġditch":14054,"ALEXANDER":14055,"Ġpeerless":14056,"Ġvanquish":14057,"Ġoxen":14058,"Ġparcels":14059,"Ġinsolent":14060,"Ġslippery":14061,"advantage":14062,"Ġplanets":14063,"Ġexclaims":14064,"Ġbragging":14065,"Ġconspiracy":14066,"Ġsummers":14067,"morris":14068,"modated":14069,"Ġdoleful":14070,"Ġworshipp":14071,"DORSET":14072,"foolish":14073,"lamis":14074,"ĠChild":14075,"Ġdisplay":14076,"deliver":14077,"Ġthirsty":14078,"Ġhopeless":14079,"Ġchallenged":14080,"Cleopatra":14081,"EGLAM":14082,"tongued":14083,"Ġtarget":14084,"Ġgamester":14085,"Ġhallowed":14086,"ĠElysium":14087,"ĠVolumnia":14088,"Ġlarg":14089,"Ġpirate":14090,"Ġpirates":14091,"Ġwrangling":14092,"Ġinferior":14093,"Ġsurmise":14094,"Ġindirectly":14095,"aurus":14096,"Ġfaculties":14097,"ĠEastcheap":14098,"Ġlackey":14099,"Ġmajestical":14100,"Ġimpudent":14101,"Ġwhelp":14102,"Ġescaped":14103,"Ġhypocrite":14104,"Pointing":14105,"Ġberries":14106,"Ġlullaby":14107,"ĠBrakenbury":14108,"ĠVarro":14109,"Ġcurtains":14110,"Ġforgiveness":14111,"Ġinsulting":14112,"Acqu":14113,"jection":14114,"soldiers":14115,"Ġpoorest":14116,"othecary":14117,"Ġinspired":14118,"ĠSmith":14119,"Ġradiant":14120,"Ġruminate":14121,"Ġmagnanim":14122,"Ġgreyhound":14123,"Ġdisobedience":14124,"Ġsession":14125,"Ġfestiv":14126,"Ġgyves":14127,"ĠSecond":14128,"Thoughts":14129,"Ġrivals":14130,"Ġchronicle":14131,"Ġwheresoe":14132,"Ġpuppet":14133,"Ġburdens":14134,"Ġcontradict":14135,"toric":14136,"Ġpyram":14137,"Ġgesture":14138,"ĠCurtis":14139,"Ġengend":14140,"RIBUNES":14141,"Ġremedies":14142,"Ġbridal":14143,"Ġmalignant":14144,"TUBAL":14145,"Ġbauble":14146,"Ġpardons":14147,"Ġgeese":14148,"Ġgathered":14149,"Ġdemean":14150,"ĠSunday":14151,"ĠChatillion":14152,"ĠAedile":14153,"ĠSteward":14154,"Ġpetticoat":14155,"Pretty":14156,"ĠBigot":14157,"Ġparchment":14158,"ĠApartment":14159,"Rosalind":14160,"ĠPolydore":14161,"FROTH":14162,"JEWELLER":14163,"Pompey":14164,"SERVILIUS":14165,"UGHBY":14166,"WILLOUGHBY":14167,"WHITMORE":14168,"Ġauspicious":14169,"Ġauthors":14170,"ĠSTRANGER":14171,"ĠAquitaine":14172,"ĠAutolycus":14173,"ĠJacob":14174,"Ġbetrothed":14175,"PHYSICIAN":14176,"Ġmerchand":14177,"Ġmerciless":14178,"ĠDeiphobus":14179,"EGLAMOUR":14180,"32":14181,"40":14182,"AEL":14183,"Allow":14184,"Avaunt":14185,"Ber":14186,"Bound":14187,"BATES":14188,"CO":14189,"Cal":14190,"Cur":14191,"Cam":14192,"Cho":14193,"Creat":14194,"Carry":14195,"Due":14196,"Dies":14197,"Dark":14198,"Durst":14199,"Demand":14200,"EBLE":14201,"Fast":14202,"Fire":14203,"French":14204,"FANG":14205,"Further":14206,"Grow":14207,"Gold":14208,"Grand":14209,"Grief":14210,"Har":14211,"Home":14212,"Hate":14213,"Horatio":14214,"IX":14215,"Joy":14216,"Jesu":14217,"Lose":14218,"Little":14219,"Lays":14220,"Mel":14221,"MARD":14222,"Neg":14223,"OUT":14224,"Obey":14225,"PU":14226,"Pour":14227,"Page":14228,"Pull":14229,"Peter":14230,"Queen":14231,"Rough":14232,"Ref":14233,"Rob":14234,"Ratcliffe":14235,"Sith":14236,"Sec":14237,"Seal":14238,"Shylock":14239,"Tri":14240,"TLAND":14241,"Timon":14242,"Tranio":14243,"Treason":14244,"Went":14245,"Want":14246,"Weak":14247,"Wife":14248,"Work":14249,"WIFE":14250,"XTON":14251,"aoler":14252,"bat":14253,"bound":14254,"buck":14255,"bows":14256,"bird":14257,"bolt":14258,"cond":14259,"chered":14260,"content":14261,"dent":14262,"dea":14263,"dains":14264,"dges":14265,"dog":14266,"danger":14267,"fo":14268,"far":14269,"four":14270,"first":14271,"fitable":14272,"grow":14273,"gans":14274,"grace":14275,"gory":14276,"gling":14277,"gartered":14278,"gberry":14279,"hot":14280,"horn":14281,"honesty":14282,"iors":14283,"jurious":14284,"known":14285,"low":14286,"lie":14287,"labour":14288,"mis":14289,"mount":14290,"mary":14291,"mouthed":14292,"makers":14293,"nor":14294,"nay":14295,"nant":14296,"naldo":14297,"ole":14298,"ooth":14299,"obs":14300,"pable":14301,"phant":14302,"rine":14303,"rors":14304,"rmid":14305,"sight":14306,"sers":14307,"spe":14308,"sack":14309,"suck":14310,"somet":14311,"tale":14312,"uity":14313,"ville":14314,"wal":14315,"went":14316,"watch":14317,"walk":14318,"wrest":14319,"year":14320,"youth":14321,"Ġou":14322,"Ġtart":14323,"het":14324,"hears":14325,"heaven":14326,"Ġath":14327,"Ġaqu":14328,"Ġavail":14329,"ourest":14330,"inst":14331,"inore":14332,"Ġmow":14333,"Ġmace":14334,"Ġmix":14335,"Ġmote":14336,"Ġmated":14337,"Ġmature":14338,"Ġmickle":14339,"Ġwaked":14340,"report":14341,"hage":14342,"Ġbashful":14343,"isheth":14344,"ero":14345,"erver":14346,"erio":14347,"erbear":14348,"ority":14349,"Ġfum":14350,"Ġfade":14351,"itious":14352,"itches":14353,"itadel":14354,"Ġdive":14355,"Ġdub":14356,
[...]
